{
  "version": "1.0",
  "truncation": null,
  "padding": null,
  "added_tokens": [
    {
      "id": 0,
      "content": "<|bos|>",
      "single_word": false,
      "lstrip": false,
      "rstrip": false,
      "normalized": false,
      "special": true
    },
    {
      "id": 1,
      "content": "<|eos|>",
      "single_word": false,
      "lstrip": false,
      "rstrip": false,
      "normalized": false,
      "special": true
    }
  ],
  "normalizer": null,
  "pre_tokenizer": {
    "type": "Sequence",
    "pretokenizers": [
      {
        "type": "Split",
        "pattern": {
          "Regex": "[^\\r\\n\\p{L}\\p{N}]?[\\p{L}\\p{M}]+(?:'[\\p{L}\\p{M}]+)*|\\p{N}|[^\\s\\p{L}\\p{N}]+[\\r\\n]*|\\s*[\\r\\n]+|\\s+"
        },
        "behavior": "Isolated",
        "invert": false
      },
      {
        "type": "ByteLevel",
        "add_prefix_space": false,
        "trim_offsets": true,
        "use_regex": false
      }
    ]
  },
  "post_processor": {
    "type": "Sequence",
    "processors": [
      {
        "type": "ByteLevel",
        "add_prefix_space": true,
        "trim_offsets": false,
        "use_regex": true
      },
      {
        "type": "TemplateProcessing",
        "single": [
          {
            "SpecialToken": {
              "id": "<|bos|>",
              "type_id": 0
            }
          },
          {
            "Sequence": {
              "id": "A",
              "type_id": 0
            }
          },
          {
            "SpecialToken": {
              "id": "<|eos|>",
              "type_id": 0
            }
          }
        ],
        "pair": [
          {
            "Sequence": {
              "id": "A",
              "type_id": 0
            }
          },
          {
            "Sequence": {
              "id": "B",
              "type_id": 1
            }
          }
        ],
        "special_tokens": {
          "<|bos|>": {
            "id": "<|bos|>",
            "ids": [
              0
            ],
            "tokens": [
              "<|bos|>"
            ]
          },
          "<|eos|>": {
            "id": "<|eos|>",
            "ids": [
              1
            ],
            "tokens": [
              "<|eos|>"
            ]
          }
        }
      }
    ]
  },
  "decoder": {
    "type": "ByteLevel",
    "add_prefix_space": true,
    "trim_offsets": true,
    "use_regex": true
  },
  "model": {
    "type": "BPE",
    "dropout": null,
    "unk_token": null,
    "continuing_subword_prefix": null,
    "end_of_word_suffix": null,
    "fuse_unk": false,
    "byte_fallback": false,
    "ignore_merges": false,
    "vocab": {
      "<|bos|>": 0,
      "<|eos|>": 1,
      "!": 2,
      "\"": 3,
      "#": 4,
      "$": 5,
      "%": 6,
      "&": 7,
      "'": 8,
      "(": 9,
      ")": 10,
      "*": 11,
      "+": 12,
      ",": 13,
      "-": 14,
      ".": 15,
      "/": 16,
      "0": 17,
      "1": 18,
      "2": 19,
      "3": 20,
      "4": 21,
      "5": 22,
      "6": 23,
      "7": 24,
      "8": 25,
      "9": 26,
      ":": 27,
      ";": 28,
      "<": 29,
      "=": 30,
      ">": 31,
      "?": 32,
      "@": 33,
      "A": 34,
      "B": 35,
      "C": 36,
      "D": 37,
      "E": 38,
      "F": 39,
      "G": 40,
      "H": 41,
      "I": 42,
      "J": 43,
      "K": 44,
      "L": 45,
      "M": 46,
      "N": 47,
      "O": 48,
      "P": 49,
      "Q": 50,
      "R": 51,
      "S": 52,
      "T": 53,
      "U": 54,
      "V": 55,
      "W": 56,
      "X": 57,
      "Y": 58,
      "Z": 59,
      "[": 60,
      "\\": 61,
      "]": 62,
      "^": 63,
      "_": 64,
      "`": 65,
      "a": 66,
      "b": 67,
      "c": 68,
      "d": 69,
      "e": 70,
      "f": 71,
      "g": 72,
      "h": 73,
      "i": 74,
      "j": 75,
      "k": 76,
      "l": 77,
      "m": 78,
      "n": 79,
      "o": 80,
      "p": 81,
      "q": 82,
      "r": 83,
      "s": 84,
      "t": 85,
      "u": 86,
      "v": 87,
      "w": 88,
      "x": 89,
      "y": 90,
      "z": 91,
      "{": 92,
      "|": 93,
      "}": 94,
      "~": 95,
      "¡": 96,
      "¢": 97,
      "£": 98,
      "¤": 99,
      "¥": 100,
      "¦": 101,
      "§": 102,
      "¨": 103,
      "©": 104,
      "ª": 105,
      "«": 106,
      "¬": 107,
      "®": 108,
      "¯": 109,
      "°": 110,
      "±": 111,
      "²": 112,
      "³": 113,
      "´": 114,
      "µ": 115,
      "¶": 116,
      "·": 117,
      "¸": 118,
      "¹": 119,
      "º": 120,
      "»": 121,
      "¼": 122,
      "½": 123,
      "¾": 124,
      "¿": 125,
      "À": 126,
      "Á": 127,
      "Â": 128,
      "Ã": 129,
      "Ä": 130,
      "Å": 131,
      "Æ": 132,
      "Ç": 133,
      "È": 134,
      "É": 135,
      "Ê": 136,
      "Ë": 137,
      "Ì": 138,
      "Í": 139,
      "Î": 140,
      "Ï": 141,
      "Ð": 142,
      "Ñ": 143,
      "Ò": 144,
      "Ó": 145,
      "Ô": 146,
      "Õ": 147,
      "Ö": 148,
      "×": 149,
      "Ø": 150,
      "Ù": 151,
      "Ú": 152,
      "Û": 153,
      "Ü": 154,
      "Ý": 155,
      "Þ": 156,
      "ß": 157,
      "à": 158,
      "á": 159,
      "â": 160,
      "ã": 161,
      "ä": 162,
      "å": 163,
      "æ": 164,
      "ç": 165,
      "è": 166,
      "é": 167,
      "ê": 168,
      "ë": 169,
      "ì": 170,
      "í": 171,
      "î": 172,
      "ï": 173,
      "ð": 174,
      "ñ": 175,
      "ò": 176,
      "ó": 177,
      "ô": 178,
      "õ": 179,
      "ö": 180,
      "÷": 181,
      "ø": 182,
      "ù": 183,
      "ú": 184,
      "û": 185,
      "ü": 186,
      "ý": 187,
      "þ": 188,
      "ÿ": 189,
      "Ā": 190,
      "ā": 191,
      "Ă": 192,
      "ă": 193,
      "Ą": 194,
      "ą": 195,
      "Ć": 196,
      "ć": 197,
      "Ĉ": 198,
      "ĉ": 199,
      "Ċ": 200,
      "ċ": 201,
      "Č": 202,
      "č": 203,
      "Ď": 204,
      "ď": 205,
      "Đ": 206,
      "đ": 207,
      "Ē": 208,
      "ē": 209,
      "Ĕ": 210,
      "ĕ": 211,
      "Ė": 212,
      "ė": 213,
      "Ę": 214,
      "ę": 215,
      "Ě": 216,
      "ě": 217,
      "Ĝ": 218,
      "ĝ": 219,
      "Ğ": 220,
      "ğ": 221,
      "Ġ": 222,
      "ġ": 223,
      "Ģ": 224,
      "ģ": 225,
      "Ĥ": 226,
      "ĥ": 227,
      "Ħ": 228,
      "ħ": 229,
      "Ĩ": 230,
      "ĩ": 231,
      "Ī": 232,
      "ī": 233,
      "Ĭ": 234,
      "ĭ": 235,
      "Į": 236,
      "į": 237,
      "İ": 238,
      "ı": 239,
      "Ĳ": 240,
      "ĳ": 241,
      "Ĵ": 242,
      "ĵ": 243,
      "Ķ": 244,
      "ķ": 245,
      "ĸ": 246,
      "Ĺ": 247,
      "ĺ": 248,
      "Ļ": 249,
      "ļ": 250,
      "Ľ": 251,
      "ľ": 252,
      "Ŀ": 253,
      "ŀ": 254,
      "Ł": 255,
      "ł": 256,
      "Ń": 257,
      "ĠÐ": 258,
      "Ð¾": 259,
      "Ð°": 260,
      "Ð½": 261,
      "Ð¸": 262,
      "Ñĸ": 263,
      "ÑĤ": 264,
      "ÑĢ": 265,
      "Ðµ": 266,
      "Ð¾Ð": 267,
      "Ñģ": 268,
      "Ñĥ": 269,
      "Ðº": 270,
      "Ð»": 271,
      "Ð²": 272,
      "Ñı": 273,
      "Ð´": 274,
      "ÑĮ": 275,
      "Ð¼": 276,
      "ĠÐ¿": 277,
      "ĠÐ²": 278,
      "ÑģÑĤ": 279,
      "Ñĩ": 280,
      "ĠÐ·": 281,
      "Ñħ": 282,
      "Ð¹": 283,
      "Ð¾Ð²": 284,
      "ĠÐ½": 285,
      "Ð¿": 286,
      "ÑĨ": 287,
      "Ð½Ð¸": 288,
      "ÑĢÐ°": 289,
      "Ñİ": 290,
      "ĠÐ´": 291,
      "ÐµÑĢ": 292,
      "ÑĹ": 293,
      "ÑĤÐ¸": 294,
      "Ð·": 295,
      "ÐµÐ½": 296,
      "ĠÑģ": 297,
      "Ð°Ð½": 298,
      "ĠÑĤ": 299,
      "Ð±": 300,
      "Ð¾Ð¼": 301,
      "ÑĪ": 302,
      "Ð¾ÑĢ": 303,
      "Ð¾Ð³": 304,
      "Ð³": 305,
      "ÑĸÐ´": 306,
      "Ð½Ñı": 307,
      "ĠÐ½Ð°": 308,
      "ĠÐ¼": 309,
      "Ð½Ñĸ": 310,
      "Ð°Ð»": 311,
      "ĠÐº": 312,
      "ÑĶ": 313,
      "ĠÑĢ": 314,
      "Ð¶": 315,
      "ÑĸÐ²": 316,
      "ĠÑĸ": 317,
      "ĠÐ¿ÑĢ": 318,
      "Ð¾Ð´": 319,
      "ĠÐ¾": 320,
      "Ð¾Ð³Ð¾": 321,
      "Ð½Ð°": 322,
      "ĠÐ±": 323,
      "ÑĤÑĮ": 324,
      "ÑĨÑĸ": 325,
      "Ð¾Ð»": 326,
      "Ð½Ð¾": 327,
      "ĠÐ·Ð°": 328,
      "ÐºÐ¸": 329,
      "ĠÑĥ": 330,
      ".Ċ": 331,
      "Ñī": 332,
      "ÐºÐ°": 333,
      "ÑģÑı": 334,
      "ÑģÑĮ": 335,
      "Ð»Ð°": 336,
      "Ð²Ð°": 337,
      "Ð»ÑĮ": 338,
      "ĠÐ²Ð¸": 339,
      "Ð¾Ð±": 340,
      "Ð»Ð¸": 341,
      "ÑĢÐ¸": 342,
      "ÑĦ": 343,
      "Ð¾Ðº": 344,
      "ĠÑĤÐ°": 345,
      "ĠÐ°": 346,
      "Ð¾Ð½": 347,
      "Ð¼Ð¸": 348,
      "Ð»Ñı": 349,
      "âĢ": 350,
      "ĠÑı": 351,
      "ĠÐ½Ðµ": 352,
      "ĠÐ³": 353,
      "Ð¾Ð·": 354,
      "ÐµÑĢÐµ": 355,
      "ÐµÐ½Ð½Ñı": 356,
      "ÐºÑĥ": 357,
      "ĠÐ²ÑĸÐ´": 358,
      "Ð°ÑĢ": 359,
      "ĠÑī": 360,
      "ĠÑĩ": 361,
      "Ð¾Ñģ": 362,
      "Ð°Ð½Ð½Ñı": 363,
      "ÑĸÐ½": 364,
      "Ð°ÑĤ": 365,
      "Ð¾Ð¶": 366,
      "ÑĸÐ¹": 367,
      "ĠÑģÑĤ": 368,
      "Ð²Ð¸": 369,
      "Ð¾ÑĤ": 370,
      "Ð½Ð¸Ñħ": 371,
      "ÐºÐ¾": 372,
      "ĠÐ»": 373,
      "Ð¾Ð¼Ñĥ": 374,
      "Ð²Ñĸ": 375,
      "Ð´Ð¸": 376,
      "Ð°Ð»ÑĮ": 377,
      "Ð¾Ð²Ð¸": 378,
      "ÑĤÑĥ": 379,
      "ÑĸÐ»ÑĮ": 380,
      "Ð½Ð¸Ð¹": 381,
      "ĠÐ´Ð¾": 382,
      "Ð»Ðµ": 383,
      "ÑĩÐ¸": 384,
      "ĠÐ¿ÑĢÐ¸": 385,
      "ĠÐ±Ñĥ": 386,
      "ÑĢÑĥ": 387,
      "ÑĤÑĮÑģÑı": 388,
      "ĠÐĴ": 389,
      "Ð¾Ð¿": 390,
      "ÑĤÐ°": 391,
      "ĠÐŁ": 392,
      "ĠÑīÐ¾": 393,
      "Ð½Ñĥ": 394,
      "ĠÑĨ": 395,
      "Ð²Ð¾": 396,
      "ĠÐ¿ÑĢÐ¾": 397,
      "ĠÑıÐº": 398,
      "Ð°Ð²": 399,
      "Ð¼Ñĸ": 400,
      "Ð½Ð¾Ð³Ð¾": 401,
      "ÑĤÐµ": 402,
      "ÑĢÐµ": 403,
      "Ð°Ñģ": 404,
      "ÑĢÑĸ": 405,
      "Ð»Ñĸ": 406,
      "Â«": 407,
      "Ð¼Ð°": 408,
      "Â»": 409,
      "ĠÐ¿Ð¾": 410,
      "ĠÐļ": 411,
      "ĠÐ¡": 412,
      "ĠÑģÐ¿": 413,
      "ĠÑĢÐ¾Ð·": 414,
      "ÑģÑĤÑĸ": 415,
      "ĠÑĦ": 416,
      "ÑĪÐ¸": 417,
      "ĠÐ£": 418,
      "ÐºÑĢÐ°": 419,
      "ÐŁ": 420,
      "ĠÐ¾Ð±": 421,
      "ĠÐ¿ÑĸÐ´": 422,
      "âĢĶ": 423,
      "ĠÐ¼Ñĸ": 424,
      "ÑĸÐ·": 425,
      "ÑģÑĮÐº": 426,
      "Ð½Ðµ": 427,
      "ÑģÑĤÑĮ": 428,
      "ĠÑĢÐµ": 429,
      "ÑģÑĤÐ¸": 430,
      "ĠÑĸÐ½": 431,
      "Ð°ÑĶ": 432,
      "Ð°Ð»Ð¸": 433,
      "Ð½Ð¾ÑĹ": 434,
      "ĠÐľ": 435,
      "Ð°Ð´": 436,
      "ÑĥÐ²": 437,
      "ÑİÑĤÑĮ": 438,
      "ĠÐ¶": 439,
      "ĠÐ¿ÐµÑĢÐµ": 440,
      "ÐºÑĢÐ°ÑĹ": 441,
      "ÑĸÑĹ": 442,
      "ÑĨÑĸÑĹ": 443,
      "Ð¾ÑĢÐ¸": 444,
      "ĠÑħ": 445,
      "ÑĢÐ¾": 446,
      "ĠÐĶ": 447,
      "ĠÐĿ": 448,
      "Ð¾Ð´Ð¸": 449,
      "âĢĵ": 450,
      "Ð²Ð°ÑĤÐ¸": 451,
      "Ð°Ð¼": 452,
      "Ð¾Ð²Ð°": 453,
      "Ð¸ÑĤ": 454,
      "Ð»Ð¾": 455,
      "Ð°Ð¹": 456,
      "ĠÐ¹": 457,
      "ĠÐµ": 458,
      "ĠÐ´Ð»Ñı": 459,
      "ÐºÑĤ": 460,
      "'Ñı": 461,
      "ÐµÐ·": 462,
      "ĠÐĲ": 463,
      "ÐºÐ¸Ð¹": 464,
      "ĠÑĢÐ°": 465,
      "ÐµÐ´": 466,
      "ÑĪÐµ": 467,
      "ÐµÑĤ": 468,
      "Ð¡": 469,
      "ĠÐ¢": 470,
      "ÐĴ": 471,
      "ÑģÑĸ": 472,
      "ÐµÐ¼": 473,
      "Ð¾Ð²Ñĸ": 474,
      "ĠÐ¼Ð¾Ð¶": 475,
      "ÐĿ": 476,
      "Ð¾ÑĹ": 477,
      "Ð»Ð°Ð´": 478,
      "Ð¾ÐºÑĥ": 479,
      "ĠÐĹ": 480,
      "ĠÐ¿ÑĢÐ°": 481,
      "Ð°ÑĤÐ¸": 482,
      "ÐºÑĸÐ²": 483,
      "ÑģÐ¸": 484,
      "ĠÑĪ": 485,
      "Ð¾Ñİ": 486,
      "ÑĸÑı": 487,
      "Ð°Ð³": 488,
      "ÐµÐ¹": 489,
      "ĠÐĳ": 490,
      "ĠÐł": 491,
      "Ð¶Ðµ": 492,
      "Ð¸Ñģ": 493,
      "Ð¼Ñĥ": 494,
      "ĠÑĤÐµ": 495,
      "ĠÑĤÐ°Ðº": 496,
      "ĠÐŀ": 497,
      "ÐµÐ½ÑĤ": 498,
      "Ðŀ": 499,
      "ÐĲ": 500,
      "ÑĸÑĩ": 501,
      "Ðļ": 502,
      "ĠÑĹ": 503,
      "ĠÐ¾Ñģ": 504,
      "ĠÑģÑĥ": 505,
      "ĠÐ£ÐºÑĢÐ°ÑĹ": 506,
      "ÐºÐ¾ÑĹ": 507,
      "Ð»Ñĥ": 508,
      "Ð»Ñİ": 509,
      "ÑģÑĥ": 510,
      "Ð±Ñĥ": 511,
      "ĠÑģÐ¸": 512,
      "ÐºÐ»Ð°Ð´": 513,
      "Ð½Ð¸Ð¼": 514,
      "Ð°Ðº": 515,
      "ÐĶ": 516,
      "ÑĸÑĤ": 517,
      "ÑĥÑĶ": 518,
      "ĠÑĶ": 519,
      "ÑĸÑģ": 520,
      "ÑĨÑĸÐ¹": 521,
      "ÐºÐ¸Ñħ": 522,
      "ÐµÐº": 523,
      "ÑģÐ¿": 524,
      "Ð£": 525,
      ".ĊĊ": 526,
      "ÑĢÐ¾Ð±": 527,
      "ĠÐĵ": 528,
      "Ð¾Ñĩ": 529,
      "ĠÐ¿Ð¾Ð²": 530,
      "ÑĤÑĸ": 531,
      "ĠÐĨ": 532,
      "ÐĹ": 533,
      "ÑĥÐ²Ð°Ð½Ð½Ñı": 534,
      "ÑĥÐ¿": 535,
      "ÑĢÐ°Ð²": 536,
      "Ðł": 537,
      "ÑĨÑĮ": 538,
      "Ð¢": 539,
      "Ð»ÐµÐ½": 540,
      "Ð°Ð·": 541,
      "Ð¾Ð»Ð¸": 542,
      "ĠÐºÐ¾Ð¼": 543,
      "Ð°Ñħ": 544,
      "ĠÑĨÐµ": 545,
      "ÑĨÐµ": 546,
      "Ð´Ñĥ": 547,
      "Ð¿Ðµ": 548,
      "Ð±Ð¾": 549,
      "ÑĤÐ¾": 550,
      "Ð´Ñĸ": 551,
      "Ð´Ðµ": 552,
      "ÑĤÑı": 553,
      "Ð¼Ð¾": 554,
      "Ð²Ð¾ÑĢ": 555,
      "ÑĤÐ¸Ð²": 556,
      "Ð½Ð¸Ðº": 557,
      "Ðľ": 558,
      "Ð½Ð¾ÑģÑĤÑĸ": 559,
      "ÐµÐ½ÑĮ": 560,
      "Ð°Ð»Ð°": 561,
      "ÐºÐ¾Ð½": 562,
      "ĠÐ»Ñİ": 563,
      "ĠÐĽ": 564,
      "Ð·Ð½Ð°": 565,
      "ĠÑĢÐ¾ÐºÑĥ": 566,
      "ĠÑĤÐ¸": 567,
      "ÑĸÑĢ": 568,
      "ĠÐºÐ¾Ð½": 569,
      "Ð¿Ð¾Ð²": 570,
      "Ð²ÐµÑĢ": 571,
      "ĠÐ´Ðµ": 572,
      "ĠÐ¿ÐµÑĢ": 573,
      "ÑģÐµ": 574,
      "Ð»ÐµÐ½Ð½Ñı": 575,
      "ÑģÑĮÐºÐ¾Ð³Ð¾": 576,
      "ĠÐ¿Ð¾Ð»": 577,
      "ÑĨÑı": 578,
      "Ð°ÑĢÐ°": 579,
      "Ð¶ÐµÐ½Ð½Ñı": 580,
      "ÐºÐ¾Ð²": 581,
      "ÑģÑĮÐºÐ¾ÑĹ": 582,
      "ĠÑıÐºÑĸ": 583,
      "ÑĤÑĢÐ¸": 584,
      "ÑĩÐ°": 585,
      "ÐĨ": 586,
      "Ð½ÑĸÐ¹": 587,
      "Ð½ÑĮ": 588,
      "Ð½ÑĸÑģÑĤÑĮ": 589,
      "Ð¸Ð²": 590,
      "Ð°Ð½Ñĸ": 591,
      "ĠÐ¾Ð´": 592,
      "ĠÐ¿Ð¾Ð´": 593,
      "Ð¸ÑĤÐ¸": 594,
      "Ð½Ð¾Ñİ": 595,
      "ÐºÑĸ": 596,
      "ĠÑģÐ²Ð¾": 597,
      "ĠÑĢÐ¾Ð±": 598,
      "Ð´Ð°": 599,
      "ĠÑĩÐ°Ñģ": 600,
      "ĠÐ°Ð±Ð¾": 601,
      "ÑĨÑĸÑı": 602,
      "ĠÐ¿Ð¾ÑĤ": 603,
      "Ð½Ð¸Ð¼Ð¸": 604,
      "ĠÑĨÑĸ": 605,
      "Ð¾Ð²Ñĥ": 606,
      "Ð³Ñĥ": 607,
      "Ð½Ð¾Ð¼Ñĥ": 608,
      "ĠÐ·Ð½Ð°": 609,
      "ĠÑĩÐ¸": 610,
      "ĠÐ£ÐºÑĢÐ°ÑĹÐ½Ð¸": 611,
      "ÑģÑĤÐ°Ð½": 612,
      "ÑĢÐ¾Ð´": 613,
      "ÑĥÑĤ": 614,
      "ĠÐ¹Ð¾Ð³Ð¾": 615,
      "er": 616,
      "ÐµÑĢÐµÐ´": 617,
      "Ð¾Ð½Ð°": 618,
      "Ð°Ð¶": 619,
      "ÑĢÐ³": 620,
      "Ð²ÑĸÐ´": 621,
      "ÑĢÑı": 622,
      "Ð²Ð°Ð½Ð½Ñı": 623,
      "ÑİÑĤÑĮÑģÑı": 624,
      "ĠÐ»Ñĸ": 625,
      "ÐµÐ½Ñĸ": 626,
      "Ð¾Ð½Ð¸": 627,
      "Ð°Ð»Ñĸ": 628,
      "ÑĢÐ¾Ð¼": 629,
      "ÑģÑĮÐºÐ¸Ð¹": 630,
      "ÐµÐ»Ð¸": 631,
      "Ð²ÑĸÑĤ": 632,
      "ÑĤÐ¸Ñĩ": 633,
      "ÑĶÑĤÑĮÑģÑı": 634,
      "ÑĩÑĸ": 635,
      "Ð±Ð¸": 636,
      "ÑĦÐ¾ÑĢ": 637,
      "ÑİÑĩÐ¸": 638,
      "ĠÐ±ÐµÐ·": 639,
      "ÐµÑĢÑĸ": 640,
      "ĠÐ¼Ð¸": 641,
      "Ð½Ñİ": 642,
      "ÑģÑĤÐ°": 643,
      "Ð¾Ð²Ð¸Ñħ": 644,
      "ÑĥÐ½": 645,
      "Ð¾ÑĨÑĸ": 646,
      "Ð¾ÑĢÐ¸ÑģÑĤ": 647,
      "Ð¸Ñħ": 648,
      "ĠÐ²Ð¸Ðº": 649,
      "Ð»ÑĸÐ´": 650,
      "ÑĪÑĸ": 651,
      "ĠÐ´Ñĸ": 652,
      "Ðĳ": 653,
      "ÐµÑĢÐ¶": 654,
      "Ð¼ÑĸÐ½": 655,
      "ÑīÐ¾": 656,
      "ÑģÑĤÑĥÐ¿": 657,
      "Ð¾Ð´Ñĥ": 658,
      "Ð¾ÑĢÑĥ": 659,
      "ĠÐ¯": 660,
      "ĠÐ¿Ð¾Ñģ": 661,
      "Ð¼ÐµÐ½": 662,
      "ĠÐ»Ð¸": 663,
      "ĠÐ´Ñĥ": 664,
      ";Ċ": 665,
      "Ð¼Ðµ": 666,
      "Ð¾Ð»ÑĮ": 667,
      "Ð·Ð¸": 668,
      "ĠÐ¦": 669,
      "ÑĢÐ°Ð½": 670,
      "ĠÑĸÐ·": 671,
      "ĠÐ·Ð°Ñħ": 672,
      "ĠÑĤÐ°ÐºÐ¾Ð¶": 673,
      "Ð¾Ð»Ð¾Ð³": 674,
      "Ð¿Ð¾Ð²ÑĸÐ´": 675,
      "ĠÐºÑĢÐ°": 676,
      "ÑĥÐ´": 677,
      "Ð½Ð¸ÐºÐ°": 678,
      "Ð½ÑĸÑģÑĤ": 679,
      "Ð°Ð¼Ð¸": 680,
      "'ÑıÐ·": 681,
      "ĠÐ·Ð°Ð¿": 682,
      "in": 683,
      "Ð¾Ð¹": 684,
      "ÑĸÐº": 685,
      "ÑĩÐµÐ½Ð½Ñı": 686,
      "Ð½Ð¾Ð²": 687,
      "Ð¾ÑģÑĤ": 688,
      "Ð¾Ð´Ñĸ": 689,
      "ĠÑĨÑĮ": 690,
      "ÐºÐ¾Ñİ": 691,
      "Ð¿ÑĢÐ¸": 692,
      "Ð½ÑĸÐ²": 693,
      "ÑĥÑĢ": 694,
      "ĠÑĹÑħ": 695,
      "ĠÐ½Ð°Ð´": 696,
      "'ÑĶ": 697,
      "ÐµÑģ": 698,
      "ÑĢÐ³Ð°Ð½": 699,
      "an": 700,
      "ĠÐ½Ð°Ð¹": 701,
      "ĊĊ": 702,
      "Ð·Ñĥ": 703,
      "ÑĨÑĸÐ²": 704,
      "ÐºÑĢÐ°ÑĹÐ½": 705,
      "ĠÐ·Ð´": 706,
      "ĠÐ´Ð¾Ð¿": 707,
      "Ð²Ð°Ð²": 708,
      "ÑģÑĮÐºÐ°": 709,
      "),": 710,
      "ĠÑģÐ°Ð¼": 711,
      "ÑĸÐ»": 712,
      "Â»,": 713,
      "ÑħÑĸÐ´": 714,
      "ĠÐ·Ð±": 715,
      "ĠÑĢÐ¾Ðº": 716,
      "ÑĸÐ»ÑĮÐºÐ¸": 717,
      "ĠÑģÐµ": 718,
      "ĠÐ§": 719,
      "Ð¶Ð¸": 720,
      "Ð¿Ñĥ": 721,
      "ĠÐ¼Ðµ": 722,
      "ÐµÑĢÐ¸": 723,
      "on": 724,
      "ĠÐ±ÑĸÐ»ÑĮ": 725,
      "ĠÐ¾ÑĢÐ³Ð°Ð½": 726,
      "ĠÐĿÐ°": 727,
      "ĠÐ¼ÑĸÑģ": 728,
      "ĠÐ³Ð¾Ð»": 729,
      "ĠÐ¥": 730,
      "Ð±Ð°": 731,
      "ĠÐ¤": 732,
      "ĠÐ¿ÑĢÐ¾Ð²": 733,
      "ÑĥÐ²Ð°ÑĤÐ¸": 734,
      "Ðĵ": 735,
      "ÑģÑĤÐ¾": 736,
      "ĠÑĩÐ°": 737,
      "Ð³Ð¸": 738,
      "ĠÐºÐ¾Ð¼Ð¿": 739,
      "Ð»Ð¸Ð²Ð¾": 740,
      "ÑĦÑĸ": 741,
      "Ð°Ð»Ð¾": 742,
      "ÐºÐ¾Ð¼": 743,
      "Ð¾Ð²Ð°Ð½": 744,
      "ÑģÑĤÐµ": 745,
      "ĠÐ¿Ð¾Ðº": 746,
      "ÑĩÐµ": 747,
      "ĠÐ¾ÑģÐ¾Ð±": 748,
      "ÑĩÐ°Ñģ": 749,
      "ÐµÑĢÐµÐ·": 750,
      "Ð¾Ð³ÑĢÐ°": 751,
      "ĠÐ²ÑĸÐ½": 752,
      "ÑĪÐµÐ½Ð½Ñı": 753,
      "ÑĶÑİ": 754,
      "Ð¾ÑĤÐ¸": 755,
      "ĠÐ¼Ð¾Ð¶Ðµ": 756,
      "Ð»Ð°Ñģ": 757,
      "Ð½Ð¸ÐºÑĸÐ²": 758,
      "ÑģÑĮÐºÐ¸Ñħ": 759,
      "ÑģÑĤÐ²Ð°": 760,
      "ÑĸÑģÐ»Ñı": 761,
      "ĠÑģÐºÐ»Ð°Ð´": 762,
      "ĠÐ·Ð°Ð²": 763,
      "ÑĢÐ°Ñħ": 764,
      "ÑĨÐ¸": 765,
      "ÑĨÑİ": 766,
      "ĠÐ°Ð»Ðµ": 767,
      "ĠÐ½Ð°Ð²": 768,
      "ÐĽ": 769,
      "Ð¾Ð²Ð¸Ð¹": 770,
      "ÑģÑĤÐ°Ð²": 771,
      ":Ċ": 772,
      "ÑĨÑĸÑİ": 773,
      "ĠÐ±ÑĥÐ»Ð¾": 774,
      "ÐµÐ»ÑĮ": 775,
      "Ð°ÑİÑĤÑĮ": 776,
      "ĠÑģÐ²": 777,
      "Ð½ÐµÐ½Ð½Ñı": 778,
      "ÑĨÑĤ": 779,
      "ĠÑıÐºÐ¸Ð¹": 780,
      "ÑĸÐ¼": 781,
      "ÑĤÐ¾ÑĢ": 782,
      "ĠÐ¶Ð¸ÑĤ": 783,
      "Ð¯": 784,
      "ĠÐ²ÑģÑĸ": 785,
      "ÑĪÐ¸Ñħ": 786,
      "ÑĤÑĢÐ¸Ð¼": 787,
      "en": 788,
      "ÑĥÑĤÑĮ": 789,
      "or": 790,
      "ÑĤÐ¾Ð¼": 791,
      "ĠÐ¼Ð¾Ð¶Ð½Ð°": 792,
      "ĠÑĥÐºÑĢÐ°ÑĹÐ½": 793,
      "Ð°ÑĨÑĸÑĹ": 794,
      "ĠÐ±ÑĥÐ´": 795,
      "ĠÐ²ÑĸÐ´Ð¿Ð¾Ð²ÑĸÐ´": 796,
      "Ð°Ð»ÑĸÐ·": 797,
      "ÑĩÐµÐ½": 798,
      "Ð¾Ð½Ñĥ": 799,
      "ĠÐ´ÐµÑĢÐ¶": 800,
      "ÑĤÐ¸ÑģÑı": 801,
      "Ð´Ð¸Ð½": 802,
      "ĠÐ´Ð¾Ð¿Ð¾Ð¼": 803,
      "Ð°Ð¿": 804,
      "ĠÑīÐ¾Ð±": 805,
      "ĠÐ²Ð¸ÐºÐ¾ÑĢÐ¸ÑģÑĤ": 806,
      "ĠS": 807,
      "ĠÑĹÑĹ": 808,
      "ÑĢÐ¾Ð¿": 809,
      "ĠÐ½Ñĸ": 810,
      "Ð°ÑĶÑĤÑĮÑģÑı": 811,
      "ÑĤÑĸÐ²": 812,
      "ÑĥÐº": 813,
      "Ðķ": 814,
      "Ð³Ð»Ñı": 815,
      "ĠÐ¿Ð¾Ñĩ": 816,
      "ÐµÑĢÐ°": 817,
      "Ð°Ð½Ð´": 818,
      "ĠÐºÐ¾ÑĢ": 819,
      "ÑĤÐµÑĢ": 820,
      "ĠÐ²ÑĸÐ¹": 821,
      "Ð¾Ð»Ñĸ": 822,
      "ĠÐ°Ð²": 823,
      "ÑĢÐ¾Ð²": 824,
      "ar": 825,
      "ĠÐ¾Ð¿": 826,
      "ĠÐ´Ð¾Ñģ": 827,
      "ÐºÑĢÐ¸": 828,
      "ÐµÐ³": 829,
      "ÑıÐ²": 830,
      "Ð°ÑĢÑĤ": 831,
      "Ð°Ð½ÑĮ": 832,
      "ĠÑĤÐµÑĢ": 833,
      "ĠÐºÑĥ": 834,
      "ÐºÐ¸Ð¼": 835,
      "ÑĥÑĶÑĤÑĮÑģÑı": 836,
      "ÑĤÑĢÐ°": 837,
      "Ð¾Ñħ": 838,
      "ĠÐ³ÑĢÑĥ": 839,
      "Ñĭ": 840,
      "ĠÐ½Ð°Ð¿": 841,
      "ĠÑĢÑĥ": 842,
      "ÑĢÑĸÐ²": 843,
      "ĠÑĦÐ¾ÑĢ": 844,
      "Ð¾ÑĢÐ°": 845,
      "ÑĸÐ½Ð½Ñı": 846,
      "Ð²Ð°Ð¶": 847,
      "ÑħÐ¾Ð´Ð¸": 848,
      "ĠÑģÐ²Ð¾ÑĹ": 849,
      "ĠÑĢÑĸÐ·": 850,
      "ĠÐ²Ð¸Ð¿": 851,
      "ĠÐ´Ð¸": 852,
      "ĠÑĤÐ¾Ð¼Ñĥ": 853,
      "Ð¾Ð·Ð¸": 854,
      "ÑĨÑĸÐ¾Ð½": 855,
      "ĠÐ·Ð°Ð±": 856,
      "ÑĸÐ±": 857,
      "al": 858,
      "es": 859,
      "ĠÐ¿Ð¾Ð»Ñĸ": 860,
      "ÑĶÐ¼": 861,
      "ÑĢÑĸÐ±": 862,
      "âĢĿ": 863,
      "Ð¸Ð¼": 864,
      "ĠÐ·Ð°Ñģ": 865,
      ").": 866,
      "ĠÐ¼Ð°ÑĤ": 867,
      "Ð²Ðµ": 868,
      "ĠÐºÐ¾Ð»Ð¸": 869,
      "ĠÐ¿ÐµÑĢÐµÐ´": 870,
      "Ð°Ð»Ðµ": 871,
      "Ð·Ñĸ": 872,
      "ĠÐ²Ð¸Ñģ": 873,
      "ĠÐ°Ðº": 874,
      "ĠÐĦ": 875,
      "ĠÐºÑĸÐ»ÑĮ": 876,
      "Ð»ÐµÐº": 877,
      "ĠÐ±Ð°Ð³": 878,
      "Ð°Ð»Ñĥ": 879,
      "ÑĪÑĥ": 880,
      "at": 881,
      "Ð½Ð¸ÐºÐ¸": 882,
      "Ð¤": 883,
      "Ð¾ÑĢÑĸ": 884,
      "ĠÐ²ÐµÐ»Ð¸": 885,
      "ĠÐ±ÑĥÐ´Ðµ": 886,
      "ĠÐ¼Ð°ÑĶ": 887,
      "Ð·ÑĮ": 888,
      "ĠÐ¾ÑĢÐ³Ð°Ð½ÑĸÐ·": 889,
      "Ð²Ñĥ": 890,
      "ĠÑĤÐ¾": 891,
      "ĠÑģÑĤÐ°Ð½": 892,
      "ĠÐ±ÑĥÐ²": 893,
      "ĠÐ²Ð¿": 894,
      "ĠÑĤÐ¾Ð³Ð¾": 895,
      "ĠÐ·Ð°Ð³": 896,
      "ĠÑģÐµÑĢ": 897,
      "ÑīÐµ": 898,
      "Ð³Ð°": 899,
      "ĠÐµÐº": 900,
      "ĠÑĢÐ¾ÑĨÑĸ": 901,
      "Ð¾Ð²Ð¾Ð³Ð¾": 902,
      "âĢľ": 903,
      "Ð»Ð°Ð½": 904,
      "ÑıÐ½": 905,
      "ĠÐ¿Ð¾ÑĢ": 906,
      "ÑĦÐ¾ÑĢÐ¼Ð°": 907,
      "Ð½Ð¸ÑĨÑĤ": 908,
      "ĠC": 909,
      "Ð¿Ð¸": 910,
      "Ð¼ÐµÐ½ÑĤ": 911,
      "ĠÐ¼ÐµÑĤ": 912,
      "ĠÐ¨": 913,
      "ĠÑīÐµ": 914,
      "ÐµÑĢÐ³": 915,
      "Ð°Ð»ÑĮÐ½Ð¾Ð³Ð¾": 916,
      "ĠÐ¼Ð°Ð¹": 917,
      "ĠÐ»ÑİÐ´Ð¸": 918,
      "Ð°ÑĤÑĮ": 919,
      "Ð¾Ð½Ñĸ": 920,
      "Ð²Ð¸Ñĩ": 921,
      "ĠÑĨÑĮÐ¾Ð³Ð¾": 922,
      "ÑĶÐ½": 923,
      "ÑĥÐ±": 924,
      "ĠÐ¼ÑĸÐ¶": 925,
      "ĠÐ°Ð½": 926,
      "Ð²Ð°Ð½": 927,
      "Ð¼Ð¾Ð²": 928,
      "ĠÑģÐº": 929,
      "..": 930,
      "ĠÐ²Ð¾Ð½Ð¸": 931,
      "Ð°Ð±": 932,
      "ĠÐ²ÑģÐµ": 933,
      "ĠÐ±ÑĥÑĤÐ¸": 934,
      "ÑīÐ¸": 935,
      "ĠÐ½Ð°Ñģ": 936,
      "ĠA": 937,
      "ĠÐ³ÑĢÐ¾Ð¼": 938,
      "Ð¾Ð±Ñĸ": 939,
      "ĠÐ´ÑĢÑĥ": 940,
      "ĠÑĢÐ¾Ð·Ð²Ð¸": 941,
      "ÑıÐ³": 942,
      "ĠÐºÐ¾Ð»": 943,
      "ĠÐ¾Ð±Ð»Ð°": 944,
      "ĠÑĢÐ¾ÐºÑĸÐ²": 945,
      "ÑĸÐ´Ð¾Ð¼": 946,
      "ĠÑĤÑĢÐ¸": 947,
      "ĠÐ¿ÑĸÑģÐ»Ñı": 948,
      "ĠÐ¿ÑĢÐµÐ´": 949,
      "ĠÐ²Ð¸Ð´": 950,
      "Ð¾Ð²Ð¾ÑĹ": 951,
      "Ð´ÐµÐ½": 952,
      "ÑģÑĤÑĢÑĥ": 953,
      "ĠÑıÐºÐ°": 954,
      "Ð¾Ð¼Ñĸ": 955,
      "ĠÐ¿ÑĢÐ¸Ð¹": 956,
      "ÐĿÐ°": 957,
      "ÐºÐ°Ð¼Ð¸": 958,
      "ĠÐ¿Ð¾Ð¿": 959,
      "ĠÐ´Ð¾Ð²": 960,
      "ÑĪÐ°": 961,
      "Ð´Ð¶": 962,
      "ĠÐ´ÑĸÑı": 963,
      "Ð°Ð»ÑĮÐ½Ð¸Ñħ": 964,
      "ĠÑģÐµÑĢÐµÐ´": 965,
      "Ð±Ðµ": 966,
      "ÐµÐ·Ð¿Ðµ": 967,
      "ic": 968,
      "ÐºÐ°Ð·": 969,
      "ĠÐ²Ð¶Ðµ": 970,
      "ĠÐ»ÑİÐ´": 971,
      "ĠÐļÐ¸": 972,
      "ĠM": 973,
      "ĠI": 974,
      "ÑĢÐ°Ð·": 975,
      "ÑĢÐ¾Ðº": 976,
      "ÑħÐ¾Ð´": 977,
      "Ð»Ð¸Ð²Ñĸ": 978,
      "ÐµÐ²": 979,
      "ÑģÑĮÐºÑĸ": 980,
      "ÑĥÐ²Ð°Ð»Ð¸": 981,
      "Ð¾ÑĪ": 982,
      "Ð³Ð¾ÑĢ": 983,
      "ĠÑĩÐµÑĢÐµÐ·": 984,
      "Ð¸Ð½": 985,
      "ĠÐ¼ÑĸÑģÑĨÐµ": 986,
      "Ð»ÑĸÐ²": 987,
      "ÐµÑĢÑĸÐ²": 988,
      "ĠÐ¼ÐµÐ½": 989,
      "Ð§": 990,
      "is": 991,
      "ĠÐ¿Ð»Ð°": 992,
      "Ð¨": 993,
      "ĠÐ¼Ñĥ": 994,
      "ÑĢÐµÐ½": 995,
      "ĠÑĢÐ¾Ñģ": 996,
      "Ð¾Ð²Ð¸Ð½": 997,
      "Ð½Ð¾Ð¼": 998,
      "Ð¿ÑĢÐ°Ð²": 999,
      "ĠP": 1000,
      "ÑĩÑĥ": 1001,
      "ÐºÐ°Ñħ": 1002,
      "ĠÑĤÑĸÐ»ÑĮÐºÐ¸": 1003,
      "ĠÑĢÑĸÐ²": 1004,
      "ĠÐºÑĢÐ°ÑĹ": 1005,
      "ĠÐ´Ð¾Ð±": 1006,
      "Ð²ÑģÑı": 1007,
      "Ð¹ÑĤÐµ": 1008,
      "ĠÑĢÐ°Ð¹": 1009,
      "ĠÐĴÐ¸": 1010,
      "ĠÑĩÐ°ÑģÑĤÐ¸": 1011,
      "ĠÐ³ÑĢÐ¾Ð¼Ð°Ð´": 1012,
      "ĠÑĪÐº": 1013,
      "he": 1014,
      "ĠÐ·Ñĸ": 1015,
      "ÐºÑĤÑĥ": 1016,
      "Ð°Ð½Ð°": 1017,
      "ÐµÐ½Ð¾": 1018,
      "Ð¿ÐµÑĢ": 1019,
      "ĠÐµÐ»Ðµ": 1020,
      "Ð³Ð¾ÑĤ": 1021,
      "ĠÐ°Ð´": 1022,
      ")Ċ": 1023,
      "ÑĤÑĤÑı": 1024,
      "ĠÐ½ÐµÐ¾Ð±": 1025,
      "ĠÐ½Ð¸": 1026,
      "ĠÐ²Ð¸ÑĢÐ¾Ð±": 1027,
      "Â».": 1028,
      "Ð°ÑĤÐ¾": 1029,
      "ĠÐ¯Ðº": 1030,
      "Ð¾ÑĤÐµ": 1031,
      "Ð»Ð¾Ð²": 1032,
      "Ð¦": 1033,
      "it": 1034,
      "ĠÐ·Ð¼Ñĸ": 1035,
      "ĠÑĸÐ½ÑĦÐ¾ÑĢÐ¼Ð°": 1036,
      "ÐŁÑĢÐ¸": 1037,
      "ĠÐ±ÑĥÐ»Ð¸": 1038,
      "Ð»ÑĥÐ¶": 1039,
      "Ð¿ÐµÑĢÐ°": 1040,
      "ĠÑģÐ¿Ðµ": 1041,
      "ÐºÐ¾Ð³Ð¾": 1042,
      "ÑĹÐ²": 1043,
      "ĠÐ¿Ð¾Ð²ÑĸÐ´Ð¾Ð¼": 1044,
      "ĠÐ°ÑĢ": 1045,
      "ÑıÐ´": 1046,
      "ĠÐ²Ñĸ": 1047,
      "Ð²Ð¸Ð´": 1048,
      "ĠÐ¿ÑĢÐ°Ð²": 1049,
      "ÑģÑĤÐ°Ð½Ð¾Ð²": 1050,
      "Ð°Ð»ÑĮÐ½Ñĸ": 1051,
      "ĠÐķ": 1052,
      "Ð¾Ð»Ñİ": 1053,
      "ĠÐ´ÐµÑĢÐ¶Ð°Ð²": 1054,
      "Ð°Ð»ÑĮÐ½Ð¾": 1055,
      "Ð½ÑĸÑĩ": 1056,
      "ÐºÑĤÐ¾ÑĢ": 1057,
      "Ð¾Ð»Ñı": 1058,
      "ĠÐ¶Ð¸ÑĤÑĤÑı": 1059,
      "ĠÐ²Ð°ÑĢ": 1060,
      "Ð°Ð»ÑĮÐ½Ð¾ÑĹ": 1061,
      "ĠÐºÐ¾Ð¶": 1062,
      "Ð¿Ñĸ": 1063,
      "||": 1064,
      "ĠÐ´ÑĥÐ¶Ðµ": 1065,
      "ĠÐ½Ð°ÑĢÐ¾Ð´": 1066,
      "Ð²Ð°Ð»Ð¸": 1067,
      "ÑĢÐ¾Ð·": 1068,
      "ĠÐ¿Ð¸ÑĤ": 1069,
      "Ðĺ": 1070,
      "ĠT": 1071,
      "ĠÐ´Ð¾Ð´": 1072,
      "ĠÐ½ÐµÐ¾Ð±ÑħÑĸÐ´": 1073,
      "ĠÐºÑĢÐ¸": 1074,
      "ÑĤÐ°ÑĤ": 1075,
      "ĠÐ²Ð¸Ð·Ð½Ð°": 1076,
      "ÑĸÐ¹Ñģ": 1077,
      "Ð¾ÑģÑĤÑĸ": 1078,
      "ÑĤÐºÑĥ": 1079,
      "ÐºÐ°Ð½": 1080,
      "ĠÐ²Ð»Ð°Ñģ": 1081,
      "ÐºÑĢÐµ": 1082,
      "ĠÐ¿Ð¾Ð±": 1083,
      "Ð½ÑĸÑħ": 1084,
      "ÑĶÑĹ": 1085,
      "ĠÐŁÑĢÐ¸": 1086,
      "ĠÑĸÐ¼": 1087,
      "ĠÐ¿ÑĢÐ¾Ð´": 1088,
      "ĠÑĸÑģÑĤ": 1089,
      "ĠÐ¿Ð¾ÑĤÑĢÑĸÐ±": 1090,
      "ĠÑīÐ¾Ð´": 1091,
      "ĠÐ¿ÑĢÐ°ÑĨÑİ": 1092,
      "ÑģÑĤÐ²Ð¾": 1093,
      "ĠÑıÐºÑīÐ¾": 1094,
      "ÐºÐ°ÑĢ": 1095,
      "Ġt": 1096,
      "ÑĪÐ¸Ð¹": 1097,
      "ĠÐ·Ð°Ð»Ð¸": 1098,
      "Ð¾Ð»Ð¾Ð´": 1099,
      "ĠÑĤÐµÑħ": 1100,
      "ĠÑģÑĤÐ²Ð¾ÑĢ": 1101,
      "Ð¾ÑģÐ¿": 1102,
      "ÑĪÐ¾Ð³Ð¾": 1103,
      "Ð¸Ð»": 1104,
      "ĠÐ²Ð·": 1105,
      "Ð¾ÑĢÑĸÑĹ": 1106,
      "ĠÐ¦Ðµ": 1107,
      "Ð°Ð»ÑĮÐ½Ð¸Ð¹": 1108,
      "ĠÑģÐ²ÑĸÑĤ": 1109,
      "ĠÐ»Ð¸ÑĪÐµ": 1110,
      "ĠÐ½ÐµÐ·": 1111,
      "ĠÐ½Ð°Ð²Ñĩ": 1112,
      "ĠÐ²Ñĥ": 1113,
      "ÐµÑĢÑħ": 1114,
      "ĠÐ±ÑĥÐ»Ð°": 1115,
      "ÑģÐ°": 1116,
      "ĠÐ²Ð°Ð¶": 1117,
      "ÐµÑĨÑĮ": 1118,
      "Ð½ÑĮÐ¾Ð³Ð¾": 1119,
      "ĠÐ¾Ð±'ÑĶ": 1120,
      "ĠÐľÐ¸": 1121,
      "Ð¥": 1122,
      "Ð°ÑĤÐºÑĥ": 1123,
      "ĠB": 1124,
      "ÑģÐº": 1125,
      "ĠÐĹÐ°": 1126,
      "Ð¾Ð³Ð¸": 1127,
      "ĠÑĢÐ°Ð·": 1128,
      "ĠÐ²Ðµ": 1129,
      "ĠÑģÐ¸ÑģÑĤÐµ": 1130,
      "ĠÐ´Ð¾Ð·": 1131,
      "Ð»Ð¸ÑģÑı": 1132,
      "Ð¾Ð³Ð¾Ð´": 1133,
      "om": 1134,
      "ĠÐ²Ð¾Ð½Ð°": 1135,
      "ÑģÑĤÑĢÑĸ": 1136,
      "Ð¶Ñĸ": 1137,
      "ĠÐ²Ð¸ÐºÐ¾Ð½": 1138,
      "?Ċ": 1139,
      "ĠÐ¿ÑĢÐ¾ÑĨÐµ": 1140,
      "Ð±Ñĸ": 1141,
      "le": 1142,
      "ÐµÐ½Ð°": 1143,
      "ÑģÑĤÑĢÐ°": 1144,
      "Ð¯Ðº": 1145,
      "ÑĢÐ¾Ð½": 1146,
      "Ð¼Ð°ÑĤÐ¸": 1147,
      "ĠÐ½Ð°Ð·": 1148,
      "ÑĩÐ½Ñĸ": 1149,
      "ÑıÐ²Ð¸": 1150,
      "ĠÑĢÐ¾Ð·Ð¿": 1151,
      "ĠÑĨÑĮÐ¾Ð¼Ñĥ": 1152,
      "ÑħÐ¸": 1153,
      "Ð¾Ð»Ð¾Ð³ÑĸÑĩ": 1154,
      "ĠÐ¿ÑĢÐ¾Ð¿": 1155,
      "ĠÐ¿ÑĢÐ¾Ð±": 1156,
      "Ð»ÐµÐºÑģ": 1157,
      "ĠÑģÐ¿ÑĸÐ²": 1158,
      "Ð²Ð¸ÑĩÐ°Ð¹": 1159,
      "Ð°Ð½Ñģ": 1160,
      "Ð¿ÑĢÐ¸ÑĶÐ¼": 1161,
      "Ð¾ÑĤÑĥ": 1162,
      "ÑĩÐ½Ð¸Ñħ": 1163,
      "ĠÐ´Ð°": 1164,
      "ĠÐ¾Ð±Ð»Ð°ÑģÑĤÑĸ": 1165,
      "ĠÑĢÐ¾Ð±Ð¾ÑĤÐ¸": 1166,
      "ÑģÑĤÐ¾Ñģ": 1167,
      "ĠÐ±Ñĸ": 1168,
      "Ð³Ñĸ": 1169,
      "ÑıÑĤÑĮ": 1170,
      "Ð½ÑĸÑģÑĤÑİ": 1171,
      "ÐºÑĤÐ¸": 1172,
      "ĠÐ¸": 1173,
      "Ð½Ð°Ð½Ð½Ñı": 1174,
      "ĠÐ±ÑĸÐ»ÑĮÑĪÐµ": 1175,
      "ĠÑģÐ²Ñĸ": 1176,
      ").Ċ": 1177,
      "ĠÑĢÑĸ": 1178,
      "ĠÐ¿Ð¾Ð¼": 1179,
      "ĠÐ·Ð°ÐºÐ¾Ð½": 1180,
      "ÑĥÐ¼": 1181,
      "ĠÐ¼Ð°ÑĤÐµÑĢÑĸ": 1182,
      "ÐºÐµ": 1183,
      "ĠÐ³ÑĢÐ°": 1184,
      "ÑīÐµÐ½Ð½Ñı": 1185,
      "ĠÐ¼Ð¾Ð¶ÑĥÑĤÑĮ": 1186,
      "ĠÐ¾ÑĤÑĢÐ¸Ð¼": 1187,
      "st": 1188,
      "ÑĩÐ¸Ð½": 1189,
      "ĠÐ·Ð²": 1190,
      "ĠÐ´ÑĸÑıÐ»ÑĮ": 1191,
      "ĠÑıÐºÐ¸Ñħ": 1192,
      "ÑģÑĮÐºÐ¾Ð¼Ñĥ": 1193,
      "ĠÐ²Ð¸Ð±": 1194,
      "ĠÑĨÐµÐ½ÑĤ": 1195,
      "ĠÐ·Ð°Ðº": 1196,
      "ĠÐ£ÐºÑĢÐ°ÑĹÐ½Ñĸ": 1197,
      "ĠÐ¿ÑĢÐ¾Ð´Ñĥ": 1198,
      "Ð²ÑĸÑĤÑĮ": 1199,
      "ĠÑĩÐµÑĢ": 1200,
      "Ð»ÑĮÑĤÑĥ": 1201,
      "ĠÑħÐ¾Ñĩ": 1202,
      "ĠÐ·Ð°Ð±ÐµÐ·Ð¿Ðµ": 1203,
      "ÐĹÐ°": 1204,
      "ĠÑĸÐ½ÑĪÐ¸Ñħ": 1205,
      "Ð°ÑĪ": 1206,
      "ĠÐ²Ð¸Ð¿Ð°Ð´": 1207,
      "ĠÐ¿Ð¾Ð·": 1208,
      "ÑīÐ°": 1209,
      "ĠÐ¿ÑĢÐ¾ÑĤÐ¸": 1210,
      "Ð»Ð¸Ð²Ð¸": 1211,
      "ro": 1212,
      "Ð¾Ð²Ð¸Ñĩ": 1213,
      "ĠÑĤÐµÑĢÐ¸ÑĤ": 1214,
      "ĠÐ½Ð¸Ñħ": 1215,
      "ĠÑīÐ¾Ð´Ð¾": 1216,
      "Ð¶Ñĥ": 1217,
      "ÑĩÐ¸ÑĤÐ¸": 1218,
      "Ð·ÑĥÐ»ÑĮ": 1219,
      "ĠÐ±ÑĥÐ´ÑĮ": 1220,
      "ĠÐĿÐµ": 1221,
      "âĦ": 1222,
      "Ð½ÑĥÑĤÐ¸": 1223,
      "Ð±ÑĸÐ»ÑĮ": 1224,
      "ĠÐ¢Ð°Ðº": 1225,
      "ĠD": 1226,
      "ĠÑĢÐµÐ·ÑĥÐ»ÑĮ": 1227,
      "ĠÐ¿Ð¾Ð²Ð¸Ð½": 1228,
      "ÑģÑĮÐºÑĸÐ¹": 1229,
      "ĠÐ²ÑĸÐ¹ÑģÑĮÐº": 1230,
      "âĦĸ": 1231,
      "ÐŁÑĢÐ¾": 1232,
      "Ð²Ð°ÑĶ": 1233,
      "ĠÐľÑĸ": 1234,
      "ÑĥÑģ": 1235,
      "ÑĩÐ½Ð¾": 1236,
      ",Ċ": 1237,
      "Ð°Ð´Ð¸": 1238,
      "Ð²ÑĢÐ¾Ð¿": 1239,
      "Ð¼Ð°Ð³": 1240,
      "Ð¾ÑĢÑĤ": 1241,
      "ÐºÑĸÑģÑĤÑĮ": 1242,
      "ĠÐ·ÑĢÐ¾Ð±": 1243,
      "ĠÐ·Ñĥ": 1244,
      "Ð¼Ð°ÑĶ": 1245,
      "ĠÐ¿ÑĢÐµÐ´ÑģÑĤÐ°Ð²": 1246,
      "ĠÐ¿ÑĢÐ¾Ð³ÑĢÐ°": 1247,
      "ÑģÑĤÑĥ": 1248,
      "ÑĤÐ¸Ð½": 1249,
      "ra": 1250,
      "!Ċ": 1251,
      "Ð·Ð°": 1252,
      "Ð¾Ð¶Ðµ": 1253,
      "Ð°Ð¼'Ñı": 1254,
      "ĠÐ¼Ð°Ñģ": 1255,
      "Ð½ÑĸÑĪÐµ": 1256,
      "ĠÐ·ÐµÐ¼": 1257,
      "ĠÐ¾ÑģÐ¾Ð±Ð¸": 1258,
      "ĠÐ²Ð¾Ð´": 1259,
      "ÐµÐºÑĤ": 1260,
      "Ð°Ð½Ð¾": 1261,
      "Ð¾Ð²'ÑıÐ·": 1262,
      "-Ð¿": 1263,
      "ĠÐĲÐ½": 1264,
      "ĠÑģÑĤÐ°ÑĤ": 1265,
      "Ð³ÑĢÐ°": 1266,
      "ĠÐłÐ¾Ñģ": 1267,
      "ÐºÐ¸Ð¼Ð¸": 1268,
      "ĠÐĲÐ»Ðµ": 1269,
      "ÐµÐ´ÐµÐ½Ð½Ñı": 1270,
      "Ð¾ÑĢÐ¾": 1271,
      "ĠÐ·Ð°Ð²Ð´": 1272,
      "ĠÑĤÑĸ": 1273,
      "ÐµÐ¿": 1274,
      "ĠÐ²ÑĸÐ´Ð±Ñĥ": 1275,
      "ol": 1276,
      "ÑĩÐ°ÑĶ": 1277,
      "Ð¿Ð¸Ñģ": 1278,
      "ĠÐ´Ð¾ÑĢ": 1279,
      "ĠÐ¿ÑĢÐ°Ð²Ð¸": 1280,
      "el": 1281,
      "ĠÐ·Ð°Ð¹": 1282,
      "ĠÐ±ÑĸÐ»ÑĮÑĪ": 1283,
      "ÑĦÐµÐº": 1284,
      "ĠÑĥÑĩÐ°": 1285,
      "ÐµÐ½Ð½Ñĸ": 1286,
      "ĠÑĤÑĢÐ°": 1287,
      "ĠÐ²ÑĸÐ´ÐºÑĢÐ¸": 1288,
      "-Ñı": 1289,
      "ĠR": 1290,
      "ÑĮÐ¾Ð³Ð¾Ð´": 1291,
      "ÑĤÐµÐ¹": 1292,
      "ÐºÐ¾Ð»": 1293,
      "Ð³Ð¾": 1294,
      "ĠÐ³Ð¾Ð»Ð¾Ð²": 1295,
      "ĠÐ¿ÑĢÐ¾Ð±Ð»Ðµ": 1296,
      "Ð»Ð¾Ð²Ð°": 1297,
      "ĠÐ¿ÑĢÐ¾ÑĦ": 1298,
      "ĠF": 1299,
      "ÑĢÑĸÐ¼": 1300,
      "ĠÐ¿ÑĸÐ´Ð¿ÑĢÐ¸ÑĶÐ¼": 1301,
      "ĠÑģÐ¾ÑĨÑĸ": 1302,
      "Ð°Ð½Ð½Ñĸ": 1303,
      "ÑĤÐºÐ¸": 1304,
      "Ð»Ð°Ð²": 1305,
      "Ð°Ð»Ñİ": 1306,
      "ÑĤÑĢ": 1307,
      "ĠÐ·Ð´ÑĸÐ¹Ñģ": 1308,
      "us": 1309,
      "ĠÐ±Ð°Ð³Ð°ÑĤÐ¾": 1310,
      "Ð»Ð°ÑģÑı": 1311,
      "ĠÑģÐ¿ÐµÑĨÑĸ": 1312,
      "Ð¾Ð»Ð¾Ð²Ñĸ": 1313,
      "ÑĤÐµÑĢÐ°": 1314,
      "ĠÐ±Ð»Ð¸": 1315,
      "ÑĩÐ½Ð¸Ð¹": 1316,
      "ĠÐµÐ»ÐµÐºÑĤ": 1317,
      "ĠG": 1318,
      "Ð³Ð¾Ð´": 1319,
      "ÐºÐ¾ÑģÑĤÑĸ": 1320,
      "ĠÐ´Ð¾Ð·Ð²": 1321,
      "re": 1322,
      "Ð²Ð¾ÑĢÐ¸": 1323,
      "ĠÐµÐºÑģÐ¿": 1324,
      "ÑĩÐ¸Ð½Ð°": 1325,
      "Ð¾Ð²Ð¾": 1326,
      "ĠÐ¿Ð°ÑĢ": 1327,
      "ĠÐ¿Ð¾Ð³": 1328,
      "ĠÐºÐ»Ñĸ": 1329,
      "ÑĤÐ°Ð¼Ð¸": 1330,
      "ĠÑģÐ²Ñı": 1331,
      "ĠÐĴÑĸÐ½": 1332,
      "ĠÐ¿ÑĸÐ²": 1333,
      "ĠL": 1334,
      "ĠÐ»ÑİÐ´ÐµÐ¹": 1335,
      "ĠÐ·Ð°ÑģÑĤÐ¾Ñģ": 1336,
      "ÑĮÐ¾Ð³Ð¾Ð´Ð½Ñĸ": 1337,
      "Ð°Ð»ÐµÐ¶": 1338,
      "ĠÑģÑĤÐ°Ð²": 1339,
      "Ð»ÑıÑħ": 1340,
      "Ð¾Ð´Ð°ÑĢ": 1341,
      "ch": 1342,
      "ĠÐ¾ÑģÐ½Ð¾Ð²": 1343,
      "Ð¾ÑĤÐ°": 1344,
      "ÑĩÐ½Ð¾Ð³Ð¾": 1345,
      "ĠÑĤÐ¸Ð¼": 1346,
      "ĠÐ½Ð°Ð²ÑĸÑĤÑĮ": 1347,
      "Ð°Ð»ÑĮÐ½Ð°": 1348,
      "ĠÐµÐºÐ¾Ð½": 1349,
      "ĠÐ¾ÑĤÑĢÐ¸": 1350,
      "ÑĥÐ½Ðº": 1351,
      ".,": 1352,
      "ÑĢÑĸÐ¹": 1353,
      "ĠÐ´Ð¾ÑģÐ»ÑĸÐ´": 1354,
      "ĠÑĢÐ¾Ð·Ð¼Ñĸ": 1355,
      "ĠÑĤÑĢÐµ": 1356,
      "ĠÐ²Ð¸ÐºÐ¾ÑĢÐ¸ÑģÑĤÐ¾Ð²Ñĥ": 1357,
      "Ġo": 1358,
      "Ð»Ð¸Ð²": 1359,
      "ĠÐ¼Ð¾Ð»": 1360,
      "ĠÑĨÐ¸": 1361,
      "ĠÑĪÐ²Ð¸Ð´": 1362,
      "ĠÐºÐ¾Ð¼Ð¿Ð°Ð½": 1363,
      "Ð½ÑĸÑģÑĤÑĢÐ°": 1364,
      "ĠÐ¿Ð»Ð°Ð½": 1365,
      "Ð½ÐµÑģ": 1366,
      "ĠÐ¿ÑĢÐ¾ÑĤ": 1367,
      "ĠÐ·Ð°ÑħÐ¸": 1368,
      "ĠE": 1369,
      "ĠÑģÐ¿ÑĢÐ°Ð²": 1370,
      "ÑĤÐ²Ð¾ÑĢ": 1371,
      "ĠÑģÐµÐ±Ðµ": 1372,
      "Ð³Ð»ÑıÐ´": 1373,
      "ĠÑģÑĥÐ´": 1374,
      "ĠÑĨÐµÐ¹": 1375,
      "ĠÐĨÐ½": 1376,
      "Ð°ÑĢÐ°ÐºÑĤ": 1377,
      "Ð¾Ð²Ð°Ð½Ð¸Ð¹": 1378,
      "|Ċ": 1379,
      "ÐºÐ»Ñİ": 1380,
      "ĠÐ²Ð»Ð°": 1381,
      "ion": 1382,
      "Ð¾ÑĢÐ³": 1383,
      "\",": 1384,
      "ÑĢÑıÐ´": 1385,
      "ÑĢÐ°ÑĤÐ¸": 1386,
      "ĠÐ²ÑĸÐ´Ð¾Ð¼": 1387,
      "Ð³Ð¾ÑĤÐ¾Ð²": 1388,
      "ÑĢÐ°Ð²Ð¸": 1389,
      "ÑīÑĸ": 1390,
      "ÑĢÐ¾Ñģ": 1391,
      "Ð»ÐµÐ½Ñĸ": 1392,
      "ĠÑģÑĤÐ¾ÑĢ": 1393,
      "Ð»ÑĸÐ½Ð½Ñı": 1394,
      "ĠÐ½ÑĸÐ¶": 1395,
      "âĢ¦": 1396,
      "ĠÑģÐ¼": 1397,
      "ÑĤÐ°Ð½": 1398,
      "ÑĢÑĸÑĪ": 1399,
      "ÑģÐ½Ñĥ": 1400,
      "ĠÐºÐ°ÑĢ": 1401,
      "ĠÑĢÐ¾Ð·Ð²Ð¸ÑĤÐºÑĥ": 1402,
      "ÑĤÐ°ÑĤÐ¸": 1403,
      "ÑĪÐº": 1404,
      "ĠÐºÑĥÐ»ÑĮÑĤÑĥ": 1405,
      "Ð±Ð»Ð¸": 1406,
      "ĠÐ¼Ð°ÑİÑĤÑĮ": 1407,
      "Ð¸ÑĤÑĮ": 1408,
      "Ð½Ð°Ðº": 1409,
      "ĠÑĦÑĸÐ½": 1410,
      "ĠÐ¾Ð´Ð¸Ð½": 1411,
      "ÑģÑĤÑı": 1412,
      "Ð¾Ð³Ñĥ": 1413,
      "ĠÑĥÐ½Ñĸ": 1414,
      "Ð¸Ð»Ð¸": 1415,
      "ĠN": 1416,
      "ÐµÑĢÑĤ": 1417,
      "Ð³Ð¾Ð»": 1418,
      "ĠÐ¿Ð¾ÑĤÑĢÑĸÐ±Ð½Ð¾": 1419,
      "ÑĨÑĸÑĶÑİ": 1420,
      "ÑģÑĸÐ±": 1421,
      "ĠÐ·Ð²ÐµÑĢ": 1422,
      "ÐºÑĥÐ²Ð°Ð½Ð½Ñı": 1423,
      "ÑģÑıÐ³": 1424,
      "Ð½Ð°ÑĢÐ¾Ð´": 1425,
      "Ð»ÑıÐ½": 1426,
      "ĠÐ´Ð¾ÐºÑĥ": 1427,
      "ĠÐ¿Ð¾ÐºÐ°Ð·": 1428,
      "Ð¼Ð¾Ð²Ð¸": 1429,
      "ÑĪÐ¾Ð²": 1430,
      "et": 1431,
      "ĠÑİ": 1432,
      "ĠÐ¼Ð°": 1433,
      "Ð¾ÑĢÐ¾Ð²": 1434,
      "ĠÐ¿Ð¸": 1435,
      "ÑĩÐ½Ð¾ÑĹ": 1436,
      "ÑģÑĤÐ²": 1437,
      "Ð°Ð½Ð½ÑıÐ¼": 1438,
      "Ð¾Ð±Ð¸": 1439,
      "Ð¾Ð³ÑĢÐ°ÑĦ": 1440,
      "il": 1441,
      "Ð»Ð¾ÑģÑı": 1442,
      "ĠÐ®": 1443,
      "ÑĥÐ²Ð°": 1444,
      "Â».Ċ": 1445,
      "ĠÑĤÐµÐ¼": 1446,
      "ÑĶÐ¼Ð¾": 1447,
      "Ð¾Ð´ÑĸÐ²": 1448,
      "ÐµÑĢÐµÑģ": 1449,
      "ĠW": 1450,
      "ĠÑħÑĤÐ¾": 1451,
      "Ð½Ð¸ÑĨÑĮ": 1452,
      "ÐºÐ¾Ð²Ð¾": 1453,
      "Ð½ÑĸÐ¼": 1454,
      "ĠÐ·Ð½Ð°Ð¹": 1455,
      "ĠÑĩÐ¾Ð»Ð¾Ð²Ñĸ": 1456,
      "ĠÐºÐ°": 1457,
      "ÑĪÑĤ": 1458,
      "ĠH": 1459,
      "ĠÑĢÐµÐ·ÑĥÐ»ÑĮÑĤÐ°ÑĤ": 1460,
      "ĠÑģÐ»ÑĥÐ¶": 1461,
      "Ð¾Ð²Ð¸Ð¼": 1462,
      "ĠÑĢÐ¾ÑģÑĸÐ¹": 1463,
      "Ð»Ð¸Ð½": 1464,
      "Ð²Ð¾Ñİ": 1465,
      "ac": 1466,
      "ĠÐ²Ð²Ð°Ð¶": 1467,
      "ĠÐ½ÑĮ": 1468,
      "Ð¾Ð»Ñĥ": 1469,
      "Ð»Ð¸Ð²ÑĸÑģÑĤÑĮ": 1470,
      "ĠÑĸÐ´": 1471,
      "ĠÐĸ": 1472,
      "ĠÑĢÐ°Ð´Ð¸": 1473,
      "ĠÑģÐ°Ð¹": 1474,
      "ĠÐ»ÐµÐ³": 1475,
      "ĠÐ°Ð²ÑĤÐ¾Ð¼": 1476,
      "Ð½Ð¸ÑĨÑĤÐ²Ð°": 1477,
      "ÑģÑĤÑİ": 1478,
      "ĠÐ´Ð¸ÑĤÐ¸": 1479,
      "ĠÑĥÑģÑĸ": 1480,
      "Ð°ÑĢÑĸ": 1481,
      "ĠÐ·Ð°Ð·Ð½Ð°": 1482,
      "ĠÐ¿Ð¾ÑĢÑĥ": 1483,
      "ĠÐ½Ð°ÑĪ": 1484,
      "ÐºÑĤÑĸÐ²": 1485,
      "ÐĴÐ¸": 1486,
      "ĠÐ¿ÐµÑĢÑĸ": 1487,
      "ĠÐ©": 1488,
      "Ð°ÑĢÑĸÐ²": 1489,
      "ĠÑĤÑĢÐ°Ð²": 1490,
      "ed": 1491,
      "ĠÐºÐ°ÑĤ": 1492,
      "ÑĤÐ¾Ðº": 1493,
      "ÑģÑĮÐºÑĥ": 1494,
      "Ð²Ð°ÑĢ": 1495,
      "ĠÐĴÑĸÐ´": 1496,
      "Ð¾Ð´Ð°Ð²": 1497,
      "ĠÑģÐ°Ð¼Ðµ": 1498,
      "Ð°Ð´Ð°": 1499,
      "ÑĮÐ²": 1500,
      "ĠÑĢÑĸÑĪÐµÐ½Ð½Ñı": 1501,
      "Òĳ": 1502,
      "ÑĪÐ¸Ð¼": 1503,
      "ĠÑģÐ¿ÑĢÐ¸": 1504,
      "as": 1505,
      "ĠÐ´ÐµÐ½ÑĮ": 1506,
      "ÑĩÑĸÐ²": 1507,
      "ĠÐ¿Ð¾Ð·Ð¸": 1508,
      "ĠÑĤÑĢÐ°Ð½": 1509,
      "Ð¾ÑĢÑĸÐ²": 1510,
      "Ð¼ÑĸÐ½ÑĸÑģÑĤÑĢÐ°": 1511,
      "ÑĢÐ½": 1512,
      "ĠÐ²Ð´": 1513,
      "Ð²Ð°ÑĤÐ¸ÑģÑı": 1514,
      "ĠÐ½Ð°ÑģÐµ": 1515,
      "ÑħÐ¾Ð²": 1516,
      "Ġp": 1517,
      "am": 1518,
      "ĠÐ±ÑĥÐ´ÑĸÐ²": 1519,
      "Ð°Ð½ÑĤÐ°": 1520,
      "ÐµÐ½ÐºÐ¾": 1521,
      "Ð½Ð¸ÑĤÐ¸": 1522,
      "ÑģÑĤÐ¸ÑĤÑĥ": 1523,
      "ĠÐ´ÑĸÑĤÐµÐ¹": 1524,
      "ĠÑħÐ°ÑĢÐ°ÐºÑĤ": 1525,
      "Ð¿Ð°": 1526,
      "ĠÑĢÑĸÐº": 1527,
      "ĠÐ±Ð°Ð½": 1528,
      "ĠÑĥÐ¿ÑĢÐ°Ð²": 1529,
      "ÑģÑĮÐºÐµ": 1530,
      "ĠÐ²Ð¸ÑģÐ¾Ðº": 1531,
      "Ð°Ð»Ð¾ÑģÑı": 1532,
      "ĠÑĩÐ¸Ñģ": 1533,
      "ĠÑĦÐ¾ÑĢÐ¼": 1534,
      "Ð´ÑĥÑĤÑĮ": 1535,
      "Ð»ÑĥÐ³": 1536,
      "ÑħÐ¾Ð´Ð¸ÑĤÑĮ": 1537,
      "Ð¶Ð´Ð¸": 1538,
      "Ð²Ñı": 1539,
      "ĠÐ²ÑģÑĸÑħ": 1540,
      "//": 1541,
      "Ð»ÑıÑĶ": 1542,
      "ĠÐ²ÑĸÐ´Ð½Ð¾": 1543,
      "ĠÑĤÑĥ": 1544,
      "ÑĢÐ°Ð»ÑĮ": 1545,
      "ÑĢÑĸÐ·": 1546,
      "ÐµÐ½Ð´": 1547,
      "ÐµÑĢÑĥ": 1548,
      "ĠÐ¯ÐºÑīÐ¾": 1549,
      "Ð¾Ð²Ð½Ñĸ": 1550,
      "ÑĢÐ°Ð¶": 1551,
      "Ð¼ÐµÑĤ": 1552,
      "ĠÐ·Ð¼": 1553,
      "Ð»Ð¾Ð¼": 1554,
      "ÐºÐ¾Ð½Ð°": 1555,
      "ĠÐ³ÑĢÐ¸": 1556,
      "Ð¾Ð¼ÑĸÑĩ": 1557,
      "ĠÐ¾ÑģÐ²Ñĸ": 1558,
      "ĠÑģÐ»ÑĸÐ´": 1559,
      "ĠÑģÐ²Ð¾Ñİ": 1560,
      "ĠÐ²Ð¾Ð»": 1561,
      "ĠÑģÐ»Ð¾Ð²Ð°": 1562,
      "Ð¾Ð³Ð¾Ñİ": 1563,
      "ĠÑĢÐ¸": 1564,
      "Ð¿Ð½Ñı": 1565,
      "ÑĥÐ¼Ñĸ": 1566,
      "ĠÐ±Ð»Ð¸Ð·ÑĮ": 1567,
      "ĠÐ¿Ð¸ÑĤÐ°Ð½Ð½Ñı": 1568,
      "Ð¶ÐµÑĢÐµ": 1569,
      "Ð°ÑĢÐ¸": 1570,
      "ĠÐ¿Ð¾ÑģÑĤ": 1571,
      "Ð¿ÑĢÐ¸ÐºÐ»Ð°Ð´": 1572,
      "ĠÐ½Ð°ÑĨÑĸÐ¾Ð½": 1573,
      "ĠÐ¶Ð¸": 1574,
      "Ð¾ÐºÑĢÐµ": 1575,
      "ĠÐŁÑĢÐ¾": 1576,
      "ĠÐ¼Ð¾Ð´": 1577,
      "ĠÐºÑĸÐ½": 1578,
      "Ð´Ð¾Ð²": 1579,
      "ĠÐ¿Ð°ÑĢÑĤ": 1580,
      "Ġof": 1581,
      "and": 1582,
      "ÐºÑĥÑĢ": 1583,
      "ĠÐ±Ð°ÑĤÑĮ": 1584,
      "ĠÐ²ÑģÑĤÐ°Ð½Ð¾Ð²": 1585,
      "ÑĥÐ±Ð»Ñĸ": 1586,
      "ĠÐ½Ð°Ñĥ": 1587,
      "ĠÐ·Ð²'ÑıÐ·": 1588,
      "ĠÑĪÐ¸": 1589,
      "ĠÐ¾Ð¿ÐµÑĢÐ°": 1590,
      "ĠÐ¾ÑģÑĸÐ±": 1591,
      "ĠÐ°ÐºÑĤÐ¸Ð²": 1592,
      "ÑħÑĥ": 1593,
      "ĠÐ¾Ñħ": 1594,
      "ĠÑĦÑĥÐ½Ðº": 1595,
      "ÑĤÐ¾Ð³Ð¾": 1596,
      "ĠÐ»Ð¸ÑģÑĤ": 1597,
      "ĠÐµÐ½": 1598,
      "Ð°ÑĶÐ¼Ð¾": 1599,
      "ĠÐ³Ð¾ÑĤ": 1600,
      "ĠÐ·Ð³": 1601,
      "ĠÐ¾ÑĤ": 1602,
      "ÑĥÑİÑĤÑĮ": 1603,
      "Ð½Ð¸ÐºÐ¾Ð¼": 1604,
      "Ð½ÑĮÐ¾ÑĹ": 1605,
      "ĠÐ³Ð¾ÑģÐ¿": 1606,
      "ĠÐ¶ÑĸÐ½": 1607,
      "ĠÐ¼ÑĸÑģÑĤÐ°": 1608,
      "Ð°ÑĨÑĸÑı": 1609,
      "ĠÑĥÐ²Ð°": 1610,
      "Ð¾Ñı": 1611,
      "Ð°Ð½Ð´Ð¸": 1612,
      "ĠÑģÑħ": 1613,
      "Ð¾ÑĢÑĸÑı": 1614,
      "ÑıÐ³Ð¾Ð¼": 1615,
      "ĠÐ¿Ð¾Ð²ÐµÑĢ": 1616,
      "Ð°Ð²Ð¸": 1617,
      "ĠÐ¿Ñĸ": 1618,
      "Ð¼Ð°Ð½": 1619,
      "ĠÐ¾Ð·Ð½Ð°": 1620,
      "ÑģÑĥÑĤ": 1621,
      "ĠÐ½ÐµÐ´": 1622,
      "ĠÑģÑĸÐ¼": 1623,
      "ĠÐºÐµÑĢÑĸÐ²": 1624,
      "ĠÐ´ÑĸÑıÐ»ÑĮÐ½Ð¾ÑģÑĤÑĸ": 1625,
      "ĠÐ½Ð°ÑģÑĤÑĥÐ¿": 1626,
      "Ð¾Ð»Ð¾Ð´Ð¸": 1627,
      "ĠÐ¿ÑĢÐ¸Ð·Ð½Ð°": 1628,
      "ĠÐ½Ð¾ÑĢ": 1629,
      "ĠÐ±Ð°": 1630,
      "ĠÑģÐ²Ð¾ÑĶ": 1631,
      "ÑĩÐ¸Ð²": 1632,
      "ĠÐ¿ÑĢÐµÐ·": 1633,
      "ĠÑģÑĤÐ°ÑĢ": 1634,
      "ĠÐ±ÑĥÐ´Ð¸Ð½": 1635,
      "ĠÐ½Ð°Ð¹Ð±ÑĸÐ»ÑĮ": 1636,
      "ĠÑĸÐ½ÑĪÑĸ": 1637,
      "ĠÑĢÑĸÐ´": 1638,
      "Ð²Ð°ÑİÑĤÑĮ": 1639,
      "ÑĸÐ·Ð¸": 1640,
      "ĠÐ´ÐµÐ¿": 1641,
      "Ð·Ð´": 1642,
      "Ð¾Ð²Ð¾ÑĢÐ¸": 1643,
      "Ð©": 1644,
      "ĠÐ±Ð°Ð·": 1645,
      "ÑģÐ¿Ñĸ": 1646,
      "ĠV": 1647,
      "ÑĥÐ²Ð°Ð»Ð°": 1648,
      "Ð¨ÐĲ": 1649,
      "ĠÐ·Ð½Ð¸": 1650,
      "ÑĢÐµÑģ": 1651,
      "Ð¾Ð½ÑĸÐ²": 1652,
      "ĠÐ¼ÑĸÑģÑı": 1653,
      "ÐµÑĢÑĸÐ³": 1654,
      "ĠÑĥÑĩÐ°ÑģÑĤÑĮ": 1655,
      "Ð½Ð°Ð´": 1656,
      "Ð°ÑĤÐ°": 1657,
      "ĠÐ·Ð°Ð²Ð¶Ð´Ð¸": 1658,
      "ing": 1659,
      "ĠÐºÐ¾ÑĪ": 1660,
      "Ð¾ÑĢÐ¾Ð½": 1661,
      "ĠÑģÑĸÐ»ÑĮ": 1662,
      "ĠÑĢÐ¸Ð½": 1663,
      "ĠÐ¿ÑĸÐ´ÑĤÑĢÐ¸Ð¼": 1664,
      "ĠÐ·'Ñı": 1665,
      "ÑĦÐ¾ÑĢÐ¼": 1666,
      "Ġd": 1667,
      "ĠÑĪÐ»ÑıÑħ": 1668,
      "ÐºÐ¾Ð²Ñĸ": 1669,
      "ĠÐ¼ÐµÐ´Ð¸": 1670,
      "ÐĴÑĸÐ´": 1671,
      "Ð²ÑĸÐ»ÑĮ": 1672,
      "ÑĢÑıÐ¼": 1673,
      "Ð»ÑıÑĢ": 1674,
      "ĠÐºÐ»Ð°": 1675,
      "ĠÑģÑĥÑĩÐ°Ñģ": 1676,
      "ur": 1677,
      "ÑģÐ¿ÑĸÐ»ÑĮ": 1678,
      "ĠÐ¿ÑĢÐ¾ÑģÑĤÐ¾": 1679,
      "ĠÐ¾ÑģÐ¾Ð±Ð»Ð¸Ð²Ð¾": 1680,
      "'Ñİ": 1681,
      "ĠÑģÐºÐ°Ð·": 1682,
      "Ð¾ÑĢÑĤÑĥ": 1683,
      "ÑĢÐ¾Ñİ": 1684,
      "Ð¾Ð³Ð°": 1685,
      "ĠÐ¶Ð¾Ð²": 1686,
      "ĠÐºÐ²ÑĸÑĤ": 1687,
      "ÑģÑĸÐ²": 1688,
      "ĠÐ´ÐµÑı": 1689,
      "ĠÐ¾ÑģÑĤÐ°Ð½": 1690,
      "ÑİÐ²Ð°Ð½Ð½Ñı": 1691,
      "ÑĤÐ²ÐµÑĢ": 1692,
      "ĠÐºÐ½Ð¸": 1693,
      "Ð¾ÑĤÑĸ": 1694,
      "Ð»ÐµÐºÑģÐ°Ð½Ð´": 1695,
      "ĠÐ³Ð°Ð·": 1696,
      "ĠÐ¼Ð»": 1697,
      "ĠÑĢÐµÐ³Ñĸ": 1698,
      "ÑĩÐ½Ð°": 1699,
      "Â«Ð¡": 1700,
      "ĠÑģÐ¸ÑģÑĤÐµÐ¼Ð¸": 1701,
      "ĠÐ¿Ð°Ð¼'Ñı": 1702,
      "ĠÑĦÑĸÐ½Ð°Ð½Ñģ": 1703,
      "ÑģÑĤÐ°Ð²Ð¸": 1704,
      "ĠÐ³ÑĢÐ½": 1705,
      "ÐµÐ¼Ð¾": 1706,
      "ĠÐ±ÐµÐ·Ð¿Ðµ": 1707,
      "un": 1708,
      "ÑĤÐµÑĤÑĥ": 1709,
      "Ð²ÐµÑĢÑģÐ¸": 1710,
      "ĠÑģÐ¸ÑĤÑĥ": 1711,
      "ĠÐ¼Ð¾Ð¶Ð»Ð¸Ð²Ð¾": 1712,
      "Ð½ÑĮÐ¾": 1713,
      "ĠÐ¿ÑĢÐ¾ÑĦÐµÑģ": 1714,
      "ÑģÑĤÐµÐ¼": 1715,
      "ĠÑĦÐ°": 1716,
      "ÑĩÐ¸Ð½Ð¸": 1717,
      "Ð²Ð°ÑĶÑĤÑĮÑģÑı": 1718,
      "ĠÐ´Ð²Ð¾": 1719,
      "ĠÐĶÐ»Ñı": 1720,
      "ĠÐ½ÐµÐ²": 1721,
      "Ð²Ð¸Ñī": 1722,
      "ĠÐºÐ¾Ð½ÑĤÑĢ": 1723,
      "ĠÐ²Ð°Ð¼": 1724,
      "ĠÑģÐ¾Ð±": 1725,
      "Ð²Ð¸Ñħ": 1726,
      "Ð»ÐµÐ½Ð¾": 1727,
      "ÑģÑĤÐµÐ¹": 1728,
      "ĠÑĥÑĩÐ°Ñģ": 1729,
      "ĠÐºÐ¸": 1730,
      "Ð¶ÐµÐ½": 1731,
      "ĠÑģÑĤÐ¸": 1732,
      "ÑĢÑĥÐ´": 1733,
      "ÐµÐ»Ñĸ": 1734,
      "ĠÑĸÑģÐ½Ñĥ": 1735,
      "Ð¾ÐºÑĢÐµÐ¼Ð°": 1736,
      "ÑĦÑĸÐºÐ°": 1737,
      "id": 1738,
      "ĠÐĦÐ²ÑĢÐ¾Ð¿": 1739,
      "ĠÐ´Ð¾Ð¿Ð¾Ð¼Ð¾Ð³Ð¾Ñİ": 1740,
      "ĠÐ´Ð¾Ð³": 1741,
      "ÑģÐ¾Ð½": 1742,
      "ÑĦÐµÐºÑĤÐ¸Ð²": 1743,
      "ÑıÐ¼": 1744,
      "ĠÐ·ÑĥÑģÑĤÑĢÑĸ": 1745,
      "ĠÑĤÐµÐ»Ðµ": 1746,
      "ĠÑģÑĮÐ¾Ð³Ð¾Ð´Ð½Ñĸ": 1747,
      "Ð¾Ð²Ð°Ð½Ñĸ": 1748,
      "ĠÐ¡Ð¨ÐĲ": 1749,
      "ĠÑĤÐ²Ð¾ÑĢ": 1750,
      "ĠÐ·Ð¼ÑĸÐ½": 1751,
      "ĠÑĤÐ¾Ð²": 1752,
      "ĠÑĢÑĸÐ·Ð½Ð¸Ñħ": 1753,
      "Ð»ÑĸÐ½": 1754,
      "ĠÑĸÐ½ÑĤÐµÑĢ": 1755,
      "ĠÐºÑĢÐµ": 1756,
      "Ð´ÐµÐ½ÑĤ": 1757,
      "ĠÐĽÑĮÐ²": 1758,
      "ĠÑĤÐ°ÐºÑĸ": 1759,
      "Ġs": 1760,
      "ĠÐ·Ð´Ð¾ÑĢÐ¾Ð²": 1761,
      "ĠÐºÐ¾ÑĢÐ¸ÑģÑĤ": 1762,
      "Ð°Ð½ÑĤ": 1763,
      "ĠÑĢÐ¾Ð·ÑĢÐ¾Ð±": 1764,
      "ĠÑĩÐ»ÐµÐ½": 1765,
      "ĠÐ³ÑĢÑĥÐ´": 1766,
      "Ð½ÑĥÑĤ": 1767,
      "ĠÐ´Ð¾Ð¼": 1768,
      "ĠÐĨÐ²Ð°Ð½": 1769,
      "ĠÐĻ": 1770,
      "Ð¾Ð²Ðµ": 1771,
      "ĠÐ´Ð²Ð°": 1772,
      "Ð°ÑĤÐ¸ÑģÑı": 1773,
      "ĠÐ²Ð¸Ð²": 1774,
      "ĠÐ¿ÑĢÐ¸Ð¹Ð½Ñı": 1775,
      "ĠÐ³Ð°ÑĢ": 1776,
      "ĠÐºÑĥÐ¿": 1777,
      "ĠÐ´Ð¸Ñģ": 1778,
      "ĠÐ²ÐµÑĢ": 1779,
      "ÑģÑĮÐºÐ¸Ð¼": 1780,
      "Ð¾Ð²ÑĸÑĢ": 1781,
      "ÑĤÐ°Ñħ": 1782,
      "Ð¾Ð²Ð°Ð½Ð¾": 1783,
      "Ġthe": 1784,
      "ĠÑıÐºÐ¾Ð³Ð¾": 1785,
      "ĠÑģÑĤÑĢÑĥ": 1786,
      "ĠÐ²Ð°": 1787,
      "ÑĤÑĶ": 1788,
      "ĠÐºÑĥÑĢ": 1789,
      "Ð¾Ð»ÑĸÑĤ": 1790,
      "ÑĤÐµÐ»ÑĮ": 1791,
      "ÐµÑĢÐº": 1792,
      "ĠÐ¢Ð°": 1793,
      "Ð°ÑĢÐ°Ð½": 1794,
      "Ð±ÑĥÑĤ": 1795,
      "ĠÐ¿ÑĢÐ°Ð²Ð¾": 1796,
      "ĠÑĥÐ¿ÑĢÐ°Ð²Ð»ÑĸÐ½Ð½Ñı": 1797,
      "Ð´Ð¶Ðµ": 1798,
      "ĠÐ´Ð¾ÑģÑıÐ³": 1799,
      "Ð½Ð¸ÑĨÑĸ": 1800,
      "Ð½Ð°Ñħ": 1801,
      "ÐŁÑĢÐ¸Ð¼Ñĸ": 1802,
      "ĠÐ³ÑĢÐ¾": 1803,
      "Ð»Ð¾Ð¿": 1804,
      "ĠÐ³Ð¾ÑģÐ¿Ð¾Ð´Ð°ÑĢ": 1805,
      "ĠÐ¾ÐºÑĢÐµ": 1806,
      "ĠÑĢÐ°Ð´": 1807,
      "Ġc": 1808,
      "ĠÐ´ÑĥÐ¼": 1809,
      "ÑĸÐ´Ð½Ð¾": 1810,
      "ĠÐŀÐ´": 1811,
      "ÐºÑĨÑĸÑĹ": 1812,
      "ÑģÐ¸Ñħ": 1813,
      "ĠÑħÐ²Ð¸": 1814,
      "ÐµÑĢÐµÐ¶": 1815,
      "ĠÑĤÑĥÑĤ": 1816,
      "ĠÐ½ÑĮÐ¾Ð³Ð¾": 1817,
      "ÑĦÐµÑĢ": 1818,
      "ĠÐ·Ð°ÐºÐ»Ð°Ð´": 1819,
      "ĠÐ»ÑİÐ´Ð¸Ð½Ð¸": 1820,
      "ÐµÑģÑĤÐ¸": 1821,
      "ent": 1822,
      "ĠÐ±Ð°Ð¶": 1823,
      "ÐºÑĸÐ»ÑĮÐºÐ¸": 1824,
      "ĠÐ±Ñİ": 1825,
      "ĠÐºÑĸÐ»ÑĮÐºÐ°": 1826,
      "Ð¾Ð¼Ð¸": 1827,
      "ÑĩÐ¸Ñħ": 1828,
      "ĠÐ¿Ð¾ÑĤÑĢÐµ": 1829,
      "Ð¾Ð²Ð°Ð½Ð¸Ñħ": 1830,
      "ĠÐ½ÐµÐ¿": 1831,
      "ĠÐ±ÐµÑĢÐµÐ·": 1832,
      "ĠÐºÐ¾ÑĢÐ¸": 1833,
      "ĠÐļÐ¸ÑĹÐ²": 1834,
      "ÐµÐ»Ðµ": 1835,
      "ĠÑĩÐ°ÑģÑĥ": 1836,
      "ÑĤÐ°ÑĢ": 1837,
      "ÑĩÐ¾Ð³Ð¾": 1838,
      "ÑĤÐ¸ÐºÐ¸": 1839,
      "ĠÐ²ÐºÐ»Ñİ": 1840,
      "ĠÐ¿Ð¾Ð²Ñĸ": 1841,
      "ÑģÐ»ÑĸÐ´": 1842,
      "ĠÐ¿ÑĢÐ¾Ð´Ð¾Ð²": 1843,
      "ĠÐ¿ÐµÐ²": 1844,
      "Ð°ÑģÐ¸": 1845,
      "Â«ÐŁ": 1846,
      "ĠÐ¾Ð±Ð¾Ð²'ÑıÐ·": 1847,
      "ĠÐ¼Ð°ÑĢ": 1848,
      "ÑĤÐµÑĢÐ°ÑĤÑĥ": 1849,
      "Ð½Ð¸ÑĨÑı": 1850,
      "ĠÑĤÐ°ÐºÐ¸Ñħ": 1851,
      "(Ð¿": 1852,
      "ĠÐ¿ÐµÑĢÑĪ": 1853,
      "ĠÐ·Ð½": 1854,
      "Ðĸ": 1855,
      "ÑĪÐ¸Ð¼Ð¸": 1856,
      "ĠÐ¿ÐµÑĢÐµÐ´Ð±Ð°": 1857,
      "Ð¼ÐµÑĢÐ¸": 1858,
      "ĠÑģÐ¿Ð¾Ñģ": 1859,
      "ÑĩÐµÐ½Ñĸ": 1860,
      "ĠÐ§ÐµÑĢ": 1861,
      "Ð°Ð»ÑĸÐ²": 1862,
      "ÑģÑĤÑĸÐ²": 1863,
      "ĠÑģÑĤÐ°Ð½Ð¾Ð²Ð¸": 1864,
      "ĠÐ²Ð°Ñģ": 1865,
      "ĠÑģÐ¸ÑģÑĤÐµÐ¼": 1866,
      "ĠÑģÐ²Ð¾ÑĹÑħ": 1867,
      "Ð¾Ð²Ð°Ð½Ð°": 1868,
      "ÑĥÑĢÐ½": 1869,
      "ĠÐ¿Ð¾Ð²'ÑıÐ·": 1870,
      "Ð¼ÑĸÑĹ": 1871,
      "ÑģÑĮÐºÐ¾Ñİ": 1872,
      "Ð½Ð¾Ð²Ð°": 1873,
      "ÑĸÐ¹Ð½Ð¾": 1874,
      "Ð¶Ð¸ÑĤÑĮ": 1875,
      "ĠÐ¼Ð¾ÑĢ": 1876,
      "Ð°ÑĤÑĥ": 1877,
      "Ð½Ð¸ÑĨÑĤÐ²Ð¾": 1878,
      "ĠÐ¾ÑĨÑĸ": 1879,
      "ĠÐ¿ÑĢÐ¸ÑĢÐ¾Ð´": 1880,
      "ĠÐ²Ð¸ÑĢÑĸ": 1881,
      "ĠÑĩÐµÑĢÐ²": 1882,
      "ĠÑĤÐ¾Ñĩ": 1883,
      "ĠÐ¡Ð¿": 1884,
      "Ð²Ð°Ð»Ð°": 1885,
      "ĠU": 1886,
      "Ð½ÑĶ": 1887,
      "ĠÐ²ÑĸÐ´Ð´Ñĸ": 1888,
      "ĠÑģÑĥÑģÐ¿ÑĸÐ»ÑĮ": 1889,
      "ĠÐļÐ¾Ð½": 1890,
      "ht": 1891,
      "ĠÑĤÐ¾Ð¹": 1892,
      "Ð¾Ð»Ð¾Ð´Ð¸Ð¼Ð¸": 1893,
      "Ð¾ÑĢÐ¾Ð½Ð¸": 1894,
      "ÐŁÑĢÐ¸Ð¼ÑĸÑĤÐºÐ¸": 1895,
      "ÑĪÐ»Ð¸": 1896,
      "ÐºÐ¾Ð¼Ñĥ": 1897,
      "ĠÑĸÐ´Ðµ": 1898,
      "ĠÐºÑĸÐ»ÑĮÐºÑĸÑģÑĤÑĮ": 1899,
      "ĠÑĢÐ°Ð·Ð¾Ð¼": 1900,
      "Ð°ÑĨÑĸÐ¹": 1901,
      "ÑĢÑĥÐ³": 1902,
      "ĠÐļÐ¸ÑĶ": 1903,
      "ÐµÐ½Ðµ": 1904,
      "ĠÐ±ÑĥÐ´ÑĥÑĤÑĮ": 1905,
      "ia": 1906,
      "ĠÑĨÐ¸Ñħ": 1907,
      "ot": 1908,
      "ĠÐ¿ÑĢÐ¾Ð¼": 1909,
      "Ð½ÑĥÑĤÑĢÑĸÑĪ": 1910,
      "Ð°Ð»ÑĮÐ½Ð¾Ð¼Ñĥ": 1911,
      "ĠÐ´ÐµÐº": 1912,
      "ĠÐ¿Ð°": 1913,
      "ĠÑĢÐ¾ÐºÐ¸": 1914,
      "ÑĢÐ¾Ð±ÑĸÑĤ": 1915,
      "ĠÐ¿ÑĢÐ°Ð²Ð°": 1916,
      "ÑĪÐ¸ÑĢ": 1917,
      "ĠÐŁÑĸÐ´": 1918,
      "'ÑĹ": 1919,
      "ĠÐ¼ÑĸÐ¶Ð½Ð°ÑĢÐ¾Ð´": 1920,
      "ĠÑĤÐµÐ¿": 1921,
      "Ð½Ð°Ð¼Ð¸": 1922,
      "ĠÐ·Ð¾Ð±": 1923,
      "ĠÐ¼ÐµÐ½Ðµ": 1924,
      "ÑĨÐ¸Ð¿": 1925,
      "ĠÐ·Ð´Ð¾ÑĢÐ¾Ð²'Ñı": 1926,
      "ĠÐľÐ°ÑĢ": 1927,
      "Ð¿Ð°Ð½": 1928,
      "ĠÐ²Ð¸ÑģÑĤÑĥÐ¿": 1929,
      "ĠÑĤÐµÑħÐ½": 1930,
      "ĠÐ²Ð¸ÐºÐ¾ÑĢÐ¸ÑģÑĤÐ°Ð½Ð½Ñı": 1931,
      "ĠÐ½Ð°Ð»Ðµ": 1932,
      "Ð½Ð¸ÐºÐ°Ð¼Ð¸": 1933,
      "ĠÐ´Ð¾Ð·Ð²Ð¾Ð»Ñı": 1934,
      "ĠÑĤÐµÑĢÐ¸ÑĤÐ¾ÑĢÑĸÑĹ": 1935,
      "ĠÐ¿ÑĢÐ°ÑĨÑĸÐ²": 1936,
      "ÐºÑĤÐ¸Ñĩ": 1937,
      "ĠÐĶÐ¾": 1938,
      "ÑĤÐ¾ÑĢÐ¸": 1939,
      "ĠÐ²Ð¸Ð¼": 1940,
      "Ð°Ð»ÑĮÐ½Ñĥ": 1941,
      "ĠÑģÑĸÑĩ": 1942,
      "ĠÐµÐ½ÐµÑĢÐ³": 1943,
      "ĠÐ¿ÑĢÐ¸Ð·": 1944,
      "ĠÐ´Ð¾Ð´Ð°ÑĤ": 1945,
      "II": 1946,
      "Ð¼ÐµÐ½ÑĤÑĸÐ²": 1947,
      "ĠÑĢÐ¾Ð·ÑĤÐ°": 1948,
      "Ð¾ÑĦ": 1949,
      "ĠX": 1950,
      "ĠÐ³Ð¾Ð´Ð¸": 1951,
      "ÐºÐ»Ð°": 1952,
      "Ð½ÑĮÐ¾Ð¼Ñĥ": 1953,
      "ĠÐŀÑģ": 1954,
      "Ð¾Ð»Ð¾Ð³ÑĸÑĹ": 1955,
      "ĠÐ¿Ð¾ÑĩÐ°ÑĤÐºÑĥ": 1956,
      "ĠÐ¿ÑĢÐ¾ÑĤÑıÐ³Ð¾Ð¼": 1957,
      "Â«Ðļ": 1958,
      "ĠÑĤÐ¸ÑģÑı": 1959,
      "ĠÐ·Ð´ÑĸÐ¹ÑģÐ½Ñİ": 1960,
      "ĠÐ¾ÑĦÑĸ": 1961,
      "ĠÐ¿Ð¾Ð¿ÐµÑĢÐµÐ´": 1962,
      "Ð½ÑĥÐ²": 1963,
      "ÐµÐ½ÑĤÐ¸": 1964,
      "ĠÑģÐ²Ð¾Ð³Ð¾": 1965,
      "ĠÐ¿ÑĢÐµ": 1966,
      "ĠÐ¿ÑĢÐ¾Ð²ÐµÐ´ÐµÐ½Ð½Ñı": 1967,
      "ĠÐļÑĢÐ¸": 1968,
      "Ð½Ñĭ": 1969,
      "ĠÐ±Ð»Ð¸Ð·ÑĮÐºÐ¾": 1970,
      "ĠK": 1971,
      "ĠÑģÑĤÑĥÐ´": 1972,
      "Ð¾Ð²Ð¸Ð¼Ð¸": 1973,
      "Ð»ÐµÐ½Ð°": 1974,
      "ĠO": 1975,
      "ĠÐ·Ð°Ð»Ð¸ÑĪ": 1976,
      "um": 1977,
      "ĠÑĨÑĸÑĶÑĹ": 1978,
      "ÑħÑĸ": 1979,
      "ĠÐ½Ð°ÑģÐµÐ»ÐµÐ½Ð½Ñı": 1980,
      "Ð°Ð»Ð¸ÑģÑı": 1981,
      "ĠÑĥÐ½ÑĸÐ²ÐµÑĢÑģÐ¸": 1982,
      "ÑıÐºÐ¸": 1983,
      "ĠÐŀÐ»ÐµÐºÑģÐ°Ð½Ð´": 1984,
      "ĠÐ¿ÑĢÐ¾Ð²Ð¾Ð´Ð¸": 1985,
      "ĠÐ¼Ð¾Ð¶Ð»Ð¸Ð²ÑĸÑģÑĤÑĮ": 1986,
      "Ð¼Ð¾Ð¶": 1987,
      "ĠÐ½Ð°Ð±": 1988,
      "ÑģÑĤÑĢ": 1989,
      "ĠÐ¾Ð´Ð½Ð¾Ð³Ð¾": 1990,
      "Ð¼Ð¾Ð½": 1991,
      "Ð¼Ð¾Ð²Ð°": 1992,
      "ĠÐ¼Ð¾Ð²": 1993,
      "ut": 1994,
      "Ð²Ð¾Ð³Ð¾": 1995,
      "ĠÑĢÐ°Ð´Ñĸ": 1996,
      "ĠÐ·Ð±ÑĸÐ»ÑĮ": 1997,
      "ĠÑĥÑģÐ¿Ñĸ": 1998,
      "ĠÑĤÐ¸Ñģ": 1999,
      "ĠÑıÐºÑĥ": 2000,
      "ĠÐ¶Ð¸Ð²": 2001,
      "Ð¾Ð²Ð¸Ð½Ð¸": 2002,
      "Ð»ÐµÐ½Ð¸Ð¹": 2003,
      "ĠÐ²Ð°Ð³": 2004,
      "Ð´Ð¾Ð½": 2005,
      "ĠÐ´Ð¾ÑģÑĤÑĥÐ¿": 2006,
      "ĠÐ²ÑĸÐ´Ð¿": 2007,
      "Ð°Ð´Ñĥ": 2008,
      "ĠÐ·Ð°ÑģÐ¾Ð±": 2009,
      "ĠÐĴÐ¾Ð»Ð¾Ð´Ð¸Ð¼Ð¸": 2010,
      "ĠÐ¿'Ñı": 2011,
      "ĠÐ²Ð½ÑĥÑĤÑĢÑĸÑĪ": 2012,
      "ĠÑıÐºÐµ": 2013,
      "ĠÑĢÐ¾Ð´Ð¸": 2014,
      "ÑģÑĤÐµÑĢ": 2015,
      "ĠÐ¿Ð¾Ð»ÑĸÑĤÐ¸Ñĩ": 2016,
      "Ð»ÑıÑĶÑĤÑĮÑģÑı": 2017,
      "ÑıÑģ": 2018,
      "ĠÐ¶Ð¾Ð²ÑĤ": 2019,
      "Â«Ðľ": 2020,
      "ĠÐ°Ð´Ð¼ÑĸÐ½ÑĸÑģÑĤÑĢÐ°": 2021,
      "ĠÐ²Ð¾": 2022,
      "ĠÐ·Ð¼ÑĸÐ½Ð¸": 2023,
      "ĠÐ´ÑĢÑĥÐ³": 2024,
      "ĠÑĦÑĸÐ»ÑĮ": 2025,
      "ĠÐ²ÐµÑĢÐµÑģ": 2026,
      "ÐºÐ¾ÑĢ": 2027,
      "Ð²Ð¾ÑĹ": 2028,
      "ĠÑĦÑĸÐ·Ð¸": 2029,
      "ÑĨÐµÐ½": 2030,
      "ĠÐ²ÑĤÑĢÐ°": 2031,
      "ÐºÐ¾Ð²Ð¾Ð³Ð¾": 2032,
      "ĠÐ²ÑĸÐ¹Ð½Ð¸": 2033,
      "ÐĨÐ½": 2034,
      "ÐµÐ»": 2035,
      "Ð¾Ð¶Ð¸": 2036,
      "ĠÐ²Ð¿Ð»Ð¸": 2037,
      "ĠÑĩÐ¸Ð½Ð¾Ð¼": 2038,
      "ĠÐµÑĦÐµÐºÑĤÐ¸Ð²": 2039,
      "ĠÑĦÐ¾ÑĤ": 2040,
      "ÑĥÑĶÐ¼Ð¾": 2041,
      "Ð°Ð½Ñĥ": 2042,
      "ĠÐ»ÑİÐ±": 2043,
      "ĠÑģÐ¿ÑĸÐ»ÑĮ": 2044,
      "oo": 2045,
      "ĠÑĤÐ¸Ñħ": 2046,
      "ĠÐŁÑĢ": 2047,
      "ĠÐ½ÐµÐ¾Ð±ÑħÑĸÐ´Ð½Ð¾": 2048,
      "Ð°Ð·Ð¸": 2049,
      "ÑģÑĮÐ¾Ð³Ð¾": 2050,
      "ĠÐĿÑĸ": 2051,
      "ĠÐ¿Ð¾ÑĢÑıÐ´": 2052,
      "Ġf": 2053,
      "Ð´Ð°ÑĤ": 2054,
      "ĠÐ¹Ð¾Ð¼Ñĥ": 2055,
      "ĠÑĢÐµÐ°Ð»ÑĸÐ·": 2056,
      "ĠÐ±ÑĢÐ°": 2057,
      "Ð²ÑĸÑĢ": 2058,
      "Ð±Ð¸ÑĢÐ°": 2059,
      "ĠÐ²Ð¸ÐºÐ»Ð¸": 2060,
      "Ð¾Ð»Ð¾Ð²": 2061,
      "ĠÐ¿ÐµÑĢÑĸÐ¾Ð´": 2062,
      "iv": 2063,
      "ĠÐ¾Ðº": 2064,
      "ĠÐ½Ð°ÑĥÐº": 2065,
      "ĠÐ¿ÑĢÐµÐ·Ð¸": 2066,
      "ÑĶÐ´": 2067,
      "ĠÑģÐ²ÑĸÐ´": 2068,
      "ĠÑĩÐ°ÑģÑĤÐ¾": 2069,
      "ĠÐºÐ¾Ð¼Ð¿Ð°Ð½ÑĸÑĹ": 2070,
      "Ð¼Ð¿": 2071,
      "ĠÐ¶ÑĥÑĢÐ½": 2072,
      "Ð°Ð²ÑģÑı": 2073,
      "ĠÑģÐ²ÑĸÑĤÑĥ": 2074,
      "ĠÑĢÐ°Ñħ": 2075,
      "ĠÐ¼Ð°Ð³": 2076,
      "Ð¾ÑģÐ¸": 2077,
      "ĠÐłÐµ": 2078,
      "ĠÐ°Ð³": 2079,
      "ad": 2080,
      "ĠÑĢÐµÑĩ": 2081,
      "Ð¸Ð»Ð°Ð½Ð½Ñı": 2082,
      "ĠÐŁÑĢÐµ": 2083,
      "ĠÐ¼Ð¾Ð¼": 2084,
      "ÑĩÐ¸Ð¹": 2085,
      "ĠÑĩÐµ": 2086,
      "Ð²Ð°ÑĤ": 2087,
      "ĠÑģÐ²ÑĸÐ¹": 2088,
      "ĠÐ·ÑĢÐ¾Ð±Ð¸ÑĤÐ¸": 2089,
      "ĠÐ¾ÑģÐ½": 2090,
      "Ð¢Ð°Ðº": 2091,
      "ĠÐ²Ñģ": 2092,
      "Ð°ÑİÑĩÐ¸": 2093,
      "ĠÐ¢Ð¾Ð¼Ñĥ": 2094,
      "ÑĨÐµÐ¼": 2095,
      "Ð±ÑĥÐ´": 2096,
      "ĠÐ´Ð²Ð¾Ñħ": 2097,
      "ĠÐ¼ÑĸÑģÑĨÑı": 2098,
      "ÐµÐ´Ðµ": 2099,
      "ĠÐ½ÐµÐ¼Ð°ÑĶ": 2100,
      "Ð¾Ð²Ð¾ÑĢ": 2101,
      "ĠÐ¼ÑĥÐ·Ð¸": 2102,
      "ĠÑģÑĥÐ¿": 2103,
      "Ð»Ð¾Ðº": 2104,
      "ÐºÐ¾Ð²Ð°": 2105,
      "ĠÑģÑĤÐ¾Ñģ": 2106,
      "ĠÐµÐºÐ¾Ð½Ð¾Ð¼ÑĸÑĩ": 2107,
      "ĠÐ·Ð°Ð»Ð¸ÑĪÐ¸": 2108,
      "ĠÐ²Ð¸ÑĤÑĢÐ°": 2109,
      "ÑĤÐµÑĤ": 2110,
      "ÑģÑĸÑı": 2111,
      "ĠÐ±Ð¾": 2112,
      "ĠÐºÐ¾Ð¼Ñĥ": 2113,
      "ÑĢÑĮ": 2114,
      "ĠÐ¿Ð¾ÑĤÑĸÐ¼": 2115,
      "ĠÐ²ÑĥÐ»Ð¸": 2116,
      "Ð½Ð¾Ð¿": 2117,
      "ĠÑģÑĦ": 2118,
      "ĠÐ·Ð°ÑıÐ²Ð¸": 2119,
      "ĠÐłÐ¾Ð·": 2120,
      "Ð¼ÐµÐ½ÑĤÐ¸": 2121,
      "ÐĿÐµ": 2122,
      "ĠÑĨÑĸÐºÐ°": 2123,
      "ĠÐ¾ÑģÐ²ÑĸÑĤÐ¸": 2124,
      "ÐºÐ°ÑĤÐ¸": 2125,
      "ĠÐĴÐ¾Ð½Ð¸": 2126,
      "Ð°Ð»ÑĮÐ½Ðµ": 2127,
      "ÑĨÑĸÐ¹Ð½Ð¸Ñħ": 2128,
      "ĠÐĶÐ¶": 2129,
      "ÑĢÐ¸Ð³": 2130,
      "ĠÐ·Ð°ÐºÑĸÐ½": 2131,
      "ÐºÐ¾Ð²Ð¸Ñħ": 2132,
      "Ð°Ð½ÑĸÑĤ": 2133,
      "Ð²ÑĸÐ¹": 2134,
      "Ð»ÑĮÐ½Ð¾": 2135,
      "ĠÑĤÑĢÐ°Ð½ÑģÐ¿": 2136,
      "Ð¿ÐµÐ²": 2137,
      "ĠÑģÑĤÐ²Ð¾ÑĢÐµÐ½Ð½Ñı": 2138,
      "ĠÐĴÑĸ": 2139,
      "Ð¾Ð²Ð½ÑĸÑĪ": 2140,
      "ÑĨÐµÐ½ÑĤ": 2141,
      "ĠÐ²Ð°ÑĢÑĤÐ¾": 2142,
      "Ð½Ð°Ð¹": 2143,
      "ĠÐ¾ÑĢÐ³Ð°Ð½ÑĸÐ·Ð°ÑĨÑĸÑĹ": 2144,
      "ĠÐ¿Ð°ÑĢÐ°": 2145,
      "Ð¶ÐµÐ½ÑĮ": 2146,
      "Ð¾Ð¼Ð°": 2147,
      "ĠÐĳÑĥ": 2148,
      "ĠÑģÑĥÐ±": 2149,
      "Ð°ÐºÑģÐ¸": 2150,
      "ÑĤÐ¾ÑĢÐ°": 2151,
      "Ð¾Ð±ÑĤÐ¾": 2152,
      "ĠÑĸÐ½ÑĤ": 2153,
      "ÐµÐ¼Ð¿Ñĸ": 2154,
      "ÑĩÐ¾ÑĹ": 2155,
      "Ð°Ñİ": 2156,
      "ĠÐ¿ÑģÐ¸Ñħ": 2157,
      "Ð²Ð°Ð»": 2158,
      "ĠÑĢÐ°ÑħÑĥÐ½": 2159,
      "ÑĤÑĥÐ²Ð°Ð½Ð½Ñı": 2160,
      "ĠÐ½Ð°Ð²ÑĩÐ°Ð½Ð½Ñı": 2161,
      "ĠÐ½ÐµÐ±": 2162,
      "ĠÑĪÐºÑĸ": 2163,
      "IC": 2164,
      "ÐºÐ¾Ð¿": 2165,
      "ĠÐºÑĢÐ°ÑĹÐ½Ð¸": 2166,
      "Ð»Ð°ÑĤÐ¸": 2167,
      "ĠÐ±ÑĸÐ·": 2168,
      "ĠÑģÐ¿ÑĢÐ°": 2169,
      "ĠÑĤÐ°Ð¼": 2170,
      "ĠÐ¿ÑĢÐ¸Ð½": 2171,
      "ĠÐ²Ð¸Ð¹": 2172,
      "ĠÐ¿ÑĢÐ¸Ð¼Ñĸ": 2173,
      "ĠÑĢÐ¾Ð±Ð¾ÑĤÑĥ": 2174,
      "ĠÑĥÑĩ": 2175,
      "ĠÑģÐ¾Ð±Ñĸ": 2176,
      "ĠÐ¿Ð¾Ð´Ð°ÑĤ": 2177,
      "ĠÐ·Ð°ÑħÐ²Ð¾ÑĢ": 2178,
      "ÑħÐ°Ð¹": 2179,
      "-Ñħ": 2180,
      "ĠÐºÐ°Ð¼": 2181,
      "ĠÐ¼ÑĸÑģÑĤ": 2182,
      "ĠÑĢÑĸÑĩ": 2183,
      "ĠÐ·Ð°ÑĢÐ°Ð·": 2184,
      "ĠÐ³Ð¾ÑĢ": 2185,
      "ĠÐ´ÐµÐ¿ÑĥÑĤ": 2186,
      "ÐŁÑĸÐ´": 2187,
      "ÐºÐ°ÑĶ": 2188,
      "ĠÐ²Ð¸Ð¿Ñĥ": 2189,
      "ĠÑĤÐ¾Ð´Ñĸ": 2190,
      "ĠÐºÐ¾Ð½ÐºÑĥÑĢ": 2191,
      "ÐŁÐ¾Ñģ": 2192,
      "ÑĸÐ½Ð¾": 2193,
      "ĠÐ²Ð¸ÐºÐ¾Ð½Ð°": 2194,
      "Ð¼Ð°ÑĤ": 2195,
      "ÑĢÑĥÑĩ": 2196,
      "ĠÐ»Ð¸ÑģÑĤÐ¾Ð¿": 2197,
      "ÐºÑĤÐ¸Ð²": 2198,
      "ÑĢÐ¾ÑģÑĤ": 2199,
      "ÑĥÑĤÑĤÑı": 2200,
      "ĠÑĤÐ¸Ð¶": 2201,
      "-Ñģ": 2202,
      "ĠÐ¾Ð±Ð¼Ðµ": 2203,
      "ĠÐ´ÐµÑĢÐµ": 2204,
      "ĠÐŁÑĸÑģÐ»Ñı": 2205,
      "ÐĦ": 2206,
      "ÐĻ": 2207,
      "ĠÐ»ÑĸÐºÐ°ÑĢ": 2208,
      "ĠÐŁÐµÑĢ": 2209,
      "Ð³Ð»": 2210,
      "ĠÐ½Ð°ÑıÐ²": 2211,
      "ĠÐ´Ð¾Ðº": 2212,
      "ĠÐ±Ð»Ð°": 2213,
      "ĠÐ¼Ð°Ð»": 2214,
      "ĠÐĴÐµÐ»Ð¸": 2215,
      "ĠÐ²Ð°ÑĢÑĸ": 2216,
      "ig": 2217,
      "ĠÑģÐµÐº": 2218,
      "em": 2219,
      "Ġm": 2220,
      "ÑĥÐ¶": 2221,
      "Ð²Ð¸Ð¹": 2222,
      "Ð¾Ð²Ð°ÑĢÐ¸": 2223,
      "la": 2224,
      "ĠÐ³Ð¾Ð²Ð¾ÑĢÐ¸": 2225,
      "ĠÐ¶Ðµ": 2226,
      "ĠÐ´Ð½Ñı": 2227,
      "ÑħÐ°Ð½": 2228,
      "ĠÑĥÑĤÐ²Ð¾ÑĢ": 2229,
      "ĠÐłÐ¾ÑģÑĸÑĹ": 2230,
      "ĠÐ¿ÑĢÐ¾Ð³": 2231,
      "ter": 2232,
      "ĠÐ¼'Ñı": 2233,
      "Ð·Ð²Ð¸ÑĩÐ°Ð¹": 2234,
      "ĠÑĢÐ°Ð¹Ð¾Ð½": 2235,
      "ÐºÑĥÐ¿": 2236,
      "Â«ÐĶ": 2237,
      "ĠÐ²Ð¸ÐºÐ¾Ð½Ð°Ð½Ð½Ñı": 2238,
      "ĠÐ¿ÑĥÐ½": 2239,
      "ĠÐľÐ¸ÐºÐ¾Ð»": 2240,
      "Ð²ÐµÑģÑĤÐ¸": 2241,
      "ĠÑħÐ²Ð¾ÑĢ": 2242,
      "ĠÑĢÐµÐ³Ñĥ": 2243,
      "ÐºÐ¾Ð²Ð¾ÑĹ": 2244,
      "ÑģÑĸÐ¼": 2245,
      "ĠÐ½Ð°Ð³": 2246,
      "ĠÐ³ÐµÑĢ": 2247,
      "ec": 2248,
      "Ð¿ÑĢÐ°": 2249,
      "...": 2250,
      "ĠÐ²Ð¸ÑıÐ²": 2251,
      "ÑĩÐ°Ð»ÑĮ": 2252,
      "ĠÐ´Ð¾ÑģÐ²ÑĸÐ´": 2253,
      "Â»Ċ": 2254,
      "Ð·Ðµ": 2255,
      "ÑĸÐ½ÑĮ": 2256,
      "Ð¯ÐºÑīÐ¾": 2257,
      "Ð´ÑĸÐ²": 2258,
      "ĠÐ¿ÑĢÐ¾ÐµÐº": 2259,
      "ĠÐ¼Ð°Ð¹Ð±ÑĥÑĤ": 2260,
      "ĠÑıÐºÐ¾Ð¼Ñĥ": 2261,
      "ĠÐ¿ÑĢÐ¾ÑĨÐµÑģ": 2262,
      "ĠÐ¿Ð¾ÑĩÐ¸Ð½Ð°": 2263,
      "Ð°Ð»Ð°ÑģÑı": 2264,
      "ĠÐ½Ð°Ð¼": 2265,
      "ĠÐ·Ð°ÐºÐ¾Ð½Ð¾Ð´Ð°Ð²": 2266,
      "Ð¾ÑĢÑıÐ´": 2267,
      "ĠÐŁÐµÑĤ": 2268,
      "âĢĿ,": 2269,
      "ĠÐ¾ÑģÐºÑĸÐ»ÑĮÐºÐ¸": 2270,
      "ÑĥÐ´Ð¾Ð¶": 2271,
      "ĠÑĤÑĢÐµÐ±Ð°": 2272,
      "Ð²Ð°Ð»Ñĸ": 2273,
      "ÑĤÐ¸Ð¹": 2274,
      "Ð¾ÑĢÐµ": 2275,
      "Ð¾ÑĢÐ¾Ð¶": 2276,
      "ÑĨÐµÐ¿": 2277,
      "ÑħÐ°": 2278,
      "Ð¾ÑĤÑĢÐ¸": 2279,
      "ÑģÑĤÐ°ÑĤ": 2280,
      "ÐµÑĢÐµÐ´Ð¸": 2281,
      "Ð¾Ð²Ð¾Ð¼Ñĥ": 2282,
      "ĠÐ·Ð°Ð½": 2283,
      "ĠÐ¿ÑĸÐ´Ð³Ð¾ÑĤÐ¾Ð²": 2284,
      "ĠÑģÑĤÑĢÐ°": 2285,
      "ÐµÐ´Ñĥ": 2286,
      "ĠÐ·Ð°Ð±ÐµÐ·Ð¿ÐµÑĩÐµÐ½Ð½Ñı": 2287,
      "ĠÐ²ÑĸÑĢ": 2288,
      "ĠÑģÑĤÑĢÑĥÐºÑĤÑĥ": 2289,
      "ĠÐ²Ð¸ÐºÐ¾ÑĢÐ¸ÑģÑĤÐ¾Ð²": 2290,
      "ĠÐ¿Ð°ÑĤ": 2291,
      "ĠÑĤÐ¾ÑĢÐ³": 2292,
      "ĠÑģÐ°": 2293,
      "Ð¾Ð¼Ð°Ð½": 2294,
      "ÑĸÐ·Ð½Ð°": 2295,
      "ĠÐ²ÑĩÐ¸": 2296,
      "ĠÐ·Ð¾ÐºÑĢÐµÐ¼Ð°": 2297,
      "ÐµÑĩ": 2298,
      "ĠÐ´Ð°Ð²": 2299,
      "ĠÐºÐ°Ð½": 2300,
      "ÐŀÐĴ": 2301,
      "ĠÐ±ÐµÐ·Ð¿": 2302,
      "ĠÐ½Ð°ÑģÑĤ": 2303,
      "Ð°Ð´Ñĸ": 2304,
      "ÑĥÐ²Ð°Ð²": 2305,
      "ĠÑĩÐ¾Ð³Ð¾": 2306,
      "ĠÐ²Ð»Ð°Ð´Ð¸": 2307,
      "ÑĥÐ²Ð°Ð½Ð½ÑıÐ¼": 2308,
      "Ġw": 2309,
      "ĠÐĶÐµÑĢÐ¶": 2310,
      "ĠÐ¼Ð°Ð¹Ð¶Ðµ": 2311,
      "ÑĢÐ°Ð·Ñĥ": 2312,
      "ĠÑĦÐ¾Ð½": 2313,
      "ĠÐ¿Ð¸ÑĤÐ°Ð½ÑĮ": 2314,
      "im": 2315,
      "ĠÐ³ÑĢÐ¾Ð¼Ð°Ð´ÑıÐ½": 2316,
      "ĠÐ·Ð¾Ð²Ð½ÑĸÑĪ": 2317,
      "ĠÐ¿Ð¾Ð½Ð°Ð´": 2318,
      "ÐĶÐ»Ñı": 2319,
      "Ð¸Ð¹": 2320,
      "ĠÐ»ÑĸÑĤÐµÑĢÐ°ÑĤÑĥ": 2321,
      "ĠJ": 2322,
      "ĠÑģÐºÐ»Ð°Ð´Ñĥ": 2323,
      "ĠÐ±ÐµÑĢÐµÐ·Ð½Ñı": 2324,
      "ĠÐ½ÑĸÑĩ": 2325,
      "ĠÐ¾Ð±Ð»Ð°Ñģ": 2326,
      "Â«ÐĴ": 2327,
      "ĠÐ¿ÑĸÑģ": 2328,
      "Ð¼ÑĸÐ²": 2329,
      "Ð¡Ðł": 2330,
      "Ð¸Ð²Ð°Ð½Ð½Ñı": 2331,
      "ÐŀÑģ": 2332,
      "Ð»ÐµÐ¹": 2333,
      "ÑĢÑĥÐ½": 2334,
      "ĠÐ´Ð¾ÑģÐ¸ÑĤÑĮ": 2335,
      "Ð°Ð»ÑĮÐ½Ð¸Ð¼": 2336,
      "ĠÑĨÑĸÐ½": 2337,
      "ĠÑģÑĤÐ¾ÑĢÑĸÐ½": 2338,
      "ĠÐ´ÑĸÑĹ": 2339,
      "ÑĩÐºÐ¸": 2340,
      "ĠÑĢÐ¾Ð·ÑĤÐ°ÑĪ": 2341,
      "ÑĢÐ°Ð¶ÐµÐ½Ð½Ñı": 2342,
      "ĠÐ³Ñĸ": 2343,
      "Ð´Ð°Ð½": 2344,
      "ĠÐ´Ð½ÑĸÐ²": 2345,
      "ĠÐ²ÑĸÐ´Ð·Ð½Ð°": 2346,
      "Ð¸ÑĤÑı": 2347,
      "os": 2348,
      "ĠÐĶÐ¾Ð½": 2349,
      "Ð¾Ð´Ð°": 2350,
      "ĠÐĽÑİ": 2351,
      "ÐµÐ½ÐµÑĢÐ°": 2352,
      "ĠÐ°Ð¿": 2353,
      "Ġin": 2354,
      "Ð²Ð°ÑĢÐ¸": 2355,
      "ĠÐ²ÑĸÐ´Ð¿Ð¾Ð²ÑĸÐ´Ð½Ð¾": 2356,
      "ĠÐ¿Ð¾Ð²ÑĸÑĤ": 2357,
      "ÐµÑĤÐ¸": 2358,
      "ĠÐ¿Ð¾Ð²ÐµÑĢÑħ": 2359,
      "ĠÐ¿ÑĢÐ¾ÐµÐºÑĤ": 2360,
      "ĠÐ½Ð°Ð¿Ð¸Ñģ": 2361,
      "ÑĩÐ°ÑĶÑĤÑĮÑģÑı": 2362,
      "ÑĤÑĢÐ¸Ð¼Ñĥ": 2363,
      "ÐłÐ¾Ð·": 2364,
      "ie": 2365,
      "Ð½ÐµÐ½": 2366,
      "ĠÐĲÐ½Ð´": 2367,
      "ĠÐ¢Ð°ÐºÐ¾Ð¶": 2368,
      "ĠÐ´Ð¶ÐµÑĢÐµ": 2369,
      "Ð¾Ð³ÑĸÑĩ": 2370,
      "ow": 2371,
      ").ĊĊ": 2372,
      "Ð¾ÑĢÐ¾ÑĤÑĮ": 2373,
      "ĠÐ·Ð²Ð¸ÑĩÐ°Ð¹": 2374,
      "ĠÐ¾Ð±'ÑĶÐ´": 2375,
      "ÐµÐ½ÑĤÑĥ": 2376,
      "ation": 2377,
      "Ð¼ÐµÐ½ÑĤÑĥ": 2378,
      "ĠÐ·Ð°Ð¼Ñĸ": 2379,
      "ĠÐ²Ð¸Ð¿Ð°Ð´ÐºÑĥ": 2380,
      "ĠÑģÐºÐ°": 2381,
      "ÑĩÐµÐ½Ð¸Ð¹": 2382,
      "ĠÑģÑĸÑĩÐ½Ñı": 2383,
      "Ð»ÑıÑİÑĤÑĮ": 2384,
      "ĠÐ´Ð¸ÑĢÐµ": 2385,
      "ul": 2386,
      "ĠÑĢÐµÐºÐ¾Ð¼": 2387,
      "ĠÑĢÐµÑĶ": 2388,
      "ĠÑĸÐ½ÑĦÐ¾ÑĢÐ¼Ð°ÑĨÑĸÑĹ": 2389,
      "Ð·Ð°ÑĨÑĸÑĹ": 2390,
      "ĠÐ´ÑĸÐ²": 2391,
      "ĠÑĦÐ¾ÑĢÐ¼Ñĥ": 2392,
      "ĠÐºÐ¾": 2393,
      "ÑģÑĥÑĢ": 2394,
      "ÑĤÐ°ÑĨÑĸÑĹ": 2395,
      "ĠÐ³ÑĢÑĥÐ¿Ð¸": 2396,
      "ĠÑĤÑĢÐ°Ð²Ð½Ñı": 2397,
      "ĠÐ²Ð¸Ð³Ð»Ñı": 2398,
      "ÑĪÐºÐ¾Ð´": 2399,
      "ĠÐ¼Ð¸ÑģÑĤÐµ": 2400,
      "ÑĩÐºÐ°": 2401,
      "ÑĩÐ¸ÑĤÑĮ": 2402,
      "ĠÐºÐ°Ð¿": 2403,
      "ÑĸÑİ": 2404,
      "ĠÐĲÐ²": 2405,
      "ĠÐ£ÐºÑĢÐ°ÑĹÐ½": 2406,
      "ĠÐ¼Ð°ÑĪÐ¸": 2407,
      "ĠÐ¡Ð°Ð¼": 2408,
      "Ġb": 2409,
      "Ð»ÑıÑĤÑĮ": 2410,
      "ĠÑĥÐ¼Ð¾Ð²Ð°": 2411,
      "Ġand": 2412,
      ".c": 2413,
      "ĠÐ²ÑĸÐ´Ð½Ð¾ÑģÐ¸": 2414,
      "ĠÑģÑĤÐ°ÑĤÐ¸": 2415,
      "ĠÐ¼Ð°ÑĤÐ¸": 2416,
      "ĠÐ´Ð¾ÑģÐ»ÑĸÐ´Ð¶ÐµÐ½Ð½Ñı": 2417,
      "Ð½ÐµÐ¼": 2418,
      "ÑĪÐºÐ¸": 2419,
      "ÐµÐ´Ð°Ð³": 2420,
      "ĠÐ´ÐµÑĢÐ¶Ð°Ð²Ð¸": 2421,
      "ÑĩÐ¸Ð»Ð¸": 2422,
      "ĠÐ°Ð±": 2423,
      "ÑģÑĤÐ°Ð½Ð¾Ð²Ð¸": 2424,
      "ĠÐĹÐ°Ðº": 2425,
      "ag": 2426,
      "Ð°Ð»Ð¾Ð¼": 2427,
      "ĠÐ²Ð·Ñı": 2428,
      "ĠÐ²Ð¾Ð´Ð¸": 2429,
      "ĠÐ¿Ð¾ÑģÐ»ÑĥÐ³": 2430,
      "ÑıÐ¼Ð¸": 2431,
      "ĠÐ·Ð½Ð°ÑħÐ¾Ð´Ð¸": 2432,
      "Ð¿ÐµÑĢÐ°ÑĤÑĥ": 2433,
      "ĠÐ²ÐµÑĢÐµÑģÐ½Ñı": 2434,
      "ĠÐĽÑĥ": 2435,
      "Ð½ÑĸÑĹ": 2436,
      "ĠÐ¿Ð¾Ð²Ð¸Ð½Ð½Ñĸ": 2437,
      "Ð»ÑıÑĤÐ¸": 2438,
      "ÐµÑĢÑħÐ¾Ð²": 2439,
      "ÑĨÑıÐ¼Ð¸": 2440,
      "ĠÐ¤ÑĢÐ°Ð½": 2441,
      "op": 2442,
      "ĠÐ·Ð±ÐµÑĢÑĸÐ³": 2443,
      "ĠÑĸÑģÑĤÐ¾ÑĢÐ¸": 2444,
      "Ð¾Ð±ÑĸÐ»ÑĮ": 2445,
      "ĠÑıÐºÐ¾ÑģÑĤÑĸ": 2446,
      "ĠÐ²Ð¸ÑıÐ²Ð¸": 2447,
      "Ð¼ÐµÑĨÑĮ": 2448,
      "ÑĤÐ¾Ð½": 2449,
      "ĠÑĸÐ½ÑģÑĤÑĢÑĥ": 2450,
      "ÑĩÐ½Ðµ": 2451,
      "ÑĢÐ¾Ð´Ð¸": 2452,
      "ÑĢÑĮÐ¾Ñħ": 2453,
      "Ð±Ð»Ñĸ": 2454,
      "ÑħÑĸÐ²": 2455,
      "ĠÑģÐ»Ð¾Ð²Ð°Ð¼Ð¸": 2456,
      "ĠÑĥÑģ": 2457,
      "ĠÐ°Ð½ÑĤÐ¸": 2458,
      "ĠÑĤÑĢÐµÐ½": 2459,
      "ĠÐ·Ð»Ð¾": 2460,
      "Ð¼ÑĸÑĢ": 2461,
      "ĠÑĤÑĢÐ°Ð´Ð¸": 2462,
      "ÑĤÐ°Ð»": 2463,
      "ÑĩÑĩ": 2464,
      "ĠÐ¥Ð°ÑĢ": 2465,
      "ÑĩÐµÐ½Ð¾": 2466,
      "Ð¼ÐµÑĢÐ¸ÐºÐ°Ð½": 2467,
      "ĠÐ´Ð¾Ð»": 2468,
      "ĠÑĹÐ¼": 2469,
      "ÑĩÐµÐ½Ð¸Ñħ": 2470,
      "ĠÐ»ÑĸÐºÑĥÐ²Ð°Ð½Ð½Ñı": 2471,
      "ĠÐĶÐµ": 2472,
      "ĠÑıÐºÐ¾ÑĹ": 2473,
      "ĠÐľÑĸÐ½ÑĸÑģÑĤ": 2474,
      "ÐºÑĸÐ¹": 2475,
      "ĠÑĤÐ¾ÑīÐ¾": 2476,
      "ĠÐ¶Ð¾Ð²ÑĤÐ½Ñı": 2477,
      "ĠÑĢÐ¾Ð±ÑĸÑĤ": 2478,
      "ĠÑİÑĢÐ¸": 2479,
      "Ð´ÐµÑĤÑĮÑģÑı": 2480,
      "ĠÐ¼ÑĸÑģÑĤÐ¸": 2481,
      "ĠÐ¼Ð¸Ð½Ñĥ": 2482,
      "Ð²ÑĪÐ¸": 2483,
      "ĠÐ¼ÑĸÐ»ÑĮ": 2484,
      "ÑĢÐ°Ð¿": 2485,
      "ĠÐ·Ð½Ð°ÑĩÐµÐ½Ð½Ñı": 2486,
      "Ð°ÑĶÐ¼": 2487,
      "ÑĨÑĸÑĶÐ½": 2488,
      "ĠÐ¾Ñĩ": 2489,
      "ĠÐ±Ð¾ÑĢÐ¾ÑĤÑĮ": 2490,
      "ĠÑģÐ°Ð¹ÑĤÑĸ": 2491,
      "ĠÐ¿ÑĢÐ¾Ñģ": 2492,
      "ĠÐ¼Ð»Ð½": 2493,
      "ĠÐ¿Ð°Ð½": 2494,
      "ĠÐ¿ÑĢÐ°ÐºÑĤÐ¸Ñĩ": 2495,
      "Ð¾Ð²ÑĥÐ²Ð°ÑĤÐ¸": 2496,
      "ĠÐ´ÐµÐ¿ÑĥÑĤÐ°ÑĤ": 2497,
      "ĠÐºÐ²ÑĸÑĤÐ½Ñı": 2498,
      "ĠÑĢÐ¾Ð·ÑĢÐ°Ñħ": 2499,
      "ÑĨÑĸÐ¹Ð½Ð¸Ð¹": 2500,
      "ÑħÐ¾Ð´ÑıÑĤÑĮ": 2501,
      "ĠÐ·Ð°Ð³Ð¸": 2502,
      "Ð»Ð°Ð¹": 2503,
      "ĠÐĲÑĢ": 2504,
      "ĠÐļÑĥ": 2505,
      "ĠÑĤÑĥÑĢ": 2506,
      "ĠÐ´ÐµÐ¼": 2507,
      "ÐŁÐ¾ÑģÐ¸Ð»Ð°Ð½Ð½Ñı": 2508,
      "ÑģÐºÐ°": 2509,
      "ÑĢÐ°Ð¼Ð¸": 2510,
      "ÑĨÑĸÐ¹Ð½Ð¾Ð³Ð¾": 2511,
      "ĠÑĥÐ²Ð°Ð³Ñĥ": 2512,
      "ĠÑģÐ¸Ð½": 2513,
      "ĠÐ¿Ð»Ð¾": 2514,
      "ĠÐ²Ð¸Ð´Ñĸ": 2515,
      "ir": 2516,
      "ĠÐ´Ð°Ð½Ð¸Ñħ": 2517,
      "ĠÑĢÐµÐ¶Ð¸": 2518,
      "ĠÐºÐ¾Ð»ÑĮ": 2519,
      "ĠÐ²ÑĸÐ´Ð²ÑĸÐ´": 2520,
      "ÑĪÐ»Ð°": 2521,
      "Â«Ðĳ": 2522,
      "ĠÑĢÐ°Ð¹Ð¾Ð½Ñĥ": 2523,
      "ĠÐ¿ÑĢÐ¾ÑĦÐµÑģÑĸÐ¹": 2524,
      "ĠÑĩÐµÑĢÐ²Ð½Ñı": 2525,
      "ĠÐ²ÑĸÐº": 2526,
      "ĠÐ²ÑĸÐ´Ð¼ÑĸÐ½": 2527,
      "ĠÐ³ÑĢÑĥÐ´Ð½Ñı": 2528,
      "ÐµÑĢÐ¾Ð¼": 2529,
      "ĠÐĿÐ°ÑĨÑĸÐ¾Ð½": 2530,
      "Ð°ÑħÑĸÐ²": 2531,
      "ÑĥÐ»ÑıÑĢ": 2532,
      "ĠÐ½Ð°Ð·Ð¸": 2533,
      "ĠÐ·Ð²'ÑıÐ·ÐºÑĥ": 2534,
      "ÑĪÐ¸ÑĤÐ¸": 2535,
      "ĠÑĤÐµÑĢÐ¼ÑĸÐ½": 2536,
      "ÑĸÐ±Ð»Ñĸ": 2537,
      "ĠÑģÑĤÐ¾Ð»ÑĸÑĤ": 2538,
      "Ð»ÐµÐ³": 2539,
      "Ð¢Ðŀ": 2540,
      "ĠÐ´ÑĸÐ¹": 2541,
      "ÐĶÐ¾": 2542,
      "ĠÐ½Ð°Ð¿ÑĢÑıÐ¼": 2543,
      "ĠÐĴÑģÐµ": 2544,
      "ĠÐ±Ð°Ð³Ð°ÑĤ": 2545,
      "ĠÐ´Ð¾Ð±ÑĢÐµ": 2546,
      "ĠÐ£ÐºÑĢÐ°ÑĹÐ½Ð°": 2547,
      "ĠÑĤÐ¸ÑģÑıÑĩ": 2548,
      "ua": 2549,
      "ĠÑĢÐ°Ð·Ñĸ": 2550,
      "ĠÐ¿ÑĢÐ¸Ð²": 2551,
      "ĠÐ¿Ð¾ÐºÐ¸": 2552,
      "ĠÐºÑĢÐµÐ´Ð¸": 2553,
      "--": 2554,
      "ĠÑĩÐ°ÑģÑĤ": 2555,
      "ĠÑĶÐ´Ð¸": 2556,
      "ĠÐ±Ð°Ð³Ð°ÑĤÑĮ": 2557,
      "ĠÐ¿ÑĥÐ±Ð»Ñĸ": 2558,
      "ĠÐºÑĥÐ»ÑĮÑĤÑĥÑĢÐ¸": 2559,
      "ĠÐ´ÑĸÐ»ÑıÐ½": 2560,
      "ĠÐ½ÐµÐ·Ð°Ð»ÐµÐ¶": 2561,
      "ĠÑĸÑģÑĤÐ¾ÑĢÑĸÑĹ": 2562,
      "ĠÐ»ÑİÑĤÐ¾Ð³Ð¾": 2563,
      "ĠÐŁÐµÑĢÐµ": 2564,
      "ĠÑħÐ°ÑĢ": 2565,
      "ĠÑģÐ¾": 2566,
      "Ð»Ð¸Ñħ": 2567,
      "ĠÑħÑĥÐ´Ð¾Ð¶": 2568,
      "ĠÐ½Ð°Ð¹ÐºÑĢÐ°": 2569,
      "ĠÐ³Ð°Ð»Ñĥ": 2570,
      "ĠÐ¿ÑĢÐ¾ÑĤÐµ": 2571,
      "ĠÐ»Ð¸Ð¿Ð½Ñı": 2572,
      "ĠÐ¿ÑĸÐ´Ð¿ÑĢÐ¸ÑĶÐ¼ÑģÑĤÐ²Ð°": 2573,
      "ÑģÑĤÑĢÐ¾": 2574,
      "ĠÐ¼ÐµÐ½Ñĸ": 2575,
      "(Ð·": 2576,
      "ĠÑĨÑİ": 2577,
      "\".": 2578,
      "ĠÑĢÐ°Ð½ÑĸÑĪÐµ": 2579,
      "ĠÑĤÑĢÐ¾": 2580,
      "ĠÑĨÑĸÐ»": 2581,
      "ÐºÑĤÐ¾ÑĢÐ°": 2582,
      "ĠÐ³Ð»Ð¸": 2583,
      "ĠÐ¿ÑĢÐ¾Ð¹": 2584,
      "Ð»ÑİÐ²Ð°Ð½Ð½Ñı": 2585,
      "Ð½Ð¾ÑĩÐ°Ñģ": 2586,
      "ĠÐŁÑĸÐ²": 2587,
      "ĠÐ·Ð°Ð¼Ð¾Ð²": 2588,
      "ÐľÐ¸": 2589,
      "Ð°Ð½Ð¸": 2590,
      "ĠÐ·Ð´Ð°ÑĤ": 2591,
      "ĠÑģÐ¸ÑģÑĤÐµÐ¼Ð°": 2592,
      "ĠÐ±ÐµÐ·Ð¿ÐµÐºÐ¸": 2593,
      "ĠÐ½ÐµÑĹ": 2594,
      "Ð²ÑĸÐ·": 2595,
      "ĠÐ²Ð¸Ð½Ð¸Ðº": 2596,
      "ĠÐ¿ÑĢÐµÐ¿": 2597,
      "ĠÐ²Ð¸ÐºÐ¾ÑĢÐ¸ÑģÑĤÐ¾Ð²ÑĥÐ²Ð°ÑĤÐ¸": 2598,
      "ÑģÑĤÐ²Ñĸ": 2599,
      "ĠÐ½ÐµÐ²ÐµÐ»Ð¸": 2600,
      "ĠÑģÐ¾Ð±Ð¾Ñİ": 2601,
      "ĠÐ³Ð¾Ð»Ð¾Ð²Ð¸": 2602,
      "ÐµÐ½ÑĤÑĸÐ²": 2603,
      "ĠÐĽÑĮÐ²ÑĸÐ²": 2604,
      "ĠÐ½Ð¾Ð²Ñĸ": 2605,
      "ÑĸÐ³": 2606,
      "Ð°ÐºÑģÐ¸Ð¼": 2607,
      "ĠÐ´Ð²Ñĸ": 2608,
      "ĠÐ±Ð¾ÑĢ": 2609,
      "ĠÑĢÑĸÐ²Ð½Ñı": 2610,
      "ÑīÐ¸Ð½Ð¸": 2611,
      "ĠÐ²ÑĸÐ´Ðµ": 2612,
      "ĠÐ°Ð»": 2613,
      "ĠÐĿÐ°Ð¹": 2614,
      "ÑĢÐ¾Ð·ÑĥÐ¼Ñĸ": 2615,
      "ĠÐ²Ð»Ð°Ð´": 2616,
      "ĠÐŁÐ¾": 2617,
      "tp": 2618,
      "ĠÐ²ÑĸÐ´Ð±": 2619,
      "ĠÐ¾Ð´Ð½Ð°": 2620,
      ");Ċ": 2621,
      "Ð½Ð¾Ð·": 2622,
      "ÐµÐ½Ñģ": 2623,
      "ĠÐ¿Ð¾ÑĩÐ°ÑĤ": 2624,
      "ĠÐºÐ¾Ð»ÐµÐº": 2625,
      "Ð»ÑİÑĶ": 2626,
      "ĠÐ½Ð°ÑĢÐ¾Ð´Ð¶ÐµÐ½Ð½Ñı": 2627,
      "-Ð³Ð¾": 2628,
      "ĠÐ³ÑĢÐ¸Ð²": 2629,
      "ĠÐ¼Ð¾Ð¶ÐµÑĤÐµ": 2630,
      "ĠÐ½Ð°Ð»ÐµÐ¶": 2631,
      "Ð½Ð°ÑĤ": 2632,
      "ĠÑĥÐ¼Ð¾Ð²": 2633,
      "ĠÐ¢Ðµ": 2634,
      "ĠÐ´Ð¸ÑĤÑı": 2635,
      "ĠÐ½Ð°Ð¹Ð±ÑĸÐ»ÑĮÑĪ": 2636,
      "Ð°Ð³Ð°ÑĤÐ¾": 2637,
      "ĠÐ»Ð¸ÑģÑĤÐ¾Ð¿Ð°Ð´Ð°": 2638,
      "ĠÐ½Ð¾Ð¼": 2639,
      "ÑĩÐ½Ñĥ": 2640,
      "ĠÑĢÐ¸Ð½ÐºÑĥ": 2641,
      "ĠÑģÐ¼Ð°": 2642,
      "ÑĥÑĤÐ±": 2643,
      "ÐµÑĤÐ°": 2644,
      "Ð³Ð¾ÑĢÐ¾Ð´": 2645,
      "ĠÐ³Ðµ": 2646,
      "ĠÑħÑĸ": 2647,
      "ĠÐ·Ð±ÑĸÑĢ": 2648,
      "ĠÐ¿ÑĢÐ°ÑĨÑĸ": 2649,
      "ĠÐ¿Ð°Ñģ": 2650,
      "ÑĨÑĥ": 2651,
      "Ð»ÐµÐ½Ð½Ñĸ": 2652,
      "ÑħÐ¾Ð´Ð¶ÐµÐ½Ð½Ñı": 2653,
      "Ð¾Ð»ÑĸÐ²": 2654,
      "âĢ¢": 2655,
      "ĠÑģÐ»Ð¾Ð²": 2656,
      "ĠÐ·Ð°ÑıÐ²": 2657,
      "ĠÐŀÐ´Ð½Ð°Ðº": 2658,
      "ĠÑĤÐµÐ¼Ð¿ÐµÑĢÐ°ÑĤÑĥ": 2659,
      "ĠÑĩÐ¾ÑĤÐ¸": 2660,
      "ĠÐ²ÑĸÐ´ÑģÑĥÑĤ": 2661,
      "ĠÐºÐ¾Ð¼Ñĸ": 2662,
      "Ð°ÑĢÑĥ": 2663,
      "ÑģÑĮÐºÐ¾": 2664,
      "ĠÑģÑĤÐ²Ð¾ÑĢÐ¸": 2665,
      "ĠÐºÑĢÐ°ÑīÐµ": 2666,
      "Ð²ÑĢÐ¾Ð¿ÐµÐ¹": 2667,
      "ĠÐ¿Ð¾ÑıÑģ": 2668,
      "http": 2669,
      "ĠÐ¼Ð¸ÑģÑĤÐµÑĨÑĤ": 2670,
      "ÐµÑĢÐ²": 2671,
      "Ð´ÐµÐ½ÑĤÐ°": 2672,
      "ĠÐ¾ÑĤÑĢÐ¸Ð¼Ñĥ": 2673,
      "ĠÐ°Ð½Ð°Ð»ÑĸÐ·": 2674,
      "ÐºÐ°Ð´Ðµ": 2675,
      "ĠIn": 2676,
      "ĠÐ³Ð¾Ð»Ð¾Ñģ": 2677,
      "://": 2678,
      "ĠÐļÐ¾ÑĢ": 2679,
      "ĠÑĩÐ¾Ð¼Ñĥ": 2680,
      "ĠÐļÐ°ÑĢ": 2681,
      "ĠÐ½Ð°Ð¿ÑĢÐ¸ÐºÐ»Ð°Ð´": 2682,
      "ĠÐ½ÐµÐ³": 2683,
      "ĠÐ¼ÐµÑĤÐ¾Ñİ": 2684,
      "ĠÑħÐ°ÑĢÐ°ÐºÑĤÐµÑĢÐ¸": 2685,
      "ĠÐ±Ð¸": 2686,
      "ĠÐ°Ð»ÑĮ": 2687,
      "Ð°ÑĤÐ¸Ð²": 2688,
      "ĠÐ¾Ð½": 2689,
      "ÑħÐ¾Ð´Ñĥ": 2690,
      "ĠÐ¼Ð¾Ð³": 2691,
      "ÑģÐ½Ð¾": 2692,
      "ĠÐºÐ¼": 2693,
      "ĠÐ±Ð¾ÐºÑĥ": 2694,
      "Ð¾ÑģÐµÑĢÐµÐ´": 2695,
      "Ð¾ÑĢÐ¾Ð¼": 2696,
      "ĠÐ³Ð¾Ð»Ð¾Ð²Ð°": 2697,
      "Ð°ÑĨÑĸÑİ": 2698,
      "ĠÐ¿ÑĢÐµÐ¿Ð°ÑĢÐ°": 2699,
      ".com": 2700,
      "ÑĤÑĸÑģÑĤÑĮ": 2701,
      "Ð°Ð½Ð¾Ð³Ð¾": 2702,
      "ĠÐłÐ°Ð´Ð¸": 2703,
      "ĠÑģÐ¿ÑĢÐ¸Ñı": 2704,
      "ĠÑģÑĤÐ²Ð¾ÑĢÑİ": 2705,
      "Ð¸Ð»Ð°": 2706,
      "ĠÐ·Ð°ÑħÐ¸ÑģÑĤÑĥ": 2707,
      "ĠÐ¼ÐµÐ¶": 2708,
      "ĠÑĤÐµÐ±Ðµ": 2709,
      "ÑĸÐ»Ñĸ": 2710,
      "ĠÐ°Ð´Ð¶Ðµ": 2711,
      "ĠÐ·Ð°Ð²ÐµÑĢ": 2712,
      "ĠÑģÐ¿Ð¾ÑģÑĤ": 2713,
      "ĠÐ¾ÑĩÑĸ": 2714,
      "ĠÐ¿ÑĸÐ´Ð¿Ð¸Ñģ": 2715,
      "ĠÐ¿ÐµÑĢÐµÐ±Ñĥ": 2716,
      "ĠÑģÐµÑĢÐ¿Ð½Ñı": 2717,
      "Ð®": 2718,
      "ÑĢÐ°Ð¼": 2719,
      "ÑĤÐ°Ð±": 2720,
      "ÑĢÐ¸ÑģÑĤÐ¸": 2721,
      "ĠÐ¿ÑĢÐ¾Ð±Ð»ÐµÐ¼Ð¸": 2722,
      "Ð»Ð¸Ð¹": 2723,
      "ĠÐµÑĤÐ°": 2724,
      "ov": 2725,
      "ĠÐĴÐµÑĢÑħÐ¾Ð²": 2726,
      "oc": 2727,
      "ĠÐ·Ð°ÑģÑĤÐ¾ÑģÑĥÐ²Ð°Ð½Ð½Ñı": 2728,
      "ÐºÐ¾Ð²Ð¸Ð¹": 2729,
      "ĠÐ±ÑĸÐ»Ñı": 2730,
      "-ÑĢÑĸ": 2731,
      "ĠÐ¼ÑĸÑģÑĤÑĸ": 2732,
      "ĠÑĥÑģÑĸÑħ": 2733,
      "ĠÑĤÐµÐº": 2734,
      "ĠÑħÐ¾ÑĩÐµ": 2735,
      "ĠÐ»ÑĸÑĤ": 2736,
      "ÑĩÐ°ÑĤÐ¸": 2737,
      "ÐºÑģ": 2738,
      "ÑĩÐ°ÑİÑĤÑĮ": 2739,
      "ÑĤÐ½Ð¾": 2740,
      "ĠÑĤÐµÑħÐ½Ñĸ": 2741,
      "ĠÑĥÐ¼Ð¾Ð²Ð¸": 2742,
      "ÑĤÐ¸Ð¼": 2743,
      "ww": 2744,
      "ĠÐ¿Ð¾Ð±Ð°": 2745,
      "ÑĨÑĸÐ¹Ð½Ñĸ": 2746,
      "ĠÐĴÐ¾Ð½Ð°": 2747,
      "Ð²Ð°Ð²ÑģÑı": 2748,
      "ĠÐºÐ²Ð°ÑĢ": 2749,
      "Ð¾Ð·Ð°": 2750,
      "ĠÐºÐ»Ñĥ": 2751,
      "ĠÐ²ÑĸÑĤ": 2752,
      "ĠÐŁÐ¾Ð»": 2753,
      "ĠÐ¿ÑĢÐ¸Ñģ": 2754,
      "ĠÐ¿Ð¾Ð»ÑĮ": 2755,
      "ÑĦÐµÑĢÐµÐ½": 2756,
      "ĠÐĩ": 2757,
      "ĠÐ¿Ð¸ÑģÑĮ": 2758,
      "Ð»ÐµÐ½Ð¸Ñħ": 2759,
      "ĠÐ·Ð¼ÐµÐ½": 2760,
      "ÑĹÑħ": 2761,
      "ĠÐ¼Ð¾Ð²Ð¸": 2762,
      "ĠÐ¿ÐµÑĢÑĪÐ¸Ð¹": 2763,
      "ĠÑĪÐ¸ÑĢÐ¾Ðº": 2764,
      "ĠÑģÐ²ÑĸÑĤÑĸ": 2765,
      "ĠÐ¾Ð´Ð½Ñĸ": 2766,
      "ĠÐ¾ÑĢ": 2767,
      "ÑĢÑĸÐ·Ð½Ñı": 2768,
      "ĠÑĩÐµÐ¼Ð¿Ñĸ": 2769,
      "Ð°Ð»ÑĮÐ½ÑĸÑģÑĤÑĮ": 2770,
      "ĠÐ´ÐµÑģÑı": 2771,
      "Ð½Ð¾Ðº": 2772,
      "ĠÐ¡ÐµÑĢÐ³": 2773,
      "ĠÐ¼Ð°Ð»Ð¸": 2774,
      "ĠÑģÐ¸Ð»": 2775,
      "ĠÐ½Ð¾Ð²Ð¸Ñħ": 2776,
      "ĠÐ¾ÑĤÑĢÐ¸Ð¼Ð°ÑĤÐ¸": 2777,
      "ĠÐºÐ»ÑĸÑĶÐ½": 2778,
      "ĠÐ·Ð½Ð¾Ð²Ñĥ": 2779,
      "Ġa": 2780,
      "ĠÐ²Ð¸ÑĢÐ¾Ð±Ð½Ð¸ÑĨÑĤÐ²Ð°": 2781,
      "ĠÐ·Ð°ÑģÑĤÑĥÐ¿": 2782,
      "\".Ċ": 2783,
      "ĠÐ¼Ð¾Ð»Ð¾Ð´": 2784,
      "ĠÐ¿Ð»Ð°ÑĤ": 2785,
      "ĠÐ²ÐºÐ°Ð·": 2786,
      "ĠÐµÐºÐ¾Ð½Ð¾Ð¼Ñĸ": 2787,
      "ĠÐ°Ð¼ÐµÑĢÐ¸ÐºÐ°Ð½": 2788,
      "Ð¬": 2789,
      "ÐºÑĸÐ½": 2790,
      "ĠÐ¿Ð¾ÑĢÑĥÑĪÐµÐ½Ð½Ñı": 2791,
      "ĠÑĪÐºÐ¾Ð»Ð¸": 2792,
      "ĠÐ½ÑĸÐº": 2793,
      "ÑĢÐ¸ÑĤÐ°Ð½": 2794,
      "ÐºÐ¾Ð»Ð¸": 2795,
      "ĠÐĳÐ¾Ð³": 2796,
      "ĠÐĴÐ°ÑģÐ¸": 2797,
      "od": 2798,
      "ĠÑĤÐ²Ð°ÑĢÐ¸": 2799,
      "Ð¾Ð·Ñĸ": 2800,
      "ĠÐ´Ð¾Ð·Ð²Ð¾Ð»ÑıÑĶ": 2801,
      "ĠÑģÐºÐ»Ð°Ð´Ñĸ": 2802,
      "ĠÐ¿Ð¾ÑĢÑĸÐ²": 2803,
      "ĠÐ·Ð°Ð²Ð´Ð°Ð½Ð½Ñı": 2804,
      "ĠÑĤÐµÑĢÐ¸ÑĤÐ¾ÑĢÑĸ": 2805,
      "ĠÐ²Ð¸Ð³Ð»ÑıÐ´Ñĸ": 2806,
      "ĠÐ¿ÑĢÐ¾Ð±Ð»ÐµÐ¼": 2807,
      "ĠÐ²Ð½ÐµÑģ": 2808,
      "ĠÑĢÐµÑģÑĥÑĢ": 2809,
      "ÑĢÐ¸Ð³ÑĸÐ½": 2810,
      "Ð³Ð°Ð½": 2811,
      "ĠÐ·'ÑıÐ²Ð¸": 2812,
      "ĠÑĤÐ¾Ð²Ð°ÑĢÐ¸": 2813,
      "ÑĢÑĸÐ¿": 2814,
      "ĠÑĥÐ¼Ð¾Ð²Ð°Ñħ": 2815,
      "ĠÑĤÐ°ÐºÐ¸Ð¹": 2816,
      "ĠÐ´Ð¾Ð¿Ð¾Ð¼Ð°Ð³": 2817,
      "Â«ÐĲ": 2818,
      "ĠÑģÑĤÑĥÐ¿": 2819,
      "ĠÐŁÐ¾Ð»ÑĮ": 2820,
      "ĠÐ´ÐµÑĤ": 2821,
      "ĠÐ¶ÑĥÑĢÐ½Ð°Ð»Ñĸ": 2822,
      "Ð»Ð¾Ð³Ð¾": 2823,
      "Ð°Ð¹ÑĤÐµ": 2824,
      "Ð¾Ð±Ñĥ": 2825,
      "ĠÐºÐ¾Ð¼Ð°Ð½": 2826,
      "ĠÐ´ÑĸÑıÐ»ÑĮÐ½ÑĸÑģÑĤÑĮ": 2827,
      "ÑĤÐ¸ÐºÐ°": 2828,
      "ĠÐ¢Ð¸": 2829,
      "ĠÑĥÑģÑĤÐ°Ð½Ð¾Ð²": 2830,
      "ĠÑĢÑĥÑħ": 2831,
      "ĠÐ´Ð¸Ð²": 2832,
      "-Ð´": 2833,
      "ĠÐ±Ð¾Ð¹": 2834,
      "ĠÐ¿ÑĢÐ¾ÑĨ": 2835,
      "ĠÐ¼ÐµÑĢÐµ": 2836,
      "ĠÑĨÐ¸Ð¼": 2837,
      "Ð½ÑıÑĤÑĤÑı": 2838,
      "ĠÐ²Ð¸ÐºÐ»Ð°Ð´": 2839,
      "ÑĩÐµÐ½ÐºÐ¾": 2840,
      "ĠÐ¼ÐµÑħÐ°Ð½": 2841,
      "ĠÐµÐ»ÐµÐºÑĤÑĢÐ¾Ð½": 2842,
      "ĠÐ¿ÑĢÐ¾ÑģÑĤ": 2843,
      "ĠÐ¿Ñĥ": 2844,
      "Ð°Ð´Ð¶ÐµÐ½Ð½Ñı": 2845,
      "ÑĪÑĤÐ¾Ð²": 2846,
      "ĠÐ·Ð±ÐµÑĢÐµ": 2847,
      "ĠÐ¾ÑĢÐ³Ð°Ð½ÑĸÐ²": 2848,
      "ÑĥÐºÑĢÐ°ÑĹÐ½": 2849,
      "ĠÐ¡Ð¸": 2850,
      "ĠÐ¿ÑĢÐ¾Ð³ÑĢÐ°Ð¼": 2851,
      "ĠÐ¿ÑĸÐ´ÑĤÐ²ÐµÑĢ": 2852,
      "ÑĥÐ²Ð°ÑĤÐ¸ÑģÑı": 2853,
      "ĠÐĽÐµ": 2854,
      "Ð°Ð±Ð¾": 2855,
      "Ð°Ð¶Ñĥ": 2856,
      "ĠÐ·Ð°Ð»ÐµÐ¶": 2857,
      "Ð½ÐµÑĤ": 2858,
      "ĠÐ½Ð¸Ð¶": 2859,
      "ĠÐ»ÑİÐ´Ð¸Ð½Ð°": 2860,
      "ĠÑĢÐ¾Ð±Ð¸ÑĤÐ¸": 2861,
      "ĠÐ¾ÑģÐ½Ð¾Ð²Ñĸ": 2862,
      "ĠÐ²Ð°ÑĪ": 2863,
      "ĠÑĦÑĥÑĤÐ±": 2864,
      "ĠÐŀÐ±": 2865,
      "ĠÑģÑĤÑĢÐ°Ñħ": 2866,
      "Ð¸ÑģÐ»": 2867,
      "ĠÐ²ÑĸÐ»ÑĮ": 2868,
      "ĠÐºÐ¾Ð½ÑĤÑĢÐ¾Ð»Ñİ": 2869,
      "ĠÐºÐ¾ÑĤ": 2870,
      "(Ð½Ð°": 2871,
      "ĠÑıÑģ": 2872,
      "Ð¸ÑħÐ°Ð¹": 2873,
      "Ð°Ð²Ð°": 2874,
      "(Ð´": 2875,
      "Ð¾ÑĩÐ°ÑĤÐºÑĥ": 2876,
      "Ð¼Ð°ÑĤÐ¸Ñĩ": 2877,
      "ĠÑĩÐ°ÑģÑĤÐ¸Ð½Ð¸": 2878,
      "ĠÑĥÐ·": 2879,
      "Ð½ÑĸÐ¿": 2880,
      "ÑİÑĩÐ¸ÑģÑĮ": 2881,
      "Ð³Ð¾Ð´Ð¸": 2882,
      "Ð°Ð»ÐµÐ½Ð½Ñı": 2883,
      "ĠÐ¿ÑĸÐ·": 2884,
      "ĠÑģÐµÐ·": 2885,
      "ĠÐºÐ°ÑĢÑĤ": 2886,
      "Ð»Ð»Ñı": 2887,
      "Ð»Ð¸Ð²Ð¸Ð¹": 2888,
      "ĠÐ³Ð¾ÑģÑĤ": 2889,
      "ĠÐ¼Ð¾Ð½": 2890,
      "ĠÐ§Ð¸": 2891,
      "ĠÐ»ÑĸÑģ": 2892,
      "ĠÐ¾Ð±Ð»Ð°Ð´": 2893,
      "ĠÐĴÐ¾Ð»Ð¾Ð´Ð¸Ð¼Ð¸ÑĢ": 2894,
      "ÑģÑĤÐ¸ÑĤÐ¸": 2895,
      "Ð¹Ð¾Ð¼": 2896,
      "ÐµÐ»ÐµÐ½Ð½Ñı": 2897,
      "ĠÑĢÐ¾Ð»ÑĮ": 2898,
      "ĠÐ¾Ð³Ð¾Ð»": 2899,
      "ĠÑĢÐ¾Ð·Ð³Ð»Ñı": 2900,
      "ĠÑģÑĥÐ¼": 2901,
      "ÑĤÐ°Ð¼": 2902,
      "ĠÐ²Ð¸Ð³Ð¾ÑĤÐ¾Ð²": 2903,
      "ĠÑħÐ°ÑĢÑĩ": 2904,
      "ĠÑĢÑĸÐ·Ð½Ñĸ": 2905,
      "ĠÑĢÑĸÐ²ÐµÐ½ÑĮ": 2906,
      "ĠÐ¡Ñĥ": 2907,
      "-Ċ": 2908,
      "ĠÐ¤ÐµÐ´": 2909,
      "ĠÐľÐ¾Ñģ": 2910,
      "ĠÑĩÐ°ÑģÑĤÐ¸Ð½Ð°": 2911,
      "Ð¿Ð°ÑĤ": 2912,
      "ÑģÑĮÐºÐ¸Ð¼Ð¸": 2913,
      "ĠÐ¿ÑĢÐ°ÐºÑĤÐ¸": 2914,
      "ÒĳÑĢÑĥÐ½": 2915,
      "ĠÑģÐ»Ñĥ": 2916,
      "ĠÑĩÐ¸ÑģÐ»Ñĸ": 2917,
      "ĠÑĢÐ¸Ð·Ð¸": 2918,
      "Ð°Ð½Ðµ": 2919,
      "ĠÐ·Ð°Ð´Ð¾Ð²": 2920,
      "ĠÐ¿ÑĢÐ¾Ð³ÑĢÐ°Ð¼Ð¸": 2921,
      "ĠÐ¿ÑĢÐ°ÑĨÑİÑĶ": 2922,
      "ĠÐ·Ð²ÑĸÐ»ÑĮ": 2923,
      "ĠÐļÑĢÑĸÐ¼": 2924,
      "ers": 2925,
      "Ð½ÐºÐ¸": 2926,
      "ĠÑģÑĤÐ°Ð»Ð°": 2927,
      "ĠÐ·ÑĢÐ¾ÑģÑĤ": 2928,
      "Ð´Ð±": 2929,
      "ĠÑĢÐ°Ð¼": 2930,
      "ĠÐĿÐĲ": 2931,
      "ÑģÐ¿ÐµÐº": 2932,
      "ĠÑģÐ¼ÐµÑĢ": 2933,
      "Ð¾Ð²ÑĸÐ¹": 2934,
      "ĠÐ²Ð¸Ð³Ð»ÑıÐ´": 2935,
      "ĠÐ¿ÑĸÐ´Ð²Ð¸": 2936,
      "ÑĢÐ°Ð´Ð¸": 2937,
      "ĠÑģÐºÐ°Ð·Ð°Ð²": 2938,
      "ÐŁÐµÑĢÐµ": 2939,
      "ÐºÐ°Ð¼": 2940,
      "Ð¾Ð»Ð¾Ð³ÑĸÑı": 2941,
      "ĠÑĩÑĥÐ´": 2942,
      "ĠÐ½Ð¾ÑĢÐ¼": 2943,
      "ĠÐºÐ¾Ð¼Ð°Ð½Ð´Ð¸": 2944,
      "ĠÐŀÐ»ÐµÐºÑģÐ°Ð½Ð´ÑĢ": 2945,
      "ÑĸÐ±ÑĢÐ°": 2946,
      "ÑĩÑĩÑı": 2947,
      "ĠÐ±Ð°Ð³Ð°ÑĤÑĮÐ¾Ñħ": 2948,
      "ĠÑĥÐºÑĢÐ°ÑĹÐ½ÑģÑĮÐºÐ¸Ñħ": 2949,
      "ÑĨÑĸÐ¹Ð½Ð¾": 2950,
      "ĠÐ¾Ð´Ð½Ð¸Ð¼": 2951,
      "ĠÑĩÐ°ÑģÐ¾Ð¼": 2952,
      "ĠÑĸÐ½ÑģÑĤÐ¸ÑĤÑĥ": 2953,
      "ĠÑĤÐµÑħÐ½ÑĸÑĩ": 2954,
      "ĠÑĢÐ¾Ð·Ð´Ñĸ": 2955,
      "ÐĿÐ°Ð³": 2956,
      "ĠÐ²ÑĸÐ·": 2957,
      "Ð»Ð¸Ð²Ð¸Ñħ": 2958,
      "ĠÐĦÐ²": 2959,
      "ĠÐ¿ÐµÑĢÐµÐ¼": 2960,
      "ĠÐ²Ð·Ð°ÑĶÐ¼": 2961,
      "ĠÐ¿Ð¾ÑģÐ»Ñĥ": 2962,
      "ĠÐ½Ð¸Ð¼": 2963,
      "ĠÐ·Ð°Ð²Ð´ÑıÐºÐ¸": 2964,
      "ĠÐºÐ¾Ð½ÑĦ": 2965,
      "ÑĢÐµÐ¼": 2966,
      "ĠÐ¼ÐµÑĤÐ¾Ð´Ð¸": 2967,
      "ĠÐ²Ð²": 2968,
      "ĠÑĩÐ¸Ð¼": 2969,
      "ĠÐ¼ÐµÐ½ÑĪÐµ": 2970,
      "ĠÐ¾Ð±ÑĢÐ¾Ð±": 2971,
      "ĠÐ¼Ð¸ÑĤ": 2972,
      ".ua": 2973,
      "Ð½ÑıÑĤÐ¸": 2974,
      "ĠÐ¿Ð¾Ð²ÑĸÑĤÑĢÑı": 2975,
      "ĠÑĸÐ½Ð´Ð¸": 2976,
      "ĠÑģÑĤÐ°ÑĤÑĤÑĸ": 2977,
      "ÑĪÐµÐ½ÑĮ": 2978,
      "ĠÐ°Ð²ÑĤÐ¾ÑĢ": 2979,
      "ĠÑĩÐ¾ÑĢ": 2980,
      "Ð´Ð¶ÐµÑĤ": 2981,
      "ĠÑĥÐ´": 2982,
      "ÑĢÑĥÑģ": 2983,
      "ĠÐ¿ÑĢÐ¾Ð´Ð¾Ð²Ð¶": 2984,
      "ub": 2985,
      "ÑĸÑĩÐ½Ð¸Ñħ": 2986,
      "ĠÐ´Ð²": 2987,
      "ĠÑģÐ²Ð¾ÑĶÑĹ": 2988,
      "Ð¼ÑĥÑĤÑĮ": 2989,
      "ĠSt": 2990,
      "Ð»ÑıÑİÑĤÑĮÑģÑı": 2991,
      "ĠÑĦÐ°Ðº": 2992,
      "ĠÐ·Ð°ÑħÐ¾Ð¿": 2993,
      "ĠÑĤÐ¾Ð½": 2994,
      "ĠÐºÐ°ÑĤÐµÐ³": 2995,
      "ÑģÑĥÐ»ÑĮ": 2996,
      "ĠÐ½Ð°ÑģÐ»ÑĸÐ´": 2997,
      "ĠÑģÑĤÐ°Ð»Ð¸": 2998,
      "ÑıÑħ": 2999,
      "ĠÑĨÐµÑĢÐº": 3000,
      "Ð²Ð¸Ð½": 3001,
      "ĠÑıÐºÐ¸Ð¼": 3002,
      "ĠÑĪÐ²Ð¸Ð´ÐºÐ¾": 3003,
      "Â«ÐĹ": 3004,
      "ĠÐ·Ð°ÑģÑĸÐ´": 3005,
      "ĠÐ¾ÑĢÐ¸Ð³ÑĸÐ½": 3006,
      "ĠÑĨÑı": 3007,
      "ĠÐºÐ¾Ð»Ð¸ÑĪ": 3008,
      "ÑĩÐ½Ð¸Ð¼": 3009,
      "ĠÐ¼ÐµÐ´": 3010,
      "ĠÐ±ÑĥÐ´Ð¸Ð½ÐºÑĥ": 3011,
      "ĠÐ´Ð¾Ð¿Ð¾Ð¼Ð¾Ð³Ð¸": 3012,
      "ĠÑĢÐ¾Ð·Ð¿Ð¾Ñĩ": 3013,
      "ÑĤÐ°Ð²": 3014,
      "ÑģÐ¸Ð²": 3015,
      "ĠÑģÑĤÐ°Ð½Ð¾Ð²Ð¸ÑĤÑĮ": 3016,
      "ÑĨÑĸÐ¹Ð½Ð¾ÑĹ": 3017,
      "Ð°Ð½Ð¸Ð¹": 3018,
      "ĠÑģÐ°Ð¼Ð¾ÑģÑĤ": 3019,
      "'ÑĶÑĢ": 3020,
      "Ð»Ð°Ð¹Ð½": 3021,
      "ĠÐ²Ð¿Ð»Ð¸Ð²": 3022,
      "ĠÐĻÐ¾Ð³Ð¾": 3023,
      "ĠÐľÐ¸ÐºÐ¾Ð»Ð°": 3024,
      "ĠÑĤÐ°ÐºÐ¸Ð¼": 3025,
      "ĠÐ¿ÑĢÐ¾Ð¿Ð¾Ð·Ð¸": 3026,
      "ĠÐ²Ð¸Ð¼Ð°Ð³": 3027,
      "ĠÐºÑĢÐ°ÑĹÐ½": 3028,
      "ĠÐºÐ¾Ð¶ÐµÐ½": 3029,
      "ĠÐ¿ÐµÐ´Ð°Ð³": 3030,
      "ĠÑĨÑĸÐ¹": 3031,
      "ÑĪÑĸÑģÑĤÑĮ": 3032,
      "ĠÐ¿ÐµÑĢÐµÐ´Ð°": 3033,
      "ÑĢÐ¾Ð²Ñĸ": 3034,
      "Ð·Ð¼": 3035,
      "ĠÑģÐ¿ÑĸÐ²ÑĢÐ¾Ð±ÑĸÑĤ": 3036,
      "Ð½Ð¾Ð¼Ð°Ð½ÑĸÑĤ": 3037,
      "ĠÐ½Ð°Ð¼Ð°Ð³": 3038,
      "ÑģÑĤÐ²Ð¾Ð¼": 3039,
      "ĠÑĤÐµÐ»ÐµÑĦ": 3040,
      "ĠÐ´Ð¸ÑĤÐ¸Ð½Ð¸": 3041,
      "ĠÑģÑĤÐ¾Ð»ÑĸÑĤÑĤÑı": 3042,
      "ĠÐ¿ÑĢÐ¾Ð¿Ð¾Ð½": 3043,
      "Ð¶Ð°": 3044,
      "ÑĩÑĥÑĶ": 3045,
      "ĠÐºÑĥÐ»ÑĮÑĤÑĥÑĢ": 3046,
      "ÐºÑĥÐ»ÑĮ": 3047,
      "ÑģÐ¿ÑĥÐ±Ð»Ñĸ": 3048,
      "Â«Ð£": 3049,
      "ĠÐ¿Ð¾Ð²Ð½ÑĸÑģÑĤÑİ": 3050,
      "ĠÑĤÑĢÑĥÐ´": 3051,
      "ĠÐ¼ÑĸÐº": 3052,
      "Ð³Ð°ÑĢ": 3053,
      "ĠÑĤÐ¾Ð±ÑĤÐ¾": 3054,
      "ĠÐ¿ÑĢÐ¾ÑĨÐµÑģÑĥ": 3055,
      "ĠÐ¾Ð±ÑĢÐ°": 3056,
      "ÑģÑĤÑĸÑĪÐµ": 3057,
      "ce": 3058,
      "ĠÑĥÐºÑĢÐ°ÑĹÐ½ÑģÑĮÐºÐ¾ÑĹ": 3059,
      "Ð»ÐµÑĢ": 3060,
      "ĠÐ¿Ð¾ÑĤÑĥÐ¶": 3061,
      "ĠÐ²ÑĸÐ´Ð±ÑĥÐ²Ð°ÑĶÑĤÑĮÑģÑı": 3062,
      "ĠÑĸÐ½ÑĤÐµ": 3063,
      "Â«Ð¢": 3064,
      "ĠÑĸÐ½ÑĦÐ¾ÑĢÐ¼Ð°ÑĨÑĸÑİ": 3065,
      "ĠÑģÐ¿Ð¸Ñģ": 3066,
      "ĠÐ°Ð²ÑĤ": 3067,
      "__": 3068,
      "ĠThe": 3069,
      "ÑĥÐ²Ð°Ð½Ð½Ñĸ": 3070,
      "ĠÐ¼ÑĸÐ»ÑĮÐ¹": 3071,
      "ĠÐ¢ÐµÑĢ": 3072,
      "ĠÐºÐ¾Ð¶Ð½Ð¾Ð³Ð¾": 3073,
      "Ð·ÑĸÑĹ": 3074,
      "ÑģÑĤÐ¸ÐºÐ¸": 3075,
      "ĠÐ³ÑĢÐ¸Ð²ÐµÐ½ÑĮ": 3076,
      "ĠÐ¡ÑĤ": 3077,
      "ĠÑĸÐ¼ÐµÐ½Ñĸ": 3078,
      "ÑĤÐ¸Ð²Ð½Ð¸Ñħ": 3079,
      "ĠÐ³ÑĸÑĢ": 3080,
      "ĠÑĤÐ°ÐºÐ¾Ð³Ð¾": 3081,
      "ÑģÐ½Ñĸ": 3082,
      "ĠÐĹÐ°Ð¿": 3083,
      "ĠÐ²Ð¸ÐºÐ¾Ð½Ð°Ð²": 3084,
      "ĠÐ¿ÑĢÐ°ÑĨÑİÐ²Ð°ÑĤÐ¸": 3085,
      "ĠÐ¦ÐµÐ½ÑĤ": 3086,
      "ĠÐ¼Ð°Ð»Ñİ": 3087,
      "ÐµÐ»ÐµÐ½": 3088,
      "ÑĦÑĸÐº": 3089,
      "ĠÑģÑĥÐ´Ñĥ": 3090,
      "Ð½ÑĥÐ»Ð¸": 3091,
      "ĠÑĢÐ°Ð½": 3092,
      "eb": 3093,
      "Ġn": 3094,
      "ĠÐ·Ð¾Ð±Ð¾Ð²'ÑıÐ·": 3095,
      "ĠÐ¿ÑĢÐ¾ÐµÐºÑĤÑĥ": 3096,
      "ĠÐºÐ»Ð°ÑģÐ¸": 3097,
      "ĠÑħÐ¾ÑĩÐ°": 3098,
      "ÑĢÑĸÑı": 3099,
      "ist": 3100,
      "Ð²'ÑıÐ·": 3101,
      "ÑĢÐ°ÑĤ": 3102,
      "og": 3103,
      "ÑĥÑİÑĤÑĮÑģÑı": 3104,
      "ĠÐ´ÐµÐºÑĸÐ»ÑĮ": 3105,
      "ÑĢÐ¾Ð¹": 3106,
      "ĠÐ»ÑĸÐºÐ°": 3107,
      "ĠÑģÐ¿ÑĸÐ»": 3108,
      "Ð°Ð»ÑĮÐ½Ð¾ÑģÑĤÑĸ": 3109,
      "ÑıÐ½Ð¸": 3110,
      "ĠÐ¾Ð·": 3111,
      "Ð¾Ð²Ð¾Ñİ": 3112,
      "ĠÐ´Ð¾ÑĤÑĢÐ¸": 3113,
      "ĠÐ·ÑĢÐ¾Ð·ÑĥÐ¼Ñĸ": 3114,
      "Ð¡Ð¿": 3115,
      "ĠÑĢÐµÐ´": 3116,
      "ĠÑĤÐ°ÐºÐµ": 3117,
      "ĠÑģÐ°Ð¼Ð¸": 3118,
      "ĠÑıÐºÑĸÐ¹": 3119,
      "Ð»Ð¸ÑĤÐ¸": 3120,
      "ĠÑģÐ¿ÑĢÐ¾Ð±": 3121,
      "ĠÐ²ÑģÑĮÐ¾Ð³Ð¾": 3122,
      "ĠÐĹÐ°Ñħ": 3123,
      "Ð¾Ð»Ðµ": 3124,
      "ĠÑĸÐ½ÑĪ": 3125,
      "ĠÐºÐ¾ÑĢÐ¸ÑģÑĤÑĥÐ²Ð°": 3126,
      "ĠÑĤÐ¾Ð±Ñĸ": 3127,
      "ĠÑĸÐ½ÑĪÐ¸Ð¼Ð¸": 3128,
      "ĠÐ¼Ð¾Ð»Ð¾Ð´Ñĸ": 3129,
      "ĠÑħÐ»Ð¾Ð¿": 3130,
      "Ð»ÑĮÐ½Ñĸ": 3131,
      "ĠÑĢÐ¾Ð·Ð²Ð¸ÑĤÐ¾Ðº": 3132,
      "ĠÐ¾Ð±Ñģ": 3133,
      "Ð¶ÐµÐ½Ð¸Ð¹": 3134,
      "Ð¼ÐµÑĩ": 3135,
      "ÑĸÑĩÐ½Ñĸ": 3136,
      "ĠÐºÑĢÐ¸Ð¼ÑĸÐ½": 3137,
      "ÑĪÑĤÑĥ": 3138,
      "ĠÐ¾Ð±Ð»Ñĸ": 3139,
      "ĠÐľÐ¸ÑħÐ°Ð¹": 3140,
      "Ð¾Ð·ÐµÐ¼": 3141,
      "ĠÐ¿ÑĸÐ´Ð²Ð¸Ñī": 3142,
      "ĠÐ¼Ð¾Ð¼ÐµÐ½ÑĤ": 3143,
      "ĠÐ¼ÐµÑĪ": 3144,
      "ĠÐ½Ð¸Ð¼Ð¸": 3145,
      "ĠÑĦÐ°ÑħÑĸÐ²": 3146,
      "ĠÐ¾ÑĤÑĢÐ¸Ð¼Ð°Ð²": 3147,
      "ĠÐ¿Ð°Ð¿": 3148,
      "Ð²ÑĸÐ´Ñĥ": 3149,
      "ĠÐ·Ð°Ð¿Ð¸Ñģ": 3150,
      "ĠÑĸÐ³": 3151,
      "ĠÐ¾Ð±Ð³": 3152,
      "ĠÐ¿Ð°ÑĨÑĸÑĶÐ½": 3153,
      "ĠÐ²ÑĸÐ´Ð½Ð¾Ð²": 3154,
      "ĠÑĢÐ¾Ð·ÑĥÐ¼Ñĸ": 3155,
      "ĠÐ¿Ð¾Ð²Ð¸Ð½ÐµÐ½": 3156,
      "ĠÐ±ÑĸÐ±Ð»Ñĸ": 3157,
      "Ð¾Ð²ÑĸÐ´": 3158,
      "Ð·Ð°Ð¹": 3159,
      "Ð´Ð¶ÐµÐ½Ð½Ñı": 3160,
      "ĠÑĤÐ¸Ð¿Ñĥ": 3161,
      "ĠÐ·ÐµÐ¼Ð»Ñĸ": 3162,
      "ĠÑĢÐ¾ÐºÐ°Ñħ": 3163,
      "ĠÑĢÑĸÐ²Ð½Ñĸ": 3164,
      "ĠÑĢÐ°Ð¹Ð¾Ð½Ñĸ": 3165,
      "Ð½Ð¸ÐºÐ°Ð¼": 3166,
      "ĠÐµÐ¿": 3167,
      "ÑĤÐ°Ðº": 3168,
      "ĠÐ¶Ð¾Ð´": 3169,
      "Ð¸ÑĤÐ°Ð½Ð½Ñı": 3170,
      "ÐºÐ°Ð²": 3171,
      "ĠÐ¿ÐµÑĢÐµÐ²Ð°": 3172,
      "ĠÐ²Ð»Ð°ÑģÑĤÐ¸": 3173,
      "Ð³ÐµÐ½": 3174,
      "ĠÐ¼ÑĸÑģÑĤÐ¾": 3175,
      "Ð½Ð¸ÐºÑĥ": 3176,
      "Ð²Ð¾Ð»": 3177,
      "Ð¾Ð¶ÐµÐ½Ð½Ñı": 3178,
      "ÐŁÑĸÑģÐ»Ñı": 3179,
      "ĠÐ³ÑĢÐ°Ð²": 3180,
      "Ð»ÑİÐ±": 3181,
      "ĠÐ¾Ð¿Ð¸Ñģ": 3182,
      "ĠÑĢÐµÐ¼Ð¾Ð½": 3183,
      "ĠÑĢÐµÐ·ÑĥÐ»ÑĮÑĤÐ°ÑĤÑĸ": 3184,
      "ÐºÐ¾Ñħ": 3185,
      "Ð§Ð¸": 3186,
      "ÑĢÐµÐ¹": 3187,
      "ÑĩÑĥÐº": 3188,
      "ĠÐĽÑĸ": 3189,
      "ĠÑģÐµÑĢÐµÐ´Ð¾Ð²Ð¸": 3190,
      "ĠÐ·Ð°ÑħÐ²Ð¾ÑĢÑİÐ²Ð°Ð½Ð½Ñı": 3191,
      "Ð¾Ð½Ð¾Ð¼": 3192,
      "ĠÐ¦Ñĸ": 3193,
      "ĠÐ²ÑĸÐ´Ñĩ": 3194,
      "Ð¼Ð¾Ð²ÑĸÑĢ": 3195,
      "ĠÐ°Ñģ": 3196,
      "ĠÐ¿ÑĢÐ¸Ð´Ð±": 3197,
      "ĠÑĤÐµÐ¿ÐµÑĢ": 3198,
      "Ð±Ð»Ð¸Ð·": 3199,
      "Ð¸Ð½Ð¸": 3200,
      "ÑĩÐ¾Ð¼Ñĥ": 3201,
      "ĠÑģÑĤÐ°Ð½Ð´": 3202,
      "Ð½ÑĸÐºÐ°": 3203,
      "ĠÑİÑĢÐ¸Ð´Ð¸": 3204,
      "ĠÑģÐ°Ð¼Ð¾": 3205,
      "ĠÐļÐ¸ÑĶÐ²Ñĸ": 3206,
      "ess": 3207,
      "ĠÑĤÐµÐ¶": 3208,
      "ÐºÑĥÐ²Ð°ÑĤÐ¸": 3209,
      "ĠÑģÐ»ÑĥÐ¶Ð±Ð¸": 3210,
      "Ð·Ð¼Ñĥ": 3211,
      "ĠÐ¾ÑģÐ²ÑĸÑĤ": 3212,
      "ĠÐ¿Ð¾Ð´Ð°ÑĢ": 3213,
      "ĠÐ²Ð¸ÑĢÑĸÑĪÐ¸": 3214,
      "ĠÐ¼ÑĸÑģÑĨÑĸ": 3215,
      "ÑĸÐ½ÐºÐ¸": 3216,
      "ÐĶÐ¶ÐµÑĢÐµ": 3217,
      "ÑĸÐ¼Ð½Ð°": 3218,
      "ĠÑħÐ²Ð¸Ð»Ð¸Ð½": 3219,
      "ĠÑģÐ¿ÑĢÐ°Ð²Ð¶": 3220,
      "ĠÐºÑĸÐ»ÑĮÐºÐ¾ÑģÑĤÑĸ": 3221,
      "...Ċ": 3222,
      "ĠÑģÐ²Ð¾ÑĹÐ¼": 3223,
      "ĠÐ½Ð°Ð´Ð°Ð½Ð½Ñı": 3224,
      "ÑİÑĩÐ¸Ñħ": 3225,
      "ĠÐ²Ð¸Ñī": 3226,
      "Ð²ÑĸÐ´Ð¾Ð¼": 3227,
      "ÐľÑĸ": 3228,
      "ĠÐ¿Ð¾Ð´Ð°Ð»ÑĮ": 3229,
      "ÑĢÑĸÑĹ": 3230,
      "ÑĤÐ°Ð¹": 3231,
      "ĠÐºÐµÑĢ": 3232,
      "ĠÐ¿Ð¾Ð¿ÑĥÐ»ÑıÑĢ": 3233,
      "ĠÐ²Ð¾ÑĢ": 3234,
      "ĠÑĢÑıÐ´": 3235,
      "ĠÐĶÐµÑĢÐ¶Ð°Ð²": 3236,
      "ĠÑĢÐ¾Ð·Ð¿Ð¾Ð²ÑĸÐ´": 3237,
      "ĠÐ¿Ð¾ÑģÑĤÑĸÐ¹": 3238,
      "Ð½Ð°ÑģÐ»ÑĸÐ´": 3239,
      "ĠÑĢÐ°ÑħÑĥÐ½Ð¾Ðº": 3240,
      "ĠÑĢÐµÑĶÑģÑĤÑĢÐ°": 3241,
      "ĠÐŁÐ¾ÑĤ": 3242,
      "ĠÐļÐ¾Ð»Ð¸": 3243,
      "ÑĶÑĤÐµ": 3244,
      "ÑĤÐ°Ð¹ÑĤÐµ": 3245,
      "ĠÑĩÐ¸Ð½": 3246,
      "ÐĿÐ°Ð¹": 3247,
      "ÐĿÐ°Ñģ": 3248,
      "ĠÑĶÐ²": 3249,
      "ĠÐ²Ð¸Ð·": 3250,
      "ĠÐ·Ð°ÑģÐ¾Ð±ÑĸÐ²": 3251,
      "ĠÑĥÑĩÐ½ÑĸÐ²": 3252,
      "ÑĸÐ¹ÑģÑĮÐºÐ¾ÑĹ": 3253,
      "ĠÐ¼Ð¾Ð¶Ð»Ð¸Ð²Ð¾ÑģÑĤÑĸ": 3254,
      "()": 3255,
      "ĠÐ´ÐµÑĢÐ¶Ð°Ð²Ð½Ð¾Ð³Ð¾": 3256,
      "Ð»Ð¸Ðº": 3257,
      "ÑĨÑĮÐºÐ¸Ð¹": 3258,
      "ĠÐ¿Ð¾ÐºÑĢÐ¸": 3259,
      "Ġi": 3260,
      "Ð»Ð°Ð²Ð°": 3261,
      "Ð¼ÑĸÐ½Ð½Ñı": 3262,
      "ĠÐłÑĥ": 3263,
      "ĠÐ´ÑĸÑĶ": 3264,
      "ĠÐ½Ð°ÑĪÐ¸Ñħ": 3265,
      "ĠÐ¿Ð»": 3266,
      "Ð³Ð¸Ð¹": 3267,
      "ay": 3268,
      "ÑıÑĤÑĮÑģÑı": 3269,
      "ĠÑĤÑĢÑĮÐ¾Ñħ": 3270,
      "Ð¾Ð²ÑģÑĸÐ¼": 3271,
      "Ð¾ÐºÐ¸": 3272,
      "ĠÐ½Ð¾Ð²Ð¸Ð¹": 3273,
      "ĠÐ·Ð°ÐºÑĢÐ¸": 3274,
      "ĠÐ·Ð°Ð¼": 3275,
      "Ð²Ð¾Ð¼": 3276,
      "ÑģÑĤÐ¾ÑĢÑĸÑı": 3277,
      "ĠÐ³Ð°ÑĢÐ°Ð½": 3278,
      "ÑĤÐ¸Ð²Ð½Ñĸ": 3279,
      "ÐłÐ¡Ðł": 3280,
      "ĠÐ²Ð¸ÐºÐ»Ñİ": 3281,
      "ĠÐ¼Ð¼": 3282,
      "Ð°Ð½ÑĤÐ°Ð¶": 3283,
      "ĠÐ»ÑĸÐ´": 3284,
      "ĠÑģÐ¸Ð¼": 3285,
      "ĠÐºÐ¾Ð½ÑģÑĤÑĢÑĥ": 3286,
      "ĠÐ½Ð¾Ñģ": 3287,
      "ĠÑģÐ¿Ð¾ÑĢ": 3288,
      "ĠÑĶÐ²ÑĢÐ¾Ð¿ÐµÐ¹": 3289,
      "ĠÐºÐ°Ð¿ÑĸÑĤ": 3290,
      "ĠÑģÐ¿ÑĢÐ°Ð²Ð¸": 3291,
      "ÑĢÑİ": 3292,
      "ĠÐ±Ð°ÑĤÑĮÐºÑĸÐ²": 3293,
      "ĠÐ·Ð°ÑħÐ¾Ð´ÑĸÐ²": 3294,
      "Ð°Ð»ÑĮÐ½Ð¾Ñİ": 3295,
      "ĠÐ½ÑĸÐ¼ÐµÑĨÑĮ": 3296,
      "ĠÐºÐ¾Ð¼Ð¿Ð°Ð½ÑĸÑı": 3297,
      "ĠÑģÑĤÐ°Ð»Ð¾": 3298,
      "ĠÐ·ÐµÐ¼ÐµÐ»ÑĮ": 3299,
      "ĠÐ¼Ð¾": 3300,
      "ĠÐ²ÑĸÐ´Ð¿Ð¾": 3301,
      "ab": 3302,
      "Ð²Ð¾Ð´": 3303,
      "ĠÐŁÑĢÐµÐ·Ð¸": 3304,
      "ĠÐºÐ¾ÑĢÐ¾ÑĤ": 3305,
      "Ñį": 3306,
      "ĠÐ·Ð°Ð»ÑĸÐ·": 3307,
      "ĠÐ¿ÑĢÐµÑģ": 3308,
      "Ð°Ð»ÑĮÐ½ÑĸÐ¹": 3309,
      "ĠÐ³Ñĥ": 3310,
      "ÐºÐµÑĤ": 3311,
      "ĠÑĸÐ½ÑĪÐ¾Ð³Ð¾": 3312,
      "ĠÐ¿Ð¾Ð´ÑĸÐ±": 3313,
      "Ð½Ð°ÑģÐ»ÑĸÐ´Ð¾Ðº": 3314,
      "ĠÐ·Ð°Ð»Ñĥ": 3315,
      "ĠÐºÐ»Ð°Ñģ": 3316,
      "ĠÐ³ÑĸÐ´": 3317,
      "ĠÐ¿ÑĢÐ¸Ð¿Ð¸": 3318,
      "Ð½ÑĸÑĨÑĸ": 3319,
      "ĠÐ½Ð°Ð´ÑĸÐ¹": 3320,
      "Ð½Ð³": 3321,
      "ĠÐ´ÐµÑĢÐ¶Ð°Ð²Ð½Ð¾ÑĹ": 3322,
      "ĠÐ²Ð¸Ð¼Ð¾Ð³": 3323,
      "ĠÑĦÐ¾ÑĢÐ¼Ð¸": 3324,
      "Ð¼ÑĸÑı": 3325,
      "ĠÐ·ÑĥÐ¿": 3326,
      "ĠÐĴÐ°": 3327,
      "est": 3328,
      "Ð»Ð°Ð½Ð´": 3329,
      "Ð¾Ð¼ÐµÑĤ": 3330,
      "ĠÐ¿ÑĢÐµÐ·Ð¸Ð´ÐµÐ½ÑĤ": 3331,
      "ĠÐ·ÑĢÑĥ": 3332,
      "ÑĤÑİ": 3333,
      "ĠÐ³ÑĢÑĥÐ¿": 3334,
      "'ÑĶÐ´": 3335,
      "ĠÑĥÐºÑĢÐ°ÑĹÐ½ÑģÑĮÐºÐ¾Ð³Ð¾": 3336,
      "ÑĨÑĮÐºÐ¾Ð³Ð¾": 3337,
      "Ð°Ð½Ð¾ÑĹ": 3338,
      "ÑĦÐ°": 3339,
      "Ð´Ð°ÑİÑĤÑĮ": 3340,
      "ÐºÐ°Ð½Ð¸": 3341,
      "ÐŀÐ±": 3342,
      "Ð»Ð°Ð±": 3343,
      "ĠÐļÑĢÐ°": 3344,
      "ĠÐ¾Ð¿Ñĥ": 3345,
      "ĠÐºÐ¾ÑĪÑĤÑĸÐ²": 3346,
      "ĠÑĦÑĸ": 3347,
      "ÑĢÐ¾ÑĤ": 3348,
      "ÐĽÑĸ": 3349,
      "ĠÐºÐ¾Ð¼Ð¿Ð»ÐµÐºÑģ": 3350,
      "ĠÑĪÐ»ÑıÑħÐ¾Ð¼": 3351,
      "ÑīÐµÐ½": 3352,
      "ĠÐ¿Ð¾ÑĢÑĸÐ²Ð½Ñı": 3353,
      "ĠÐ¾ÑĢÐ³Ð°Ð½ÑĸÐ·Ð°ÑĨÑĸÐ¹": 3354,
      "Ð»ÑıÐ´": 3355,
      "Ð¾Ð´Ð¸ÑĤÑĮ": 3356,
      "Ð»Ð¸Ð½Ð¸": 3357,
      "ĠÐ±ÑİÐ´Ð¶ÐµÑĤ": 3358,
      "Ð¡Ð¢": 3359,
      "ÐŀÐĿ": 3360,
      "Â«Ð¿": 3361,
      "ine": 3362,
      "ÑĢÑĥÐ¶": 3363,
      "ĠÐļÐ¾Ð¼": 3364,
      "ĠÐ¿ÑĢÐ¾Ð²ÐµÐ´": 3365,
      "Ð½Ð¾Ð²Ð¸": 3366,
      "Ð¾Ð²Ð°Ð½Ð¾Ð³Ð¾": 3367,
      "ÑĸÐ½Ð³": 3368,
      "Â«Ðĵ": 3369,
      "Ð°Ñĩ": 3370,
      "ĠÐ²Ð±": 3371,
      "Ð´Ð¸Ð½Ð°": 3372,
      "ĠÑģÐ¿ÑĸÐ²Ð¿ÑĢÐ°": 3373,
      "ÑĩÐ°Ð½Ð½Ñı": 3374,
      "ĠÑĢÐ°Ð¼ÐºÐ°Ñħ": 3375,
      "ĠÑĤÐ°Ð½": 3376,
      "Ð»ÑĸÑĹ": 3377,
      "ĠÐ½Ð¾Ð²Ð¾Ð³Ð¾": 3378,
      "ĠÐ¿ÑĢÐ¸ÑģÑĥÑĤ": 3379,
      "ĠÐ²Ð°Ð¶Ð»Ð¸Ð²Ð¾": 3380,
      "Ð´ÑĸÑĹ": 3381,
      "Ð¾ÑĤÐ¾": 3382,
      "âĢŀ": 3383,
      "ĠÐ´ÐµÑıÐºÑĸ": 3384,
      "Ð»Ð¸Ð²Ð¸Ð¼": 3385,
      "ĠÐ±ÑĸÐ·Ð½ÐµÑģ": 3386,
      "ĠÐľÑĸÐ½ÑĸÑģÑĤÐµÑĢ": 3387,
      "ook": 3388,
      "ĠÐ¡Ð²Ñı": 3389,
      "ĠÐ·Ð½Ð°Ð¹ÑĤÐ¸": 3390,
      "Â«ÐŁÑĢÐ¾": 3391,
      "ĠÐ·Ð°ÑħÑĸÐ´": 3392,
      "ÑĪÐ¸ÑĢÐµÐ½Ð½Ñı": 3393,
      "ĠÐ¿Ð¾Ð²ÑĸÐ´Ð¾Ð¼Ð»ÑıÑĶ": 3394,
      "Ð±Ð¾Ðº": 3395,
      "ĠÐ°ÑĢÑħÑĸ": 3396,
      "Ð»ÑĮÐ½Ð¸Ð¹": 3397,
      "ĠÐ±Ð°Ð»": 3398,
      "ĠÑĸÐ½Ð¾Ð·ÐµÐ¼": 3399,
      "ĠÐ¿ÑĢÐ¸Ð²Ð°ÑĤ": 3400,
      "ĠÐ¿Ð¾ÑĢÑıÐ´ÐºÑĥ": 3401,
      "ĠÐ¾ÑĤÑĢÐ¸Ð¼Ð°Ð½Ð½Ñı": 3402,
      "ĠÑĥÑģÐ¿ÑĸÑĪ": 3403,
      "ÑĤÐµÐ»ÑĸÐ²": 3404,
      "ĠÐĿÑĸÐ¼ÐµÑĩ": 3405,
      "ĠÑĢÐµÑĩÑĸ": 3406,
      "ĠÐ¿Ð¾ÑĶÐ´": 3407,
      "Ð±Ð¾Ð²": 3408,
      "ĠÑĦÑĥÐ½ÐºÑĨÑĸÐ¾Ð½": 3409,
      "ĠÑĢÐ¾ÑģÐ»Ð¸Ð½": 3410,
      "ĠÑģÐµÐ»Ð°": 3411,
      "Ð¦Ðµ": 3412,
      "ĠÐ¾ÑħÐ¾ÑĢÐ¾Ð½Ð¸": 3413,
      "ĠÐ±ÐµÑĢÐµ": 3414,
      "ÑģÑĤÐ¾Ð¼": 3415,
      "Â».ĊĊ": 3416,
      "ĠÐ·Ð°ÑıÐ²Ð¸Ð²": 3417,
      "ĠÐ·Ð³Ð°Ð´": 3418,
      "ĠÐ·Ð°Ð´": 3419,
      "ĠÐ´Ð°Ð½Ð¸Ð¼Ð¸": 3420,
      "ĠÑıÑģÐºÑĢÐ°": 3421,
      "ĠÐ±ÑĸÐ»": 3422,
      "ĠÐ´Ð°Ð»Ñĸ": 3423,
      "Ð¾Ð³ÑĢÐ°ÑĦÑĸÑı": 3424,
      "ÑĤÐµÑħ": 3425,
      "ĠÑħÐ°ÑĢÐ°ÐºÑĤÐµÑĢ": 3426,
      "ĠÐ°ÐºÑĤÐ¸": 3427,
      "ĠÐ¿ÐµÑĢÐµÐ¹": 3428,
      "ÑĤÐ¸Ð²Ð½Ð¾": 3429,
      "ĠÐ¾ÐºÑĢÐµÐ¼Ð¸": 3430,
      "ĠÑĩÐ¾Ð»Ð¾Ð²ÑĸÐº": 3431,
      "ĠÑģÑĤÑĢÑĸ": 3432,
      "ĠÐ¿Ð¸Ñģ": 3433,
      "(Ð²": 3434,
      "Ð°Ð»ÑĮÐ½Ð¸Ð¼Ð¸": 3435,
      "ĠÐ¼ÑĸÑģÑĮÐºÐ¾ÑĹ": 3436,
      "ĠÐ²Ð¸ÑģÑĤÐ°Ð²": 3437,
      "ĠÐ´Ð°Ð½Ñĸ": 3438,
      "ĠÑīÐ¾ÑģÑĮ": 3439,
      "ĠÐ½Ð°ÑĩÐ°Ð»ÑĮ": 3440,
      "ĠÐ¿ÑĢÐ¸Ð±Ñĥ": 3441,
      "ĠÐĶÑĥ": 3442,
      "ĠÐ³ÑĢÐ¾ÑĪÑĸ": 3443,
      "ÑĤÐ¸ÑĩÐ½Ð¸Ñħ": 3444,
      "ĠÐ´ÑĥÐ¼ÐºÑĥ": 3445,
      "ÐĲÐĿ": 3446,
      "ĠÐ²Ð¸ÑħÐ¾Ð²": 3447,
      "ÑĢÐ¾Ð·Ð´Ñĸ": 3448,
      "ĠÐ¼Ð°ÐºÑģÐ¸Ð¼": 3449,
      "ĠÐ½ÐµÐ±ÐµÐ·Ð¿Ðµ": 3450,
      "ĠÑĦÐ¾ÑĢÐ¼ÑĥÐ²Ð°Ð½Ð½Ñı": 3451,
      "Ð¼ÑĸÐ½Ð°": 3452,
      "ÐŁÐ¾": 3453,
      "Ð»Ð¸Ð²Ð°": 3454,
      "Ð±ÑĸÑĢ": 3455,
      "ĠÑģÑĦÐµÑĢÑĸ": 3456,
      "ĠÐ²Ð¾Ð»Ð¾Ñģ": 3457,
      "Ð»Ð°ÑģÑĮ": 3458,
      "Ð¾ÐºÑĥÐ¿": 3459,
      "Ð´ÐµÐ½ÑĮ": 3460,
      "ĠÐºÐ¾Ð¿": 3461,
      "ÑģÐµÑĢ": 3462,
      "âī": 3463,
      "ĠÐ¿ÑĢÐ¸ÐºÐ»Ð°Ð´": 3464,
      "ĠÐ·Ð°ÑĤÐ²ÐµÑĢ": 3465,
      "ĠÐŀÐ´Ðµ": 3466,
      "ĠÑĥÐ½ÑĸÐ²ÐµÑĢÑģÐ¸ÑĤÐµÑĤÑĥ": 3467,
      "ĠÐ´Ð¾Ð·Ð²Ð¾Ð»Ð¸": 3468,
      "ĠÑĢÐ°Ð´ÑıÐ½": 3469,
      "ĠÐ¿Ð¾Ð´Ñĸ": 3470,
      "ĠÐ¼Ð°Ð²": 3471,
      "ÑĦÐ¾ÑĢÐ¼Ñĥ": 3472,
      "ĠÐ²ÑĢÐ°Ñħ": 3473,
      "ĠÐ¼ÐµÑħÐ°Ð½ÑĸÐ·": 3474,
      "ĠÐ·Ð°Ð¿ÑĢÐ¾Ð¿": 3475,
      "ĠÐ°Ð½Ð³Ð»": 3476,
      ".)": 3477,
      "Ð°ÑĢÐµ": 3478,
      "ĠÐ·Ð¾Ð²ÑģÑĸÐ¼": 3479,
      "ÑīÐ¸Ð½Ñĸ": 3480,
      "ÑĤÐµÐ³": 3481,
      "ĠÐ·Ð³ÑĸÐ´Ð½Ð¾": 3482,
      "ĠÐ²ÑĸÐ´ÑĢÑĸÐ·Ð½Ñı": 3483,
      "ew": 3484,
      "ĠÐŁÐ°Ð²": 3485,
      "ĠÐ´Ð¸ÑĢÐµÐºÑĤÐ¾ÑĢ": 3486,
      "ĠÐ¿ÑĸÐ´Ð²Ð¸ÑīÐµÐ½Ð½Ñı": 3487,
      "Ð¾Ð»Ð°": 3488,
      "ĠÐ¿Ð¾Ð»ÑĸÑĤÐ¸ÐºÐ¸": 3489,
      "ĠÐºÐ¾Ñģ": 3490,
      "ÑıÐº": 3491,
      "ÐŁÐµÑĢ": 3492,
      "ĠÐ·Ð°Ð¹Ð¼Ð°": 3493,
      "ĠÐºÐ°Ð½Ð´Ð¸": 3494,
      "ap": 3495,
      "Ð¶Ð½Ð°ÑĢÐ¾Ð´": 3496,
      "ex": 3497,
      "ÑĤÐµÐ»Ñı": 3498,
      "ĠÐ·Ð²Ð¸": 3499,
      "ĠÑĥÐ¿": 3500,
      "ĠÑĢÐ¾Ð·Ð³Ð»ÑıÐ´": 3501,
      "Ð½ÑĸÐ³": 3502,
      "ĠÐ³ÑĥÑĢ": 3503,
      "Ð¢Ð°ÐºÐ¾Ð¶": 3504,
      "ĠÐ·Ð½Ð°ÑħÐ¾Ð´Ð¸ÑĤÑĮÑģÑı": 3505,
      "Ð°ÐºÐ¾Ð½": 3506,
      "ĠÐ¶Ð¸ÑĤÑĤÑĸ": 3507,
      "ÐĨÐĨ": 3508,
      "ÑĢÐ¾ÐºÑĥ": 3509,
      "ĠÐ´Ð°ÑĶ": 3510,
      "Ð°Ñĥ": 3511,
      "ĠÐ±Ð°Ð·Ñĸ": 3512,
      "Ð½ÐµÑĢ": 3513,
      "ĠÐºÐ°Ð·": 3514,
      "ĠÐºÐ¾Ð½ÐºÑĢÐµ": 3515,
      "Ð²Ð°Ð½ÑĮ": 3516,
      "ÑĤÐ½Ñĸ": 3517,
      "ĠÐ¿ÑĸÐ´ÑĤÑĢÐ¸Ð¼Ñĥ": 3518,
      "ÑĥÐ²Ð°Ð»Ð¸ÑģÑı": 3519,
      "ĠÐ¼ÑĸÐ½": 3520,
      "ĠÑģÐ¾Ð»": 3521,
      "ÑģÑĸÑĹ": 3522,
      "ĠÐ³ÐµÐ½ÐµÑĢÐ°": 3523,
      "Ð±Ð»Ð¸Ð·Ð½Ð¾": 3524,
      "ĠÑĪÑĥ": 3525,
      "ĠÑģÐ°Ð½": 3526,
      "ĠÑĸÐ½Ð´Ð¸Ð²ÑĸÐ´Ñĥ": 3527,
      "ĠÐ¾Ð±Ð»Ð°Ð´Ð½Ð°Ð½Ð½Ñı": 3528,
      "ÑĤÐ¾Ð²": 3529,
      "Ð²ÑĸÑģ": 3530,
      "ri": 3531,
      "ĠÐ°ÐºÐ°Ð´Ðµ": 3532,
      "ĠÑģÐ¿ÑĢÐ°Ð²Ð°": 3533,
      "ĠÐ¾ÑĩÐ¸": 3534,
      "ĠÑĢÐ¾Ð·Ð¿Ð¾Ð²": 3535,
      "Ð¼ÑĸÑĪ": 3536,
      "ĠÑıÐºÑĸÑģ": 3537,
      "ÑĤÑĸÐ¹": 3538,
      "ĠÑĤÑĢÑĥ": 3539,
      "ĠÐ¾Ð½Ð»Ð°Ð¹Ð½": 3540,
      "ĠÐ½ÑĸÐºÐ¾Ð»Ð¸": 3541,
      "ĠÑģÑĥÐ±'ÑĶ": 3542,
      "th": 3543,
      "ĠÑĤÐ¸Ð¿": 3544,
      "Ð´Ð¸Ð²": 3545,
      "ĠÐ´ÐµÑıÐºÐ¸Ñħ": 3546,
      "ĠÐ¼ÑĸÐ½ÑĸÑģÑĤ": 3547,
      "ĠÐ²Ð¼Ñĸ": 3548,
      "ÑİÑĶÑĤÑĮÑģÑı": 3549,
      "ÐºÐ°ÑİÑĤÑĮ": 3550,
      "Ð²Ð¸Ð¼": 3551,
      ".:": 3552,
      "Ð»ÑİÐ²Ð°ÑĤÐ¸": 3553,
      "ÑĩÐµÐ½Ð°": 3554,
      "ÑĩÐµÑģ": 3555,
      "ĠÑĤÐµÐ°ÑĤ": 3556,
      "ĠÐºÐ¾Ð´": 3557,
      "ÑģÑĥÐ¼": 3558,
      "ÑĤÑıÐ³": 3559,
      "ÑĢÐ´": 3560,
      "ĠÐ´ÑĸÑĤÐ¸": 3561,
      "ĠÐ¼ÑĸÑĨ": 3562,
      "Ð½Ð°Ð²": 3563,
      "Ð¶ÐºÐ¸": 3564,
      "ĠÐ²ÑĸÐ´Ð´": 3565,
      "Ð°Ð´Ð°ÑĶÐ¼Ð¾": 3566,
      "ÑģÑĸÑİ": 3567,
      "ĠÐ½ÑĸÑĩÐ¾Ð³Ð¾": 3568,
      "ĠÐºÐ²Ð°ÑĢÑĤÐ¸": 3569,
      "ĠÐ¿ÑĸÐ´ÑĤÑĢÐ¸Ð¼ÐºÐ¸": 3570,
      "ÐµÑĢÑĤÐ¸": 3571,
      "ÑĸÐ²Ð»Ñĸ": 3572,
      "ÑĢÐ°Ð½Ð½Ñı": 3573,
      "Ð¸ÑĢ": 3574,
      "ĠÐ²Ð¸Ð´ÑĸÐ²": 3575,
      "ĠÑģÐ¸Ð»Ð¸": 3576,
      "Ð»Ð¸Ð²Ðµ": 3577,
      "ĠÐ¾Ð´Ð½Ð°Ðº": 3578,
      "ĠÐ±ÑĸÐ±Ð»ÑĸÐ¾ÑĤÐµ": 3579,
      "ĠÑĥÑĩÐ°ÑģÐ½Ð¸ÐºÑĸÐ²": 3580,
      "Ð½ÐºÐ°": 3581,
      "ĠÑģÐ¿Ð¾ÑģÑĸÐ±": 3582,
      "Ð¾ÑĢÐ¾ÑĪ": 3583,
      "ĠÐ³Ð¾Ð´Ð¸Ð½": 3584,
      "ĠÐ±ÐµÐ·Ð¿Ð¾ÑģÐµÑĢÐµÐ´": 3585,
      "ĠÑĤÑĢÐ°Ð½ÑģÐ¿Ð¾ÑĢÑĤ": 3586,
      "ÑģÐ¾ÑĤ": 3587,
      "ĠÐ¿Ð¾Ð²Ð¸Ð½Ð½Ð°": 3588,
      "ĠÑģÐ²Ð¾ÑĶÐ¼Ñĥ": 3589,
      "Ð»Ð°Ð¼Ð¸": 3590,
      "ÑĩÐ¸Ð¼": 3591,
      "ĠÐľÑĥ": 3592,
      "ĠÐĦÐ²ÑĢÐ¾Ð¿Ð¸": 3593,
      "ĠÑĥÐ¶Ðµ": 3594,
      "Â«Ðł": 3595,
      "Ðĩ": 3596,
      "ĠÐ¡ÐµÑĢÐµÐ´": 3597,
      "ĠÐºÐ¾Ð¼Ð¿'Ñİ": 3598,
      "ĠÐ¿Ð°ÑĢÑĤÑĸÑĹ": 3599,
      "ÑĤÐ¸ÑĩÐ½Ñĸ": 3600,
      "ÑĸÑģÑĤ": 3601,
      "Ð°Ð±ÑĸÐ½": 3602,
      "Ð°ÑģÑĤÑı": 3603,
      "Ð½Ð½Ñı": 3604,
      "ĠÐ¿ÑĢÐ¾Ð´ÑĥÐºÑĨÑĸÑĹ": 3605,
      "Ð¾Ð¶Ð¸Ð²Ð°Ð½Ð½Ñı": 3606,
      "ĠÑĸÐ½ÑĤÐµÑĢÐµÑģ": 3607,
      "ĠÐºÐ¾Ð¼ÑĸÑģ": 3608,
      "ĠÐ¿ÑĢÐ¸Ð·Ð½Ð°ÑĩÐµÐ½Ð½Ñı": 3609,
      "ĠÑĦÑĢÐ°Ð½": 3610,
      "ĠÑĢÑĸÐ·Ð½Ð¾Ð¼Ð°Ð½ÑĸÑĤ": 3611,
      "ĠÐĵÐ¾Ð»Ð¾Ð²": 3612,
      "ĠÐ¿Ð¾ÑĤÑĢÐµÐ±Ñĥ": 3613,
      "Ġl": 3614,
      "ĠÐ²ÑĸÐ´ÑĩÑĥ": 3615,
      "ĠÑĤÑĢÐ¾ÑħÐ¸": 3616,
      "ĠÐ´ÑĢÑĥÐ¶Ð¸": 3617,
      "ÑĤÐ¸Ñħ": 3618,
      "Ð»ÑĥÐ³Ð¾Ð²": 3619,
      "ĠÑĸÐ½ÑĦ": 3620,
      "ĠÐ¿ÑĢÐ¾ÐºÑĥ": 3621,
      "ĠÑĥÑĢÑıÐ´": 3622,
      "ĠÐ²Ð¸Ð³": 3623,
      "ĠÐ¼ÐµÑĤÐ¾Ð´": 3624,
      "ÐŀÐ´": 3625,
      "Ð»Ð°Ð´Ð¸": 3626,
      "ÑĤÐ°Ñİ": 3627,
      "ĠÐ¶Ð¸ÑĤÑĤÑĶ": 3628,
      "ĠÐ¼ÐµÑĢÐµÐ¶Ñĸ": 3629,
      "ĠÐ´Ð¸Ð·Ð°Ð¹": 3630,
      "ĠÐ´ÑĥÑħÐ¾Ð²": 3631,
      "ĠÐ©Ð¾": 3632,
      "ct": 3633,
      "ĠÑĦÐ°ÑĢ": 3634,
      "ĠÑģÐµÐºÑĢÐµ": 3635,
      "ÑĤÐ¸Ð²Ð½Ð¸Ð¹": 3636,
      "Â«ÐĿ": 3637,
      "Ð¼Ð°Ð¼Ð¸": 3638,
      "âī¥": 3639,
      "Ð½Ð¸Ñı": 3640,
      "ĠÐ²ÑģÑĤÑĥÐ¿": 3641,
      "ĠÐļÐ¾Ð»": 3642,
      "ÑĢÐ¾ÑĹ": 3643,
      "ĠÐ¿ÐµÑĢÐµÐ²": 3644,
      "ĠÐ³Ð°Ð»ÑĥÐ·Ñĸ": 3645,
      "ĠÐ¿Ð¾Ð¼Ð¸Ð»": 3646,
      "ÑĢÐ¾Ð²Ð°": 3647,
      "ĠÑģÐ²Ð¾ÑĹÐ¹": 3648,
      "ÑĨÑıÐ¼": 3649,
      "ĠÐ´Ð¾ÐºÑĥÐ¼ÐµÐ½ÑĤÑĸÐ²": 3650,
      "ÑıÐ³Ð°ÑĶ": 3651,
      "ĠÐ¿ÐµÑĢÐµÑĢ": 3652,
      "ĠÑĤÐºÐ°Ð½Ð¸": 3653,
      "Ð°ÑİÑĤÑĮÑģÑı": 3654,
      "ÑĢÐ¸ÑĤÐ¸": 3655,
      "ÑĪÐµÐ½": 3656,
      "ĠÐ¿Ð¾ÑģÑĤÑĥÐ¿": 3657,
      "ĠÐºÐ¾Ð½ÑĤÑĢÐ°": 3658,
      "ĠÐ²Ð¸Ð´Ð¸": 3659,
      "ĠÐ¿ÐµÑĢÐµÐ±": 3660,
      "ÑħÐ¾Ð¼": 3661,
      "ÑĤÐ¸ÑĩÐ½Ð¾": 3662,
      "ĠÑĢÐ¾Ð±Ð¾ÑĤÐ°": 3663,
      "ĠÑĢÐµÐ°Ðº": 3664,
      "ĠÑĹÐ¹": 3665,
      "ĠÑģÑĤÐ°ÑĶ": 3666,
      "ĠÑĢÐµÐ¹": 3667,
      "ĠÑģÐ¸ÑĤÑĥÐ°ÑĨÑĸÑĹ": 3668,
      "ĠÐ²ÐµÑĢÑħ": 3669,
      "Ð½Ð¸Ð²": 3670,
      "Ð¼Ð°ÑĢ": 3671,
      "Ð·ÑĸÐ²": 3672,
      "ĠÐ¿ÑĢÐ°ÑĨÑĸÐ²Ð½Ð¸ÐºÑĸÐ²": 3673,
      "ÐºÑĨÑĸÑı": 3674,
      "ĠÐ²Ð¾Ð³": 3675,
      "ÑģÐ¾Ð¼": 3676,
      "ĠÐľÐ°Ð¹": 3677,
      "Ð°Ð»ÐµÐ¶Ð¸ÑĤÑĮ": 3678,
      "ĠÐ´Ð¾Ð³Ð¾Ð²": 3679,
      "Ð»ÐµÐ¼": 3680,
      "ard": 3681,
      "Ð½ÑĸÐ¼Ð¸": 3682,
      "Ð¾ÑĤÑĸÐ²": 3683,
      "ĠÐ¼Ð¾Ð²Ð°": 3684,
      "Ð¾ÑĢÑĸÑĩ": 3685,
      "ĠÐ¶ÑĸÐ½Ð¾Ðº": 3686,
      "ĠÑĦÐ°ÐºÑĤ": 3687,
      "ĠÐ½Ð°ÑĪÐ¾ÑĹ": 3688,
      "ÑĢÐ¾Ð¶": 3689,
      "art": 3690,
      "Ð¾Ð´ÑĸÐ±": 3691,
      "ĠÑĦÑĸÐ»": 3692,
      "ÐºÑĢÐµÑģ": 3693,
      "ĠÐ´Ð½Ñĸ": 3694,
      "ĠÑĢÑĥÑħÑĥ": 3695,
      "ĠÐ¿ÐµÑĢÑģÐ¾Ð½": 3696,
      "ĠÐ¿ÑĢÑı": 3697,
      "ĠÑĢÑı": 3698,
      "ĠÐ¿Ð¸ÑģÑĮÐ¼ÐµÐ½": 3699,
      "ĠÐ²Ð¸Ð½Ð¸ÐºÐ°": 3700,
      "ĠÐĶÐ½ÑĸÐ¿": 3701,
      "ĠÑģÑĤÐ¾Ð»Ð¸": 3702,
      "Ð½ÐµÐ½Ñĸ": 3703,
      "Ð¼Ð°Ñħ": 3704,
      "Ð³Ð¾Ð´Ð¾Ð¼": 3705,
      "ĠÐ´Ð¾ÑĢÐ¾Ñģ": 3706,
      "ĠÐ½Ð°ÑĪÑĸ": 3707,
      "ĠÐ»ÐµÐ³ÐºÐ¾": 3708,
      "Ð²Ð°Ñĩ": 3709,
      "ĠÑĨÐµÐ½ÑĤÑĢ": 3710,
      "Ð»Ð°ÑģÑĤÐ¸": 3711,
      "ÑĤÐ¸Ð²Ð½Ð¾Ð³Ð¾": 3712,
      "ĠÐ´Ð¾ÑģÑĤÐ°ÑĤ": 3713,
      "ÐµÐ´Ð¶": 3714,
      "ĠÐ¨ÐµÐ²": 3715,
      "Ð±Ð°Ð½": 3716,
      "ÑģÑĤÐ¸Ð¹": 3717,
      "ĠÐ¿Ð¾ÑģÑĤÑĸÐ¹Ð½Ð¾": 3718,
      "ÑīÐ¸Ð¹": 3719,
      "ÑĦÑĤ": 3720,
      "ĠÐĵÐ¾Ð»": 3721,
      "ĠÐ·Ð¼Ð¾Ð¶Ðµ": 3722,
      "ÐĲÐ½": 3723,
      "Ð©Ð¾": 3724,
      "Ġv": 3725,
      "Ð¹Ð¾Ð·": 3726,
      "ĠÑģÐ°Ð¼Ñĸ": 3727,
      "ĠÐ¿ÑĢÐ¸Ð³Ð¾ÑĤ": 3728,
      "ĠÑĢÐ¾Ð±Ð¾Ñĩ": 3729,
      "ÑĥÐ»ÑĮ": 3730,
      "ĠÐ°Ñĥ": 3731,
      "ÑĶÐ²": 3732,
      "ĠÑĩÐµÐ¼Ð¿ÑĸÐ¾Ð½Ð°": 3733,
      "ĠÐ¡Ð°Ð¼Ðµ": 3734,
      "ĠÐ¿ÐµÑĢÐµÐ²Ð°Ð¶": 3735,
      "Ð¾ÑĢÑĸÐ¹": 3736,
      "Ð¢Ðµ": 3737,
      "Ð´Ñı": 3738,
      "Ð»Ð°ÑĤ": 3739,
      "ĠÐ½ÐµÐ¹": 3740,
      "-Ð¹": 3741,
      "ĠÐ¿Ð¾ÑģÐ°Ð´": 3742,
      "ĠÐ¼ÑĸÑģÑĨÐµÐ²Ð¾Ð³Ð¾": 3743,
      "ÑĶÐ½Ð½Ñı": 3744,
      "ÑģÐ¾Ð»Ñİ": 3745,
      "ĠÐ¼ÐµÑĪÐºÐ°Ð½": 3746,
      "ĠÐ£ÐºÑĢÐ°ÑĹÐ½Ñĥ": 3747,
      "Ð´Ð¾": 3748,
      "ĠÐ²Ð¸ÑĢÑĸÑĪ": 3749,
      "Ð»Ð¾Ð²Ð¸": 3750,
      "ĠÐ¿ÑĸÐ´ÑĢÐ¾Ð·Ð´Ñĸ": 3751,
      "Ð»Ð¸ÑģÑĮ": 3752,
      "ĠÑĤÐ¸Ð¼ÑĩÐ°Ñģ": 3753,
      "ĠÐ´Ð¾Ð¼Ð°ÑĪ": 3754,
      "Ð°Ð²Ð´": 3755,
      "ĠÐ°Ð²Ñĸ": 3756,
      "ĠÐ°Ð²ÑĤÐ¾Ð¼Ð¾Ð±Ñĸ": 3757,
      "ÑĤÐ¸Ðº": 3758,
      "ĠÐºÑĢÐ¾Ð²": 3759,
      "ÑĹÐ·Ð´": 3760,
      "ĠÐ´ÑĸÐ¹Ñģ": 3761,
      "ĠÐºÐ¾Ð¼Ð°Ð½Ð´": 3762,
      "ĠÐ¥Ð°ÑĢÐºÑĸÐ²": 3763,
      "ĠÐ²ÑĥÐ»": 3764,
      "ÐłÐŀ": 3765,
      "ÑĢÑıÐ´Ñĥ": 3766,
      "ĠÐ²Ð¾Ð½Ð¾": 3767,
      "Ð²Ð°ÑİÑĤÑĮÑģÑı": 3768,
      "ĠÑĨÐµÐ½ÑĤÑĢÐ°Ð»ÑĮ": 3769,
      "ĠÐ¾Ð±Ð»Ð¸": 3770,
      "ĠÐ·Ð¼Ñĥ": 3771,
      "Ð°Ð³Ð°Ð»Ñĸ": 3772,
      "Ġh": 3773,
      "ÑĨÐµÑİ": 3774,
      "ĠÐ½Ð°ÑĪÐ¾Ð³Ð¾": 3775,
      "ĠÑģÐµÐ»Ð¸": 3776,
      "Ð¾Ñĥ": 3777,
      "ĠÐ¼Ð°Ð»ÐµÐ½ÑĮ": 3778,
      "ĠÐ·Ð½Ð°ÑĩÐ½Ð¾": 3779,
      "ĠÐ¿Ð¾ÑģÐ»ÑĥÐ³Ð¸": 3780,
      "ÑĤÑĥÐ²Ð°ÑĤÐ¸": 3781,
      "ĠÐ¿Ð°ÑĢÐ»Ð°": 3782,
      "ÑĩÐ½Ð¸Ð¼Ð¸": 3783,
      "ĠÐ²ÑĸÐ´ÐµÐ¾": 3784,
      "ĠÐ¿ÑĢÐ°Ð³": 3785,
      "ĠÑĸÐ¼'Ñı": 3786,
      "ĠÐ¿ÑĢÐ¾ÑĶ": 3787,
      "ÑĩÐ¸Ð½Ñĥ": 3788,
      "ĠÐ¼ÑĸÐ½Ñĸ": 3789,
      "ĠÑģÑĸÐ¼ÐµÐ¹": 3790,
      "ÑģÐºÑĥ": 3791,
      "ĠÐ¡ÐµÑĢÐ³ÑĸÐ¹": 3792,
      "ĠÐ´Ð¾Ð¿Ð¾Ð¼Ð¾Ð³Ñĥ": 3793,
      "ĠÐ·Ð°Ð»ÐµÐ¶Ð¸ÑĤÑĮ": 3794,
      "ÐµÑĤÐ²ÐµÑĢ": 3795,
      "ĠÐĴÐ°Ð»": 3796,
      "Ð²Ð¾ÑģÑĤÑĸ": 3797,
      "ĠÐ¿Ð¾Ð´ÑĸÑĹ": 3798,
      "Ð²Ð°Ð¶Ð°ÑİÑĩÐ¸": 3799,
      "ÑĩÐµÐ·": 3800,
      "ĠÐ¿Ð¾Ð»ÑĸÑĨÑĸÑĹ": 3801,
      "ĠÐ¾ÑĦÐ¾ÑĢÐ¼": 3802,
      "ĠÑģÐ¾Ð½": 3803,
      "ĠÑĢÐ¾Ð±Ð¾ÑĤÑĸ": 3804,
      "Ð¼Ð¾Ñģ": 3805,
      "ĠÐºÐ¾Ð¼Ð¿Ð»ÐµÐº": 3806,
      "ÑģÑĤÑĢÐ¸": 3807,
      "ud": 3808,
      "ĠÑĥÐºÑĢÐ°ÑĹÐ½ÑģÑĮÐºÐ¸Ð¹": 3809,
      "Ð¾Ð½Ð°Ñħ": 3810,
      "ĠÐ¿ÑĢÐ¾ÑĨÐµÐ´Ñĥ": 3811,
      "Ð¾ÑĢÐ¾Ñĩ": 3812,
      "ĠÐ¼Ð°ÑĤÐµÑĢÑĸÐ°Ð»ÑĸÐ²": 3813,
      "ĠÑģÐ²Ð¾ÑĹÐ¼Ð¸": 3814,
      "ÑĤÐ¸Ð½Ð³": 3815,
      "ĠÐ²Ð¸ÑīÐµ": 3816,
      "Ð°ÑĢÑĤÐ°": 3817,
      "ĠÐ²Ð¸Ð±Ð¾ÑĢ": 3818,
      "ÐºÐ¾Ð²Ñĥ": 3819,
      "ĠÑĢÐµÐ»Ñĸ": 3820,
      "ĠÐ²ÑĸÐ´Ð¼Ð¾Ð²Ð¸": 3821,
      "ĠÐľÐ¾ÑģÐº": 3822,
      "ĠÐ°Ð²ÑĤÐ¾Ð¼Ð°ÑĤÐ¸": 3823,
      "ĠÐ¿Ð¾ÑĤÐµÐ½": 3824,
      "Ð»ÑĸÑĤ": 3825,
      "ĠÐŁÑĢÐ¾ÑĤÐµ": 3826,
      "Ð½ÑĥÐ²ÑģÑı": 3827,
      "ĠÑīÐ°ÑģÑĤÑı": 3828,
      "ĠÐ²ÑĥÐ»Ð¸ÑĨÑĸ": 3829,
      "ik": 3830,
      "ĠÐ¿ÑĢÐ¾Ðº": 3831,
      "Ð¾ÑħÐ¾ÑĢÐ¾Ð½": 3832,
      "Ð»ÐµÐ½Ð½ÑıÐ¼": 3833,
      "ÐĲÐ¢": 3834,
      "ÐºÐ»": 3835,
      "ĠÐ²ÐµÑĩ": 3836,
      "Ð¼Ð¾Ð¼": 3837,
      "Ð½Ð¸Ðµ": 3838,
      "ĠÐ²Ð¸ÑģÐ½Ð¾Ð²": 3839,
      "Ð²Ð°Ð½Ð½Ñĸ": 3840,
      "ep": 3841,
      "ÐĨÑģÑĤÐ¾ÑĢÑĸÑı": 3842,
      "ĠÑħÑĢÐµ": 3843,
      "Ð½ÑİÑĶ": 3844,
      "Ð¼ÐµÐ»ÑĮ": 3845,
      "ĠÐĳÐµÑĢ": 3846,
      "ÑģÐ¿ÑĢÐ°Ð²": 3847,
      "ĠÐ±ÑİÐ´Ð¶Ðµ": 3848,
      "ĠÐĿÐµÑħÐ°Ð¹": 3849,
      "ĠÑĪÑĤÑĥ": 3850,
      "ĠÐ°ÑĤ": 3851,
      "ĠÐļÐ¸ÑĶÐ²Ð°": 3852,
      "Ð¾Ð±ÑĸÐ³": 3853,
      "ÑĦÐ¸": 3854,
      "ĠÐ¿ÐµÑĢÐµÐ²Ñĸ": 3855,
      "ĠÐ²Ð°ÑĢÑĸÐ°Ð½": 3856,
      "if": 3857,
      "ÐµÐ½Ñı": 3858,
      "ĠÐ½Ð°ÑģÐ¸": 3859,
      "ĠÐ¿Ð¾ÐºÑĥÐ¿": 3860,
      "ĠÑĩÐµÑĢÐ³Ñĥ": 3861,
      "ĠÐ¾Ð´Ð½Ð¾Ð¼Ñĥ": 3862,
      "ÑĢÐ°ÑĨÑİ": 3863,
      "Ð´ÐµÑĢ": 3864,
      "ĠÐ¾ÐºÑĥ": 3865,
      "Ð¾Ð½Ð¾": 3866,
      "Ð½ÐµÑģÑĥ": 3867,
      "ĠÐ¾Ð·Ð½Ð°ÑĩÐ°ÑĶ": 3868,
      "ÑħÑĤÐ¾": 3869,
      "ÑĦÐµÐºÑĤ": 3870,
      "ĠÐ¿Ð¾Ð¶Ðµ": 3871,
      "ĠÐ¿Ð¾ÑĤÑĢÐ°Ð¿": 3872,
      "ĠÐ¡ÑĤÐµ": 3873,
      "up": 3874,
      "ĠÑĨÐµÐ½ÑĤÑĢÑĥ": 3875,
      "Ð²'Ñı": 3876,
      "Ð½Ð°Ð¼": 3877,
      "ĠÑĦÑĸÑĢ": 3878,
      "ĠÐ¾Ð´Ð¸": 3879,
      "ĠÐ¿Ð¾Ð¼Ñĸ": 3880,
      "ĠÑĨÑĥÐº": 3881,
      "ĠÑģÑĸÐ»ÑĮÑģÑĮÐºÐ¾Ð³Ð¾": 3882,
      "ĠÐºÐ°ÑĦ": 3883,
      "Ð¾Ð´Ð°ÑĤ": 3884,
      "-Ðº": 3885,
      "ĠÐ¿ÐµÑĢÐµÐºÐ»Ð°Ð´": 3886,
      "ÐµÑĢÐµÐ´Ð¸Ð½Ñĸ": 3887,
      "ĠÑģÑĸÐ¼'ÑĹ": 3888,
      "ĠÑĸÐ½ÑĸÑĨÑĸ": 3889,
      "ĠÐ¿ÐµÑĢÑĪÐ¾Ð³Ð¾": 3890,
      "ĠÐĿÐ°Ð¿ÑĢÐ¸ÐºÐ»Ð°Ð´": 3891,
      "ĠÐ²Ð¸Ð·Ð½Ð°ÑĩÐµÐ½Ð½Ñı": 3892,
      "ĠY": 3893,
      "Ð¾Ð²ÑĥÑİÑĤÑĮ": 3894,
      "ĠÐ¦ÐµÐ¹": 3895,
      "ĠÑĢÐµÐºÐ»Ð°": 3896,
      "ĠÐ»Ðµ": 3897,
      "ĠÐľÐ¾Ð¶": 3898,
      "ĠÐ¼ÑĸÑģÑıÑĨÑĸÐ²": 3899,
      "ĠÐºÐ¾ÑĪÑĤÐ¸": 3900,
      "ÑĸÑĹÐ²": 3901,
      "ĠÑģÐ¼Ñĸ": 3902,
      "Ð°Ð»ÑĸÑģÑĤÐ¸": 3903,
      "ĠÐ½Ð¸Ð·ÑĮ": 3904,
      "ĠÐ¿Ð¾Ð²ÐµÐ´": 3905,
      "ÐļÐ¾Ð¼": 3906,
      "Â«ÐĽ": 3907,
      "ÑĤÐ¸ÑĩÐ½Ð¾Ð³Ð¾": 3908,
      "ĠÑĤÐ°ÐºÐ°": 3909,
      "ÑħÐ¾Ð´ÑĸÐ²": 3910,
      "ĠÐ´ÑĸÐ°Ð³": 3911,
      "ĠÑĤÐ²Ð°ÑĢÐ¸Ð½": 3912,
      "Ð±Ð°Ð²": 3913,
      "ĠÐ½Ð¸Ð½Ñĸ": 3914,
      "ĠÐĹÐ°Ð³": 3915,
      "Ð¸ÑĤÐ¸ÑģÑı": 3916,
      "ĠÐ¿ÑĢÐ¸Ð¼ÑĸÑīÐµÐ½Ð½Ñı": 3917,
      "ÑĩÐ°ÑİÑĤÑĮÑģÑı": 3918,
      "Ð±Ð»Ð¸Ð¶": 3919,
      "ĠÐºÐ³": 3920,
      "ĠÐºÐ¾Ð½ÑĤÑĢÐ¾Ð»ÑĮ": 3921,
      "ĠÐ°Ð¿Ð°ÑĢÐ°": 3922,
      "ĠÑĩÐ¾ÑĤÐ¸ÑĢÐ¸": 3923,
      "ĠÐ·Ð°ÑħÐ¾Ð´Ð¸": 3924,
      "Ð»ÑİÑİÑĤÑĮ": 3925,
      "ÑĸÑĶÑİ": 3926,
      "ÑĩÐ½Ð¾Ð¼Ñĥ": 3927,
      "-ÐŁ": 3928,
      "ĠÐ·Ð²Ñĥ": 3929,
      "Ð¾ÑĢÑĸÑİ": 3930,
      "Ð²Ð¾Ð»Ñİ": 3931,
      "Ð»ÑĮÐ½Ð¾Ð³Ð¾": 3932,
      "ĠÐ¿Ð¾ÑģÑĤÐ°": 3933,
      "ĠÑĤÑĸÐ»Ð°": 3934,
      "ĠÐĶÐ¼Ð¸": 3935,
      "ÑİÐº": 3936,
      "ĠÐ¿ÑĸÐ²Ð½ÑĸÑĩ": 3937,
      "ĠÐ²Ð¾Ð»Ð¾ÑģÑģÑı": 3938,
      "ĠÐ¿ÑĢÐ¸Ð±Ð»Ð¸Ð·Ð½Ð¾": 3939,
      "ĠÐ´Ð¾Ð¿Ð¾Ð¼Ð¾Ð³": 3940,
      "ĠÐ¿Ð»Ðµ": 3941,
      "ĠÐ²ÑģÑĤÐ°Ð½Ð¾Ð²Ð¸": 3942,
      "ĠÐĳÑĸÐ»": 3943,
      "ĠÑģÐ¸ÑģÑĤÐµÐ¼Ñĥ": 3944,
      "ob": 3945,
      "ĠÐĵÑĢÐ¸": 3946,
      "Ð¾ÑĢÑĤÐ¸": 3947,
      "ĠÑĤÑĢÐ°Ð½Ñģ": 3948,
      "ÑĩÐ½Ð¾Ñİ": 3949,
      "Ð»Ð¾Ð±": 3950,
      "ĠÐĵÐµÑĢ": 3951,
      "Ð»Ð¸Ð²Ð¾ÑģÑĤÑĸ": 3952,
      "ĠÐºÑĢÐ°ÑĹÐ½Ñĸ": 3953,
      "ÑĸÐ¹Ð½Ð¸Ð¹": 3954,
      ".ÐĴ": 3955,
      "Ð½ÑĥÑĤÐ¸ÑģÑı": 3956,
      "ĠÐ²Ð°ÑĢÑĤÑĸÑģÑĤÑĮ": 3957,
      "ÐłÐµ": 3958,
      "Ġto": 3959,
      "ĠÐĦÐ¡": 3960,
      "ĠÐ¿Ð¾ÑģÐ¸": 3961,
      "ĠÐµÐ¼Ð¾": 3962,
      "ĠÐĴÑĸÐºÑĤÐ¾ÑĢ": 3963,
      "ĠÑģÐ°Ð¼Ð¾Ð²": 3964,
      "ÑĢÐ¸Ð²": 3965,
      "ĠÐ°ÑĢÑħÑĸÑĤÐµ": 3966,
      "ÐĿÐ°Ð³Ð°Ð´Ð°ÑĶÐ¼Ð¾": 3967,
      "ĠÐ¾Ð´Ð½Ñĥ": 3968,
      "Ð»ÐµÐºÑĤ": 3969,
      "ĠÑĥÑĤÐ²Ð¾ÑĢÐµÐ½Ð½Ñı": 3970,
      "ĠÑģÑĤÐ°Ð½Ðµ": 3971,
      "ĠÐ¢Ñĥ": 3972,
      "ÑĤÐ°ÑĨÑĸÑı": 3973,
      "Ð¾Ð»Ð¾Ð³ÑĸÑĩÐ½Ð¸Ñħ": 3974,
      "ÐµÐ´Ð¸": 3975,
      "ÑĢÑĸÑĶÐ½": 3976,
      "ĠÐ·Ð¼Ð°Ð³": 3977,
      "ĠÐ·Ð°Ð¹Ð½Ñı": 3978,
      "ĠÐºÑĸÐ½ÑĨÑı": 3979,
      "ĠÐ½Ð°ÑĢÐ¾Ð´Ñĥ": 3980,
      "Ð¾ÑĩÐ°": 3981,
      "ĠÑģÐºÐ»Ð°Ð´Ð°ÑĶÑĤÑĮÑģÑı": 3982,
      "Ð¾Ð²Ð°Ð½Ðµ": 3983,
      "ĠÐ¼ÐµÐ¶Ð°Ñħ": 3984,
      "ĠÐ½Ð°Ð´Ð·Ð²Ð¸ÑĩÐ°Ð¹": 3985,
      "Ð½Ð¾Ð¹": 3986,
      "ĠÑĢÐµÐ°Ð»ÑĸÐ·Ð°ÑĨÑĸÑĹ": 3987,
      "Ð½Ð¸ÑĨÑİ": 3988,
      "ĠÐ¿ÑĸÐ´Ð¿ÑĢÐ¸ÑĶÐ¼ÑģÑĤÐ²": 3989,
      "ĠÑĥÐºÐ»Ð°Ð´": 3990,
      "ÑĨÑĮÐºÐ¾ÑĹ": 3991,
      "ĠÑĢÐµÐºÐ¾Ð¼ÐµÐ½": 3992,
      "ÐľÐĨ": 3993,
      "ĠÐĴÐ°ÑģÐ¸Ð»ÑĮ": 3994,
      "ĠÑģÐ°Ð´": 3995,
      "ÑĤÐ¸ÐºÑĥ": 3996,
      "ĠÑģÐ¿Ð¾ÑĢÑĥ": 3997,
      "Ð°Ð½Ð¸Ñħ": 3998,
      "ĠÐºÐ¾Ð½ÑĦÐ»Ñĸ": 3999,
      "av": 4000,
      "Ð½Ð¾ÑģÐ¸": 4001,
      "ĠÐ¿ÑĢÐ¾ÑĨÐµÑģÑĸ": 4002,
      "ĠÑģÑİ": 4003,
      "ĠÑģÐµÑĢÐ¹Ð¾Ð·": 4004,
      "ak": 4005,
      "ĠÑģÐ²Ð¾Ð±": 4006,
      "ĠÐ±Ð»Ð¾Ðº": 4007,
      "ÐµÐºÑģÑĥ": 4008,
      "ĠÑģÐ¿Ð°Ð´": 4009,
      "ĠÐ´Ð¾ÐºÑĥÐ¼ÐµÐ½ÑĤ": 4010,
      "ÑīÑĥ": 4011,
      "ÑĢÐµÐ´": 4012,
      "Ð¾ÑĢÑģÑĤ": 4013,
      "ĠÐ¿ÐµÑĢÐµÐ²ÑĸÑĢ": 4014,
      "ĠÑĩÐ°ÑģÑĤÐ¸Ð½Ñĥ": 4015,
      "ĠÐĺ": 4016,
      "all": 4017,
      "ĠÐĴÐ°Ð¼": 4018,
      "ĠÐ¿Ð¾Ð²ÑĸÐ´Ð¾Ð¼Ð¸Ð²": 4019,
      "Ð¾Ð²Ð°Ð½Ð¾ÑĹ": 4020,
      "ĠÐ³ÑĢÐµ": 4021,
      "ĠÐ¼Ð°Ð»Ð¾": 4022,
      "ÑİÐ²Ð°ÑĤÐ¸": 4023,
      "ĠÑģÑĤÐ°Ð½Ñĥ": 4024,
      "ÐĶÐĲ": 4025,
      "Ð¤ÑĢÐ°Ð½": 4026,
      "ĠÐºÐ¾ÑĢÐ¸Ñģ": 4027,
      "ÑĸÑĤÑĮ": 4028,
      "Ð°ÑĢÐ¾Ð´": 4029,
      "ÑĪÑĥÑĶ": 4030,
      "ĠÐ¾Ð±ÑĢÐ°Ð·": 4031,
      "-Ð¼": 4032,
      "ĠÐ¿ÑĸÐ´Ð¿": 4033,
      "ĠÐĴÐµÑĢÑħÐ¾Ð²Ð½Ð¾ÑĹ": 4034,
      "ĠÑĦÐ¾ÑĤÐ¾": 4035,
      "ÐķÐĿ": 4036,
      "ĠÐ¼Ð¾Ð´ÐµÐ»Ñĸ": 4037,
      "ĠÐĴÑĸÑĤ": 4038,
      "Ð±Ð°Ñģ": 4039,
      "Ð¾ÑģÐ¾ÑĦ": 4040,
      "ÑĢÐ°ÑĤÐ¾ÑĢ": 4041,
      "ĠÐ¾Ð´Ð½Ð¾": 4042,
      "ĠÐµÐ»ÐµÐºÑĤÑĢÐ¾": 4043,
      "ĠÐ²Ð¸ÑħÑĸÐ´": 4044,
      "ĠÐºÑĸÐ½Ð¾": 4045,
      "ĠÐ¾Ð±Ð¸": 4046,
      "âĢĿ.": 4047,
      "Ð°ÑĢÐ°Ð·": 4048,
      "ÑĩÐ¸Ð½Ñĸ": 4049,
      "ĠÐ·Ð°ÑĢÐµ": 4050,
      "ĠÐ¼ÐµÐ½ÑĪ": 4051,
      "Ð½Ð¾ÑģÑĤÐµÐ¹": 4052,
      "ĠÐ´Ð¾ÑģÑĤÐ°Ð²": 4053,
      "ĠÐºÑĢÐ¾Ðº": 4054,
      "ÐºÐ¾ÑĪÑĤÐ¾Ð²": 4055,
      "ĠÐ·Ð°ÑģÐ½Ð¾Ð²": 4056,
      "ĠÐŀÑĤ": 4057,
      "ÑĤÐµÐ½": 4058,
      "ĠÐ¼ÑĸÑģÑĤÐ¸ÑĤÑĮ": 4059,
      "ĠÐ½Ð°Ð³Ð¾Ð»": 4060,
      "ĠÑĤÐµÑħÐ½Ð¾Ð»Ð¾Ð³": 4061,
      "ort": 4062,
      "ĠÑģÑĥÑģÐ¿ÑĸÐ»ÑĮÑģÑĤÐ²Ð°": 4063,
      "Ð³ÑĸÐ´Ð½Ð¾": 4064,
      "ĠÐ²ÐµÐ»Ð¸ÑĩÐµÐ·": 4065,
      "ĠÐ½Ð¾Ð²": 4066,
      "ĠÐ·Ð¾Ð»": 4067,
      "ĠÐ·Ð°Ð·Ð²Ð¸ÑĩÐ°Ð¹": 4068,
      "ĠÐŁÐ¾Ð»ÑĮÑīÑĸ": 4069,
      "ĠÑĢÐ¾Ð·Ñĥ": 4070,
      "ĠÐ´Ð¾ÐºÑĥÐ¼ÐµÐ½": 4071,
      "ĠÐ²Ð¸Ð±ÑĸÑĢ": 4072,
      "ĠÐ·'ÑıÐ²": 4073,
      "Ð»ÑĸÑı": 4074,
      "ĠÑĢÐµÐ·": 4075,
      "ĠÐ³Ð°": 4076,
      "ĠÐĨÐ³Ð¾ÑĢ": 4077,
      "ĠÑĥÑĩÐ°ÑģÑĤÑĸ": 4078,
      "ÐłÐĲ": 4079,
      "ĠÑģÐ¸Ð¼Ð¿": 4080,
      "ÑĢÑĸÐ´": 4081,
      "ĠÐºÐ»Ñİ": 4082,
      "ĠÐ¾Ð±Ð³Ð¾Ð²Ð¾ÑĢ": 4083,
      "ĠÐ·Ð°Ð´Ð¾Ð²Ð¾Ð»": 4084,
      "ian": 4085,
      "ÑĪÐ»Ð¾": 4086,
      "Ð±ÐµÑĢ": 4087,
      "ĠÐ·Ð°Ð·Ð½Ð°ÑĩÐ¸Ð²": 4088,
      "ĠÑģÐ¿Ð¾Ð¶Ð¸": 4089,
      "ĠÐ²ÑĸÐ´Ð¾Ð±": 4090,
      "ĠÐ¿ÑĢÐµÐ´Ð¼ÐµÑĤ": 4091,
      "ÑĤÐ¾Ð¼Ñĥ": 4092,
      "ĠÑĸÑģÐ½ÑĥÑĶ": 4093,
      "Ð»ÐµÐ½ÑĮ": 4094,
      "ĠÐ·Ð°Ð±Ñĥ": 4095,
      "ÑĢÐ°ÑĤÑĥ": 4096,
      "ÑĦÑĸÐºÐ°ÑĨÑĸÑĹ": 4097,
      "ĠÐĽÐ¸": 4098,
      "Ð¾Ð³Ñĸ": 4099,
      "ÑĤÐ½Ð¸Ñħ": 4100,
      "ĠÐ´ÑĸÐ·Ð½Ð°": 4101,
      "Ð°ÑĤÑĸ": 4102,
      "ĠÐ·ÑĸÑĢ": 4103,
      "ĠÐ°Ð±ÑģÐ¾Ð»Ñİ": 4104,
      "Ð¿Ð»Ð¾Ð¼": 4105,
      "ĠÐ½Ð°ÑĢÐ¾Ð´Ð¸": 4106,
      "ĠÐ½ÐµÐ¼Ð¾Ð¶": 4107,
      "ÑĤÐ²Ð¾ÑĢÐ¸": 4108,
      "ÐµÐ½Ð¸Ð¹": 4109,
      "ÐµÑĤÑĥ": 4110,
      "ĠÐ²Ð¿ÐµÑĢ": 4111,
      "ĠÐ½ÐµÐ³Ð°ÑĤÐ¸Ð²": 4112,
      "ÑĩÐ¾Ðº": 4113,
      "ĠÐ¿ÑĢÐ°Ð²Ð¸Ð»Ð¾": 4114,
      "ÑıÐºÑĥ": 4115,
      "ĠÐ²ÑĸÐ´Ð¾Ð¼Ð¾": 4116,
      "ĠÑģÐµÐ»Ð¾": 4117,
      "ÑĦÐ¾ÑĢÐ¼Ð¸": 4118,
      "ĠÑį": 4119,
      "ÑĢÐ°Ð´": 4120,
      "ĠÐºÑĢÐ°ÑģÐ¸": 4121,
      "ĠÑĤÐ¾Ð²Ð°ÑĢÑĸÐ²": 4122,
      "(Ñĥ": 4123,
      "ĠÑĢÐµÐºÐ¾Ð¼ÐµÐ½Ð´": 4124,
      "ĠÐĲÐ´Ð¶Ðµ": 4125,
      "ĠÐłÐ°Ð´": 4126,
      "ÑĤÑĢÐ¾": 4127,
      "ÑĤÐºÐ°": 4128,
      "ĠÑģÑĥÐ¿ÑĢÐ¾Ð²": 4129,
      "ÑĨÑĥÐ·ÑĮ": 4130,
      "ĠÐłÑĸÐ²": 4131,
      "ĠÑģÑĤÐµ": 4132,
      "ĠÐ»ÑĸÐº": 4133,
      "Ð´Ð°Ð²": 4134,
      "ĠÐ±ÑĥÐ´ÑĸÐ²ÐµÐ»ÑĮ": 4135,
      "Ð½ÑĸÑı": 4136,
      "ĠÐĿÐ°ÑĤ": 4137,
      "ĠÐ¾ÑģÑĮ": 4138,
      "ĠÑıÐºÐ¸Ð¼Ð¸": 4139,
      "ĠÒĳÑĢÑĥÐ½": 4140,
      "Ð»ÑĸÐ·": 4141,
      "Ġg": 4142,
      "ÐµÐ½Ð¾Ð³Ð¾": 4143,
      "ĠÐĨÐ·": 4144,
      "ĠÐ½ÐµÐ²Ð¸": 4145,
      "ĠÐºÐ°ÑĤÐ°Ð»": 4146,
      "ĠÐ¿ÐµÑĩ": 4147,
      "Ð¾Ð½Ð´": 4148,
      "ÑĪÐµÐ¹": 4149,
      "ĠÑĢÐ¾Ð·Ð¿Ð¾Ð´Ñĸ": 4150,
      "ĠÐ·ÑĥÑģÑĤÑĢÑĸÑĩ": 4151,
      "ĠÐ¾Ð±Ð¾Ð²'ÑıÐ·ÐºÐ¾Ð²Ð¾": 4152,
      "ĠÐ¾Ð±ÑģÐ»ÑĥÐ³Ð¾Ð²": 4153,
      "ĠÐ¿Ð¾ÑĪÑĥ": 4154,
      "Ð¾ÐºÑĢÐ°": 4155,
      "ĠÑĸÐ½ÑĦÐ¾ÑĢÐ¼Ð°ÑĨÑĸÑı": 4156,
      "ĠÑģÐ¿ÑĸÐ»ÑĮÐ½Ð¾": 4157,
      "Ð²Ð°Ð»ÑĮ": 4158,
      "ĠÑĢÐ°Ð·ÑĸÐ²": 4159,
      "ĠÐ²ÑĤÑĢÐ°ÑĤÐ¸": 4160,
      "Ð¾ÑģÐºÐ¾Ð½": 4161,
      "ĠÐ±ÑİÐ´Ð¶ÐµÑĤÑĥ": 4162,
      "ĠÐ·Ð½Ð°Ð½Ð½Ñı": 4163,
      "ĠÐ¿ÑĢÐ°ÐºÑĤÐ¸ÑĩÐ½Ð¾": 4164,
      "ĠCh": 4165,
      "Ð³Ð°Ð»": 4166,
      "ĠÑĢÐ¾Ð·ÑģÐ»ÑĸÐ´": 4167,
      "ÑĩÐ¸Ðº": 4168,
      "ĠÐ±ÑĢÐ¾Ð½": 4169,
      "ĠÐ½Ð°ÑĥÐºÐ¸": 4170,
      "ĠÑģÑĤÑĢÐ°ÑĤÐµÐ³": 4171,
      "org": 4172,
      "ĠÐ¾ÑĤÑĢÐ¸Ð¼Ð°Ð»Ð¸": 4173,
      "ĠÐ½ÑĮÐ¾Ð¼Ñĥ": 4174,
      "Ð¢Ð°": 4175,
      "ĠÐ²ÑĸÐ´Ð´ÑĸÐ»Ñĥ": 4176,
      "ĠÑĤÐ¾ÑĢ": 4177,
      "ĠÐ´Ð·": 4178,
      "ity": 4179,
      "ĠÐ²Ð½Ð°ÑģÐ»ÑĸÐ´Ð¾Ðº": 4180,
      "ĠÐµÐºÑģÐ¿Ð»Ñĥ": 4181,
      "ÐºÐ¾Ð»Ð¾": 4182,
      "ÐºÐ¾Ð²Ðµ": 4183,
      "ĠÑĩÐ°ÑģÑĤÐ¸Ð½Ñĸ": 4184,
      "ĠÐ°ÐºÑĤÑĥ": 4185,
      "ÑĨÑĸÐ¹Ð½Ð°": 4186,
      "ĠÑĢÐ¾Ð±Ð¾ÑĤ": 4187,
      "ĠÑģÐ¿Ð¾ÑģÐ¾Ð±": 4188,
      "ĠÐ¾Ð±Ð¼ÑĸÐ½": 4189,
      "ĠÐºÐ¾Ð½ÑģÑĥÐ»ÑĮ": 4190,
      "ÑĸÑģÑĤÑĮ": 4191,
      "Ð·ÐµÐ¹": 4192,
      "Ð³Ð»ÑıÐ´Ñĥ": 4193,
      "ÑīÐ¸Ð½Ð°": 4194,
      "ĠÐ²ÑĥÐ³": 4195,
      "ĠÐºÐ¾Ð½ÑĤÐ°": 4196,
      "ĠÐ½ÑĸÑı": 4197,
      "ĠÐ²ÑĸÐºÑĥ": 4198,
      "ĠÐ¿ÑĢÐ¸ÑģÐ²Ñı": 4199,
      "ĠÐľÐ°": 4200,
      "ĠÑĢÐµÐ·ÑĥÐ»ÑĮÑĤÐ°ÑĤÐ¸": 4201,
      "ĠÐ¿ÑĢÐ¸Ð½ÑĨÐ¸Ð¿": 4202,
      "ĠÐ¼Ð°Ð³Ð°Ð·Ð¸": 4203,
      "ĠÑĸÐ½Ð²ÐµÑģÑĤÐ¸": 4204,
      "ĠÐ¡ÐłÐ¡Ðł": 4205,
      "Ð¶Ð¸Ñģ": 4206,
      "Ð¾Ð¶ÑĥÑĤÑĮ": 4207,
      "Ð»ÑıÐ²": 4208,
      "ĠÑĩÑĸÑĤ": 4209,
      "ĠÑģÐµÑĢÑĨÐµ": 4210,
      "Ð¼Ð¸Ñģ": 4211,
      "ĠÐ©Ð¾Ð±": 4212,
      "ÐļÐŀ": 4213,
      "ĠÑģÐ¿ÑĢÐ¸Ð¹": 4214,
      "ÑģÐ¿Ð¾Ð´Ð°ÑĢ": 4215,
      "ÐºÑĢ": 4216,
      "ĠÐ¿Ð»Ñı": 4217,
      "ae": 4218,
      "SB": 4219,
      "ÑģÑĤÐ¸ÐºÐ°": 4220,
      "Ð¾Ð²Ð¸ÑĩÐ°": 4221,
      "ĠÐĴÐ°Ñģ": 4222,
      "ĠÐ´ÑĢÑĸÐ±": 4223,
      "ÐºÑĸÑģÑĤÑİ": 4224,
      "ÐĳÐ£": 4225,
      "ÑĪÐµÐ²": 4226,
      "ĠÐ¿Ð¾Ð±ÑĥÐ´": 4227,
      "ĠÐ°Ð±Ð¸": 4228,
      "ĠÐ¾ÑģÐ¾Ð±Ð¸ÑģÑĤÐ¾": 4229,
      "ÑĤÐ¸ÑĩÐ½Ð¾ÑĹ": 4230,
      "ÑĢÐ¸Ð¹": 4231,
      "ĠÐ·Ð°Ð»": 4232,
      "ĠÐ´Ð¾ÑģÑıÐ³Ð½ÐµÐ½Ð½Ñı": 4233,
      "ÑĩÐ¸Ð»Ð°": 4234,
      "ÑģÑĸÐ¾Ð½": 4235,
      "ÐºÐ°ÑĢÐ¿Ð°ÑĤ": 4236,
      "ĠÐºÐ°Ð¶Ðµ": 4237,
      "ĠÐĹÐ±": 4238,
      "ĠÐĹÐ°ÐºÐ¾Ð½Ñĥ": 4239,
      "ĠÐ¿Ð¾Ð·Ð½Ð°": 4240,
      "ĠÑĥÐºÑĢÐ°ÑĹÐ½ÑĨÑĸÐ²": 4241,
      "ĠÐ¿ÑĢÐµÐºÑĢÐ°": 4242,
      "ĠÐ»ÑĸÑĤÐ°": 4243,
      "ĠÑĢÐ¾Ð·Ð¿Ð¾Ð²Ñĸ": 4244,
      "ĠÐ¾Ð±Ð»Ð°ÑģÑĤÑĮ": 4245,
      "ÑĸÑĩÐ½Ð¸Ð¹": 4246,
      "ĠÑĨÑĸÐ»Ñĸ": 4247,
      "ĠÐºÐ°ÑĢÑĤÐ¸": 4248,
      "ĠÐ¼Ð¸Ñģ": 4249,
      "ĠÐºÑĢÐ¾Ð²Ñĸ": 4250,
      "ÐĹÐ°Ð³": 4251,
      "ĠÐ¼Ð°Ð¹ÑģÑĤÐµÑĢ": 4252,
      "Â«Ðŀ": 4253,
      "ÑĸÑĩÐ½Ð¾Ð³Ð¾": 4254,
      "ĠÐ²ÐµÐ»Ð¸ÐºÐ¸Ñħ": 4255,
      "ĠÐĶÑĸ": 4256,
      "ÒĲ": 4257,
      "ĠÐ¾Ð´Ð½Ðµ": 4258,
      "ÑĥÐ²Ð°Ð½ÑĮ": 4259,
      "ĠÐ²Ð·Ð°Ð³Ð°Ð»Ñĸ": 4260,
      "ĠÐ»ÑİÐ±Ð¾Ð²": 4261,
      "ÑĢÐ¾Ð´Ð¾Ð²": 4262,
      "Ð¾Ð´Ð¾Ð±": 4263,
      "ĠÐ½Ð°Ð»Ð°": 4264,
      "ĠÑĩÐµÑĢÐ³": 4265,
      "ÐķÐł": 4266,
      "ĠÑģÑĤÑĸÐ¹": 4267,
      "ĠÐ¿Ð¾ÑĩÐ°Ð»Ð¸": 4268,
      "ĠÐ²ÐµÑģÑĮ": 4269,
      "ĠÐ²Ð¿ÐµÐ²": 4270,
      "ĠÑĥÑħ": 4271,
      "Ð´Ð°ÑĩÑĸ": 4272,
      "ĠÐļÐ°ÑĤ": 4273,
      "ĠÐ²ÑĸÐ´Ð¿Ð¾ÑĩÐ¸Ð½": 4274,
      "ÐļÐ¾Ð½": 4275,
      "ĠÐ³Ð°Ð»": 4276,
      "ĠÐ±Ð°ÑĤ": 4277,
      "Ð¾Ð´Ð¸ÑĤÐ¸": 4278,
      "ĠÐ¼Ð¾Ð²Ð¾Ñİ": 4279,
      "ĠÑĢÐ¾Ð·ÑĢÐ°ÑħÑĥÐ½": 4280,
      "ĠÐ¢ÑĥÑĤ": 4281,
      "ĠÐ¾ÑĢÐ³Ð°Ð½ÑĸÐ·Ð°ÑĨÑĸÑı": 4282,
      "Ġhttp": 4283,
      "Ð»ÑĸÑĩ": 4284,
      "ÑĩÐµÐ½ÐºÐ°": 4285,
      "Ð²Ð¸Ð³Ñĥ": 4286,
      "ĠÐ¤ÐµÐ´ÐµÑĢÐ°": 4287,
      "ÐºÐ¾Ð³": 4288,
      "ĠÐ·ÑĢÐ¾ÑģÑĤÐ°Ð½Ð½Ñı": 4289,
      "âĢ¦Ċ": 4290,
      "ĠÐłÐ¤": 4291,
      "ĠÐ¾ÑĢÐµÐ½": 4292,
      "ĠÐµÐºÐ¾Ð½Ð¾Ð¼ÑĸÐºÐ¸": 4293,
      "ÐĲÐ²": 4294,
      "ĠÐľÑĸÐ¶Ð½Ð°ÑĢÐ¾Ð´": 4295,
      "ÑĢÐ°Ð¹": 4296,
      "ÐĶÐ¶ÐµÑĢÐµÐ»Ð°": 4297,
      "ĠÐ·Ð°ÑĤÑĢÐ¸Ð¼": 4298,
      "ru": 4299,
      "ĠÐ¹Ð´ÐµÑĤÑĮÑģÑı": 4300,
      "ÑĩÐºÑĥ": 4301,
      "ÑīÐ¸Ñħ": 4302,
      "Ð¾ÑģÐ»Ð°Ð²": 4303,
      "ĠÐ¢ÐµÑĢÐ½Ð¾Ð¿": 4304,
      "Ð¾ÐºÐ°": 4305,
      "ĠÐ´Ð¾Ð²Ð¶Ð¸": 4306,
      "ĠÐ¿Ð¾Ð²ÑĸÐ´Ð¾Ð¼Ð»ÐµÐ½Ð½Ñı": 4307,
      "ĠÐĲÐ½Ð´ÑĢÑĸÐ¹": 4308,
      "Ð»Ð¸Ð²Ñĥ": 4309,
      "Ð´Ð¸ÑĤÐ¸": 4310,
      "ev": 4311,
      "ÐµÐºÑģ": 4312,
      "ĠÐ¾Ð¿ÑĥÐ±Ð»Ñĸ": 4313,
      "ĠÑħÐ¾ÑĢÐ¾": 4314,
      "ĠÑĩÑĥ": 4315,
      "ĠÐ²Ð¿ÐµÑĢÑĪÐµ": 4316,
      "ĠÐ±Ð°ÑĢ": 4317,
      "ĠÐºÐ¾ÑĢÐ°": 4318,
      "ĠÐ±Ð°Ð½ÐºÑĸÐ²": 4319,
      "ĠÐ´Ð¾Ð»Ð°ÑĢÑĸÐ²": 4320,
      "ĠÐ·Ð²Ñĸ": 4321,
      "ĠÐľÑĸÐ½": 4322,
      "ĠÐ²ÑĸÐ´ÑĢÐ°Ð·Ñĥ": 4323,
      "Ð¼ÐµÑĢ": 4324,
      "Ð»ÑİÑĶÑĤÑĮÑģÑı": 4325,
      "ĠÐ³ÑĥÐ¼": 4326,
      "Ð¾ÑİÐ·": 4327,
      "ĠÐ²Ð»Ð°ÑģÐ½Ð¾ÑģÑĤÑĸ": 4328,
      "ĠÐ²Ð¸Ð¿Ð°Ð´ÐºÐ°Ñħ": 4329,
      "ĠÐļÐ¾ÑģÑĤ": 4330,
      "ĠÐ§Ð¾ÑĢ": 4331,
      "ÑĤÑĥÑĶ": 4332,
      "ÑĨÑĸÑıÐ¼Ð¸": 4333,
      "ĠÐ¿ÑĸÐ²Ð´ÐµÐ½": 4334,
      "ÑĮÑİ": 4335,
      "ĠÑıÐ²": 4336,
      "Ð½ÐµÐ½ÑĮ": 4337,
      "ĠÐ¿ÐµÑĢÐµÑĤÐ²Ð¾ÑĢ": 4338,
      "ĠÐĿÐ¸": 4339,
      "ÐºÐ¾ÑĢÐ¸ÑģÑĤ": 4340,
      "ĠÐ·Ð°ÑģÐ¾Ð±Ð¸": 4341,
      "ĠÐ±ÑĸÐ»ÑĮÑĪÑĸÑģÑĤÑĮ": 4342,
      "ÑĢÐ½Ð¸Ñħ": 4343,
      "Ð¿Ð¾Ð½": 4344,
      "ĠÑĪÐºÑĸÑĢÐ¸": 4345,
      "ĠÐ·Ð±Ð¸ÑĢÐ°": 4346,
      "ĠÐĶÐ¾Ð½ÐµÑĨÑĮ": 4347,
      "ĠÐ²Ð¿Ð»Ð¸Ð²Ñĥ": 4348,
      "Ð½ÐºÑĥ": 4349,
      "ÑģÑĸÐ´": 4350,
      "ĠÐºÐ²Ð°Ð»Ñĸ": 4351,
      "Ð¾Ð¿ÑĢÐ¾": 4352,
      "ĠÑģÑħÑĸÐ´": 4353,
      "ĠÐºÐ½Ñı": 4354,
      "ĠÑĢÑĢ": 4355,
      "ÑĦÑĢÐ¸": 4356,
      "ĠÑĢÐµÐ³ÑĸÐ¾Ð½ÑĸÐ²": 4357,
      "ĠÐ¿ÑĢÐµÐ·Ð¸Ð´ÐµÐ½ÑĤÐ°": 4358,
      "ÑĢÐ¸ÑģÑĤ": 4359,
      "ĠÑĢÐµÐ³ÑĸÐ¾Ð½": 4360,
      "ip": 4361,
      "ĠÑģÑĤÐ°Ð²Ð¸": 4362,
      "ĠÐ²Ð¸ÐºÐ¾ÑĢÐ¸ÑģÑĤÐ¾Ð²ÑĥÑİÑĤÑĮ": 4363,
      "ĠÐ¶ÑĸÐ½Ð¾": 4364,
      "Ð½ÑĮÐ¾Ñİ": 4365,
      "ĠÐ²ÑĸÑĤÐ°": 4366,
      "Ð¾ÑģÑĤÐ°ÑĤ": 4367,
      "ĠÐ¿ÑĢÐ¸ÑĶÐ¼": 4368,
      "ĠÐ½Ð°Ð´Ð°": 4369,
      "ĠÐĨÐ½ÑĤÐµÑĢ": 4370,
      "ĠÐ·Ð°Ð¼Ð¾Ð²Ð»ÐµÐ½Ð½Ñı": 4371,
      "Ð¾Ð½ÑĤ": 4372,
      "Ð²ÑĸÐ½": 4373,
      "ĠÐ¾ÑģÐ½Ð¾Ð²Ð½Ð¸Ñħ": 4374,
      "ĠÐ³Ð¾ÑĢÐ¸": 4375,
      "ÐºÑĸÑģ": 4376,
      "ĠÐ·Ð°Ð¿ÑĢÐ¾Ð¿Ð¾Ð½": 4377,
      "ĠÐ¿Ð¾ÑģÑĤÐ°Ð²": 4378,
      "ĠÐ·Ð°ÑħÐ¸Ñģ": 4379,
      "ĠÐ±ÑĸÐ·Ð½ÐµÑģÑĥ": 4380,
      "ĠÐ³ÑĢÐ¾Ð¼Ð°Ð´Ð¸": 4381,
      "ÑĸÐ¹Ð½Ð°": 4382,
      "Ð»Ð¾Ñİ": 4383,
      "Ð»ÑĮÐ½Ð¸Ñħ": 4384,
      "ĠÐ´Ð°ÑĤÐ¸": 4385,
      "Ð¾ÑģÐ»ÑĸÐ´": 4386,
      "ĠÐ¿ÑĢÐ¾Ð²Ð¾Ð´": 4387,
      "ĠÐ¿ÑĢÐ¸Ð·Ð²": 4388,
      "Ð¾Ð»Ð¾Ð³Ð¸": 4389,
      "Ð°Ð½Ð½Ñİ": 4390,
      "ÑĹÐ·": 4391,
      "Â°": 4392,
      "(Â«": 4393,
      "ĠÐ½Ð°Ð·Ð²Ð°": 4394,
      "ĠÑĦÐ¾ÑĢÐ¼Ñĸ": 4395,
      "ĠÐ·Ð°ÐºÐ¾": 4396,
      "ĠÐ²Ð¸Ð´Ð°Ð½Ð½Ñı": 4397,
      "Ð²Ð¾ÑĶ": 4398,
      "ĠÑħÐ°ÑĢÑĩÑĥÐ²Ð°Ð½Ð½Ñı": 4399,
      "und": 4400,
      "ÑĩÐ°ÑĤÑĮ": 4401,
      "ĠÑĤÐ²ÐµÑĢ": 4402,
      "ĠÐ¿ÑĸÐ´Ð³Ð¾ÑĤÐ¾Ð²ÐºÐ¸": 4403,
      "Ð½ÐµÐ½Ð¸Ð¹": 4404,
      "ĠÐ±ÑĥÐ´Ñĥ": 4405,
      "ÐµÐ½ÑĸÐ²": 4406,
      "Ð°Ð½ÑĤÐ°Ð¶ÐµÐ½Ð½Ñı": 4407,
      "ĠÑģÐ¿ÑĢÑıÐ¼": 4408,
      "ĠÐ²Ð°Ð³ÑĸÑĤ": 4409,
      "ĠÐŁÑĥ": 4410,
      "ĠÐ¡Ðµ": 4411,
      "ĠÐ¿ÐµÑĢÐµÐ½": 4412,
      "ÑİÑĩÑĸ": 4413,
      "Ð¾Ð¿Ð¸Ñģ": 4414,
      "ĠÐ¶ÑĸÐ½ÐºÐ¸": 4415,
      "ĠÑģÐ¿Ð¾ÑģÑĤÐµÑĢÑĸÐ³": 4416,
      "ĠÐ·Ð°ÐºÐ»Ð°Ð´ÑĸÐ²": 4417,
      "Ð¾ÑĢÐ¾Ð·": 4418,
      "ĠÐ¼ÑĸÑģÑĨÐµÐ²Ð¸Ñħ": 4419,
      "ĠÐ½Ð°Ð±Ñĥ": 4420,
      "ĠÐ¿ÑĢÐ°ÑĨÑİÑİÑĤÑĮ": 4421,
      "Ð°ÑĤÐ¾ÑĢ": 4422,
      "ĠÐ°Ð²ÑĤÐ¾Ð¼Ð¾Ð±ÑĸÐ»ÑĮ": 4423,
      "iz": 4424,
      "ÑĨÑĸÐ½": 4425,
      "ÑĪÐ¾Ðº": 4426,
      "ĠÐºÐ¾Ð½ÑĨ": 4427,
      "ĠÐ²ÐµÐ»Ð¸ÐºÐ¸Ð¹": 4428,
      "ĠÐĵÐ¾ÑĢ": 4429,
      "Ð¾ÑĹÐ²": 4430,
      "Ð¾Ð±Ð°": 4431,
      "Ð½Ð°Ð¼Ñĸ": 4432,
      "ĠÑģÑĤÐ²Ð¾ÑĢÐ¸ÑĤÐ¸": 4433,
      "ÑĤÐµÐ»Ñĸ": 4434,
      "ord": 4435,
      "ĠÐ·Ð°ÑħÐ¸ÑģÑĤ": 4436,
      "ĠÑĤÐ¾Ð²Ð°ÑĢ": 4437,
      "ÑĢÑıÐ´ÑĥÐ²Ð°Ð½Ð½Ñı": 4438,
      "ĠÐ²Ð¸Ñħ": 4439,
      "ĠÐ²ÑĸÐ´ÑģÑĤ": 4440,
      "ĠÐ¿ÑĥÐ½ÐºÑĤ": 4441,
      "ĠÐ¿Ð°Ð»Ð¸": 4442,
      "sk": 4443,
      "ÐĿÐĨ": 4444,
      "ĠÑĸÐ½ÑĤÐµÑĢÐ½ÐµÑĤ": 4445,
      "ĠÐ²ÑģÑĸÐ¼": 4446,
      "ĠÑģÐµÐ»Ñĸ": 4447,
      "ĠÑĦÑĥÐ½ÐºÑĨÑĸÑĹ": 4448,
      "ĠÐ·Ð°ÑĢÐµÑĶ": 4449,
      "ĠÐ¼ÑĸÐ³": 4450,
      "Ð´ÑĸÑı": 4451,
      "ĠÑģÐ¿Ð¾Ðº": 4452,
      "Ð´Ð°Ð¼Ð¸": 4453,
      "ÑģÐµÐ½": 4454,
      "ÑĢÐ¾Ñī": 4455,
      "ÑĤÐ¸ÑĩÐ½Ð¸Ð¹": 4456,
      "ĠÐ»ÑĸÐºÐ²ÑĸÐ´": 4457,
      "Ð¶Ð¸Ð²": 4458,
      "ÐºÑĤÑĥÑĢÐ¸": 4459,
      "ÑĤÐ¸ÑĩÐ½Ð°": 4460,
      "ant": 4461,
      "ĠÐ´Ð¾Ð½": 4462,
      "ĠÐĴÐ°ÑĢ": 4463,
      "ĠÐ½Ð°Ð³Ð°Ð´": 4464,
      "ĠÐºÐ»Ð°ÑģÑĥ": 4465,
      "ĠÐ½Ð°Ð»ÐµÐ¶Ð¸ÑĤÑĮ": 4466,
      "ĠÐ¿ÑĸÐ´ÑģÑĥÐ¼": 4467,
      "ĠÐ¿ÑĸÐ´Ð¾Ð·": 4468,
      "ĠÐ¿ÐµÑĢÑĪÑĥ": 4469,
      "'ÑıÐ½": 4470,
      "ĠÐ²Ð¸ÑĤÑĢÐ°ÑĤÐ¸": 4471,
      "Ð¶Ð¸ÑĤÐ¸": 4472,
      "ĠÑĨÐ¸Ð²ÑĸÐ»ÑĮ": 4473,
      "ĠÐĿÐ°Ð´": 4474,
      "ĠÐ¿Ð¾Ð¼ÐµÑĢ": 4475,
      "ĠÑĥÐ½ÑĸÐº": 4476,
      "ÑĢÐ°ÑĹ": 4477,
      "ĠÐĲÐ»ÑĮ": 4478,
      "ĠÐ²ÑĸÐ´Ð±ÑĥÐ²": 4479,
      "Ð¼ÑĸÐ½Ð¸": 4480,
      "ĠÐ·Ð°ÑģÑĤÑĥÐ¿Ð½Ð¸Ðº": 4481,
      "ĠÑģÑĤÐ°Ð½Ð´Ð°ÑĢ": 4482,
      "ĠÐ»ÑİÐ±Ð¸": 4483,
      "ĠÑģÐºÐ°Ð·Ð°ÑĤÐ¸": 4484,
      "ÐĶÐµ": 4485,
      "ou": 4486,
      "ĠÐ¹Ð´Ðµ": 4487,
      "ĠÐºÐ¾Ð¼ÑĦÐ¾ÑĢ": 4488,
      "Ð»Ð¸Ð¼": 4489,
      "ĠÐ³ÑĢÑĥÐ¿Ð°": 4490,
      "ĠÐ·Ð´ÑĸÐ¹ÑģÐ½ÑİÑĶÑĤÑĮÑģÑı": 4491,
      "ĠÑħÑĸÐ¼Ñĸ": 4492,
      "ÑĩÐ°ÑİÑĩÐ¸": 4493,
      "Ð¾Ð²ÑĥÑĶÑĤÑĮÑģÑı": 4494,
      "ĠÐ·Ð±ÑĸÐ»ÑĮÑĪÐµÐ½Ð½Ñı": 4495,
      "ÑĪÐ¸Ð½": 4496,
      "ĠÐ¾Ð±Ð»": 4497,
      "ĠÐ²ÐµÑģ": 4498,
      "ĠÐ°ÑĢÑĤÐ¸": 4499,
      "Ð²Ð°Ð»Ð¾": 4500,
      "ÑģÐ¾Ð½Ð°": 4501,
      "ÑģÑĤÑĢÑĸÐ¹": 4502,
      "ĠÐ¿Ð¾Ð´Ð¾ÑĢÐ¾Ð¶": 4503,
      "ĠÐ¾ÑĢÐ³": 4504,
      "ĠÑģÐ²Ð¾ÑĶÑİ": 4505,
      "Ð±Ð¾ÑĢ": 4506,
      "Ð¶Ð½Ñĸ": 4507,
      "ĠÐ·Ð°ÑħÐ¸Ñī": 4508,
      "ĠÑģÐ¸ÑĤÑĥÐ°ÑĨÑĸÑı": 4509,
      "ĠÐĲÐ´": 4510,
      "ĠÐ·ÑĸÐ±ÑĢÐ°": 4511,
      "ĠÐ½Ð°ÑĢ": 4512,
      "ĠÐ´Ð¾ÑģÐ»ÑĸÐ´Ð¶ÐµÐ½ÑĮ": 4513,
      "ĠÑģÑĤÑĸ": 4514,
      "ĠÑĥÐ²Ð°Ð³Ð¸": 4515,
      "ĠÑģÐ¿Ð¾ÑĩÐ°ÑĤÐºÑĥ": 4516,
      "Ð»Ð°Ð¼": 4517,
      "ĠÐ¶Ð¾ÑĢÑģÑĤ": 4518,
      "ĠÐ±ÐµÐ·ÐºÐ¾ÑĪÑĤÐ¾Ð²": 4519,
      "ĠÑģÐ¾ÑĤ": 4520,
      "Ð½ÑĸÑĨÐ¸Ð¿": 4521,
      "ĠÐĳÑĸÐ»ÑĮ": 4522,
      "ĠÐ¼Ð¾Ð³Ð»Ð¸": 4523,
      "ĠÐŁÐ°ÑĢÑĤ": 4524,
      "ĠÐ¿Ð¾ÐºÑĢÐ°": 4525,
      "Ð±Ð¾Ð¼": 4526,
      "ÑĪÐºÐ°": 4527,
      "ĠÑģÑĥÐ¼Ñĥ": 4528,
      "ÐµÑĤÑĸ": 4529,
      "Ð¼Ð°ÑİÑĤÑĮ": 4530,
      "ĠÑģÑĥÑĤ": 4531,
      "ĠÑģÐ¼ÐµÑĢÑĤÑĸ": 4532,
      "ÑģÑİ": 4533,
      "ĠÐ¿Ð¾Ð´Ð°ÑĢÑĥÐ½": 4534,
      "ĠÐºÐ¾Ð¼Ð¿Ð¾Ð½": 4535,
      "ÐļÐ¾Ð»Ð¸": 4536,
      "ĠÐļÑĢÐ¸Ð¼Ñĥ": 4537,
      "ĠÑĢÐµÐ»ÑĸÐ³": 4538,
      "ÑĢÐµÑģÑĥ": 4539,
      "ĠÐ¿Ð¾ÑĢÑĤ": 4540,
      "ĠÑĦÐµÑģÑĤÐ¸": 4541,
      "ĠÐ¾Ð´ÐµÑĢÐ¶": 4542,
      "ÑģÑĮÐ¾Ð¼Ñĥ": 4543,
      "ÑģÐ¿Ð°Ð½": 4544,
      "ĠÐĶÐ¸": 4545,
      "ĠÑĤÐ°ÐºÐ¾ÑĹ": 4546,
      "âĢĿ.Ċ": 4547,
      "ĠÐ¾ÐºÑĢÐµÐ¼Ð¸Ñħ": 4548,
      "Ð»Ð¾ÑģÑĮ": 4549,
      "-Ð·": 4550,
      "ĠÐ²Ð²Ð°Ð¶Ð°ÑĶ": 4551,
      "ÑĪÑĤÑĸ": 4552,
      "ĠÐ·Ð°ÐºÐ¾Ð½Ð¾Ð´Ð°Ð²ÑģÑĤÐ²Ð°": 4553,
      "ĠÑĦÑĢÐ°": 4554,
      "ÑħÐµ": 4555,
      "ÐĴÐ¡": 4556,
      "Ð¿Ð½Ñĸ": 4557,
      "ÑıÑĩÐ¸": 4558,
      "Ð²ÐµÑĢÐ´Ð¶": 4559,
      "ĠÑģÐ°Ð¼Ð¾Ð²ÑĢÑıÐ´ÑĥÐ²Ð°Ð½Ð½Ñı": 4560,
      "ÑĢÐ¾Ð²Ð°Ð´Ð¶ÐµÐ½Ð½Ñı": 4561,
      "ĠÐºÑĥÑħ": 4562,
      "ĠÐ¿Ð¾Ñħ": 4563,
      "Ð¾Ð¶Ð¸Ð²": 4564,
      "ĠÐ¿Ð¾Ð»ÑıÐ³Ð°ÑĶ": 4565,
      "ĠÐ¿Ð¾Ð²ÑĤÐ¾ÑĢ": 4566,
      "Ð¶ÑĥÑĶÑĤÑĮÑģÑı": 4567,
      "ĠÐ²ÑĤÑĸ": 4568,
      "ÑĩÐ¸Ð½Ð¾Ñİ": 4569,
      "ÐºÑĤÐ¾ÑĢÑĸÐ²": 4570,
      "ĠÐ¿Ð»Ð°ÑĤÐ¸": 4571,
      "ĠÐ¾Ð¿ÐµÑĢÐ°ÑĨÑĸÑĹ": 4572,
      "Ð¼Ð°Ð½Ð½Ñı": 4573,
      "ĠÐĦÐ²ÑĢÐ¾Ð¿ÐµÐ¹": 4574,
      "ĠÐ·Ð°ÑģÑĸÐ´Ð°Ð½Ð½Ñı": 4575,
      "ĠÐ½Ð°Ð²ÐºÐ¾Ð»Ð¾": 4576,
      "ĠÐ¼Ð°ÑĢÑĪ": 4577,
      "-Ðļ": 4578,
      "ĠÐ²Ð¸Ð±Ñĥ": 4579,
      "ĠÐ¾Ð±ÑģÑĤÐ°Ð²Ð¸": 4580,
      "ĠZ": 4581,
      "ĠÐ½Ð°ÑĥÐºÐ¾Ð²Ð¾": 4582,
      "ÑıÐ¶": 4583,
      "ĠAn": 4584,
      "ĠÐ°ÑĢÐ¼ÑĸÑĹ": 4585,
      "ĠÐ¿ÑĸÐ·Ð½ÑĸÑĪÐµ": 4586,
      "ĠÑĢÐ°Ð´Ð°": 4587,
      "ĠÑĸÐ¼Ð¿": 4588,
      "Ð¾Ð»Ð¾Ð½": 4589,
      "ÑĦÑĥ": 4590,
      "Ð¿ÑĢÐ¾": 4591,
      "ĠÐ´Ð¾Ð²Ð³": 4592,
      "ĠÐ±Ð¾ÑĢÐ¾ÑĤÑĮÐ±Ð¸": 4593,
      "ĠÐ¿ÑĸÐ´ÑĤÑĢÐ¸Ð¼ÐºÑĥ": 4594,
      "ĠÐŁÑĸÐ²Ð´ÐµÐ½": 4595,
      "ĠÑĢÐ¾Ð±Ð¸ÑĤÑĮ": 4596,
      "Ð¶ÐµÐ½Ñĸ": 4597,
      "ĠÐºÐ°Ð»": 4598,
      "ÐļÑĢÑĸÐ¼": 4599,
      "ÐµÐºÐ¾Ð½": 4600,
      "ĠÐ¾Ð±Ñĸ": 4601,
      "ĠÐ´ÑĸÑĤ": 4602,
      "ĠÐ·Ð°Ð¿Ð¸": 4603,
      "ĠÐ½ÐµÐ²ÑĸÐ´": 4604,
      "ĠÐ¦Ñı": 4605,
      "ĠÐºÐ¾Ð¼ÑĸÑģÑĸÑĹ": 4606,
      "ĠÑĪÑĤÐ°ÑĤ": 4607,
      "ĠÐ²ÑĸÑĨÑĸ": 4608,
      "Ð¶Ñı": 4609,
      "ÑĦÑĸÐ½": 4610,
      "ÐŀÑģÐ½Ð¾Ð²": 4611,
      "ĠÐĳÑĸ": 4612,
      "ĠÐ½Ð°ÑĪÐ¾Ð¼Ñĥ": 4613,
      "ÑģÑĤÐ¸Ñħ": 4614,
      "ĠÐ³ÑĢÐ¾Ð¼Ð°Ð´ÑıÐ½Ð¸": 4615,
      "ĠÐľÐ°Ðº": 4616,
      "Ð²Ð¾Ðº": 4617,
      "ĠÐłÐµÑģÐ¿ÑĥÐ±Ð»Ñĸ": 4618,
      "ÑħÐ¾Ð´Ð¸ÑĤÐ¸": 4619,
      "Ð»ÑıÑĤÑĮÑģÑı": 4620,
      "ĠÐŀÑģÐ½Ð¾Ð²": 4621,
      "ly": 4622,
      "VI": 4623,
      "ĠÑģÐ°Ð¼Ð¾Ð³Ð¾": 4624,
      "Ð»ÑıÑĨÑĸÑĹ": 4625,
      "ĠÐºÑĢÐ°ÑĹÐ½Ð°Ñħ": 4626,
      "ĠÐ·Ð²ÑĸÑĤ": 4627,
      "ÑģÑıÑĤÑĮ": 4628,
      "ĠÐ¼Ð¸ÑģÑĤÐµÑĨÑĤÐ²Ð°": 4629,
      "ÑĤÐ¾Ð¿": 4630,
      "ĠÐ¼Ð°ÑĤÐµÑĢÑĸÐ°Ð»Ð¸": 4631,
      "ĠÐ±Ð°Ð½ÐºÑĥ": 4632,
      "ĠÐ½Ð¸Ð·": 4633,
      "ĠÐ¿ÑĢÐ¾ÑĦÑĸ": 4634,
      "ĠÐ²Ð´Ð°Ð»Ð¾ÑģÑı": 4635,
      "ĠÐºÐ°ÑĦÐµÐ´": 4636,
      "Ð¿Ð¾ÑĢÐ°": 4637,
      "ĠÐºÐ¾Ñħ": 4638,
      "ĠÐ´ÐµÐºÑĸÐ»ÑĮÐºÐ°": 4639,
      "ÐĲÐ»Ðµ": 4640,
      "ĠÐ¿Ð¾Ð·Ð±Ð°Ð²": 4641,
      "ĠÐ¡Ð²ÑĸÑĤ": 4642,
      "ĠÑĢÐµÑĨÐµÐ¿": 4643,
      "Ð¾Ð»Ð¾Ñģ": 4644,
      "ÑĩÐµÐ½Ð½Ñĸ": 4645,
      "ÑĨÑĮÐºÐ°": 4646,
      "ĠÐ²ÑĸÐ´Ð¿Ð¾Ð²ÑĸÐ´Ð°ÑĶ": 4647,
      ".Ðľ": 4648,
      "ĠÑģÑĤÑĥÐ´ÐµÐ½ÑĤÑĸÐ²": 4649,
      "ĠÐ»ÑĸÐºÑĥ": 4650,
      "ĠÐ½Ð¾ÑĢÐ¼Ð°": 4651,
      "ĠÑĩÐµÑĤÐ²ÐµÑĢ": 4652,
      "ĠÐµÐºÑģ": 4653,
      "ĠÐ²ÑĸÐ´Ð½Ð¾ÑģÐ¸Ð½": 4654,
      "ĠÑģÑĤÐ°Ð±": 4655,
      "ÑĪÑĤÐ°Ð±": 4656,
      "Ð°ÑĢÐ¾Ð¼": 4657,
      "ĠÐºÐ¾Ð³Ð¾": 4658,
      "ĠÐ¿ÐµÑĢÐµÐ³": 4659,
      "Ð²ÐµÐ´": 4660,
      "Ð»ÑıÐ»Ð¸": 4661,
      "ĠÐ·Ð´Ð¾Ð±": 4662,
      "ĠÐ±ÐµÐ·Ð¿Ð¾ÑģÐµÑĢÐµÐ´Ð½ÑĮÐ¾": 4663,
      "ĠÐºÑĢÑĸÐ¼": 4664,
      "ĠÑģÑĤÑĢÐ¸": 4665,
      "ĠÐ¿Ð¾Ð»Ð¾Ð¶ÐµÐ½Ð½Ñı": 4666,
      "Ð¾Ð»Ð¾Ð³ÑĸÑĩÐ½Ñĸ": 4667,
      "ĠÑģÑĤÑĢÐ¾Ðº": 4668,
      "ĠÐ¼ÑĥÐ·Ðµ": 4669,
      "ĠÐºÑĥÑĢÑģ": 4670,
      "ĠÐ¿Ð»Ð°ÑģÑĤÐ¸": 4671,
      "Ð½ÑıÑĤ": 4672,
      "ĠÐºÑĢÑĥ": 4673,
      "ÑĩÐ°ÑĤ": 4674,
      "Ð°Ð²ÑĪÐ¸": 4675,
      "Ð¾ÐºÑģÐ¸": 4676,
      "ĠÐ¾Ð´Ð½Ð¾ÑĩÐ°Ñģ": 4677,
      "ĠÐ¿Ð°Ð¼'ÑıÑĤÑĸ": 4678,
      "ĠÐļÐŁ": 4679,
      "Ð°Ð²Ð´ÑıÐºÐ¸": 4680,
      "Ð¼ÐµÐ»ÑĮÐ½Ð¸ÑĨÑĮ": 4681,
      "ĠÐ¿ÑĢÐ¸ÐºÑĢÐ°": 4682,
      "ĠÐ¿ÑĢÐ¸ÑĶÐ´": 4683,
      "ÐĿÐ°ÑģÐµÐ»ÐµÐ½Ð½Ñı": 4684,
      "\"Ċ": 4685,
      "Ð°Ð½ÑĸÑĤÐ°ÑĢ": 4686,
      "ĠÐ¼Ð¾Ð½Ð°": 4687,
      "ĠÑģÑĥÐ¼Ñĸ": 4688,
      "ĠÐ¿ÑĢÐ¾Ð²ÑĸÐ´": 4689,
      "ĠÑĩÐ¸ÑĤÐ°": 4690,
      "ĠÐ·ÑĥÑģÑĤÑĢÑĸÑĩÑĸ": 4691,
      ")ĊĊ": 4692,
      "ĠÑģÑĥÑģÑĸÐ´": 4693,
      "Ð¾Ð²Ð½Ð¾": 4694,
      "ÑĩÐµÐ½Ð¾Ð³Ð¾": 4695,
      "ĠÐºÐ¾Ð»ÐµÐºÑĤÐ¸Ð²": 4696,
      "ĠÑĢÐ¾Ð·ÑĥÐ¼": 4697,
      "ens": 4698,
      "ĠÐ°Ð½Ð³Ð»ÑĸÐ¹": 4699,
      "ĠÐ·Ð´ÑĸÐ¹ÑģÐ½ÐµÐ½Ð½Ñı": 4700,
      "ĠÐ³Ð¾Ð´Ð¸Ð½Ð¸": 4701,
      "eg": 4702,
      "Ð¸ÑģÐ»Ð¾Ð²": 4703,
      "ĠÐĳÑĥÐ´": 4704,
      "ĠÐ¼ÑĸÐºÑĢÐ¾": 4705,
      "ÐµÐ½Ñĥ": 4706,
      "ph": 4707,
      "ĠÐ·ÑĥÑģÐ¸": 4708,
      "ÑĥÑİÑĩÐ¸": 4709,
      "our": 4710,
      "ĠÐ¿Ð¾ÑĪÐºÐ¾Ð´": 4711,
      "Ð²Ð°Ð¼Ð¸": 4712,
      "ĠÑĨÐµÐ½ÑĤÑĢÑĸ": 4713,
      "ĠÐ²ÑĸÐ´ÑģÐ¾ÑĤ": 4714,
      "ĠÐŁÑĸÐ²Ð½ÑĸÑĩ": 4715,
      "ÑģÑĤÑıÐ¼Ð¸": 4716,
      "ĠÐ·Ð°Ð»Ð¸ÑĪÐ°ÑĶÑĤÑĮÑģÑı": 4717,
      "ram": 4718,
      "ell": 4719,
      "ĠÐµÑĦÐµÐºÑĤ": 4720,
      "ĠÐ¿ÑĸÐ´ÐºÑĢÐµÑģ": 4721,
      "ĠÐ±ÑĸÐ¹": 4722,
      "ĠÑĤÐµÑħÐ½ÑĸÐºÐ¸": 4723,
      "ĠÐºÐ¾Ð·Ð°": 4724,
      "ĠÐ½Ð°ÑıÐ²Ð½ÑĸÑģÑĤÑĮ": 4725,
      "ĠÐµÐ»ÐµÐºÑĤÑĢÐ¸": 4726,
      "Ð·ÐµÐ¼": 4727,
      "ÑĪÐ½ÑĸÐ¹": 4728,
      "ĠÑīÐ°Ñģ": 4729,
      "ĠÐ¿ÐµÑĢÑģÐ¿ÐµÐº": 4730,
      "ĠÑĤÑĢÐ°Ð½ÑģÐ¿Ð¾ÑĢÑĤÑĥ": 4731,
      "ĠÐ¿Ð¾Ð³Ð¾Ð´": 4732,
      "ÐĿÐĲ": 4733,
      "ĠÐ¿ÐµÑĢÐµÐ´Ð±Ð°ÑĩÐ°ÑĶ": 4734,
      "ĠÐ¼Ð¾Ð»Ð¾Ð´Ð¸": 4735,
      "ĠÑģÑĥÐ²": 4736,
      "ĠÐ¿Ð¾ÑĪÐ¸": 4737,
      "ĠÑĸÐ½ÑĦÐµÐº": 4738,
      "Ð»ÐµÐ½Ð¾Ð³Ð¾": 4739,
      "ĠÐ¶ÐµÑĢÑĤ": 4740,
      "ĠÐ´Ð¾ÐºÑĥÐ¼ÐµÐ½ÑĤÐ¸": 4741,
      "ĠÐ²Ð¸Ð²ÑĩÐµÐ½Ð½Ñı": 4742,
      "ĠÐ¿ÑĢÐ¾Ð´ÑĥÐºÑĤÑĸÐ²": 4743,
      "ĠÑģÐ°Ð¼Ð¾ÑģÑĤÑĸÐ¹Ð½Ð¾": 4744,
      "ÑĸÐ¹Ð½Ð¾Ð³Ð¾": 4745,
      "Ð½Ð¸ÑĨÑĤÐ²Ð¾Ð¼": 4746,
      "ÑĨÐµÐ²": 4747,
      "Ð¶ÑĥÑİÑĤÑĮ": 4748,
      "ĠÐ½ÐµÑİ": 4749,
      "ĠÐºÐ¾ÑĢÐ¿Ñĥ": 4750,
      "ĠÐ²Ð°ÑĢÑĸÐ°Ð½ÑĤ": 4751,
      "ĠÑĨÑĸÐ½Ð¸": 4752,
      "ÑĩÐ¸Ð·": 4753,
      "ÑĢÐ¾Ð³": 4754,
      "ĠÐ´ÐµÑĢÐ¶Ð°Ð²Ð½Ð¸Ñħ": 4755,
      "ĠÐ¾ÑĢÑĸÑĶÐ½": 4756,
      "ĠÐ·Ð°Ð¿ÑĢÐ¾": 4757,
      "ĠÐ¿ÐµÐ´Ð°Ð³Ð¾Ð³ÑĸÑĩ": 4758,
      "ĠÐ¼Ð¾Ð´ÐµÐ»ÑĮ": 4759,
      "ĠÐ²Ð°Ð½ÑĤÐ°Ð¶": 4760,
      "ĠÐµÑĤÐ°Ð¿": 4761,
      "ĠÐĳÐ°Ð¶": 4762,
      "ĠÐ¿Ð¾ÑĤÑĢÐµÐ±": 4763,
      "ĠÐ¿ÑĢÐµÐ´ÑģÑĤÐ°Ð²Ð½Ð¸ÐºÑĸÐ²": 4764,
      "ÑĨÑĸÑıÑħ": 4765,
      "ĠÑĢÐµÐ´Ð°Ðº": 4766,
      "ĠÐºÐ¾Ð¼Ð¿'ÑİÑĤÐµÑĢ": 4767,
      "Ð½Ð¸Ð»Ð¸": 4768,
      "Ð°Ð»Ñı": 4769,
      "ÐļÐĲ": 4770,
      "ÐºÑĸÐ½ÑĨÑĸ": 4771,
      "ĠÐĸÐ¸ÑĤ": 4772,
      "ĠÐ½Ð°ÑıÐ²Ð½Ð¾ÑģÑĤÑĸ": 4773,
      "ĠÐ³Ð¾ÑģÐ¿Ð¾Ð´Ð°ÑĢÑģÑĤÐ²Ð°": 4774,
      "Ð»ÐµÑĤ": 4775,
      "-Ðľ": 4776,
      "ÑİÑĶ": 4777,
      "Ð¡ÑĮÐ¾Ð³Ð¾Ð´Ð½Ñĸ": 4778,
      "ĠÑģÑĤÐ²ÐµÑĢÐ´Ð¶": 4779,
      "Ð½Ð¾Ñģ": 4780,
      "ĠÑģÐ»ÑĥÐ¶Ð±": 4781,
      "ĠÐ²ÑģÑİ": 4782,
      "ĠÐ±ÑĸÐ»ÑĮÑĪÐ¾ÑģÑĤÑĸ": 4783,
      "Ð¾Ð³ÑĢÐ°ÑĦÑĸÑĹ": 4784,
      "ĠÐ¾Ð´Ð½ÑĸÑĶÑĹ": 4785,
      "ĠÐ²ÑĸÐ¹ÑģÑĮÐºÐ°": 4786,
      "ĠÑģÐ¾ÑĨÑĸÐ°Ð»ÑĮÐ½Ð¸Ñħ": 4787,
      "ĠÐ¿Ð¾ÑģÑĤÐ°Ð²Ð¸": 4788,
      "ĠÐ±ÑĥÐ´ÑĸÐ²Ð½Ð¸ÑĨÑĤÐ²Ð°": 4789,
      "ill": 4790,
      "ĠÐ¿ÑĢÐ°ÑĨÑİÐ²Ð°Ð²": 4791,
      "ĠÐ·Ð°Ð±ÐµÐ·Ð¿ÐµÑĩÑĥÑĶ": 4792,
      "ĠÐ¿ÐµÑĢÑĪÑĸ": 4793,
      "ĠÐ¿ÑĸÐ´ÑģÑĤÐ°": 4794,
      "ĠÐ±Ð°Ð¶Ð°Ð½Ð½Ñı": 4795,
      "ÐĿÐŀ": 4796,
      "-Ð³": 4797,
      "ĠÐ²Ð¸ÐºÐ¾ÑĢÐ¸": 4798,
      "ÐķÐ¡": 4799,
      "ĠÐ°Ð½Ð°Ð»": 4800,
      "ĠÐºÑĸÐ»": 4801,
      "ĠÐ¾Ð±Ð»Ð°ÑģÐ½Ð¾ÑĹ": 4802,
      "ĠÐºÑĸÐ¼Ð½Ð°": 4803,
      "ĠÐ¼ÐµÑĢÐµÐ¶": 4804,
      "ĠÐ·Ð´Ð¾ÑĢ": 4805,
      "ĠÐºÐ¾Ð¶Ð½Ð¾Ð¼Ñĥ": 4806,
      "Ð·Ð°ÑĨÑĸÑı": 4807,
      "ĠÐºÐ¸Ñģ": 4808,
      "ĠÐ¾ÑĢÐ³Ð°Ð½ÑĸÐ·Ð¼Ñĥ": 4809,
      "ĠÐ²Ð¾Ð»Ð¾Ð´Ñĸ": 4810,
      "ÑıÐºÑĸ": 4811,
      "ĠÐ²ÐµÐ»Ð¸ÐºÑĸ": 4812,
      "ĠÑĦÑĸÐ»Ð¾ÑģÐ¾ÑĦ": 4813,
      "ĠÐĿÐµÐ·": 4814,
      "ĠÐ¼Ð°ÑĤÐµÑĢÑĸÐ°Ð»": 4815,
      "Ð³Ð½": 4816,
      "ĠÑģÐ¾Ð½Ñı": 4817,
      "ĠÐ°ÐµÑĢ": 4818,
      "ĠÐĵÑĢÑĥ": 4819,
      "-Ð±": 4820,
      "Ð½ÐµÐ½Ð¾": 4821,
      "Ð¶ÑĥÑĶ": 4822,
      "ĠÐ¼Ð°Ð»Ð°": 4823,
      "ber": 4824,
      "ĠÐ¼Ð¾ÑĢÐ°": 4825,
      "ĠÐ¿Ð¾Ð²'ÑıÐ·Ð°Ð½Ñĸ": 4826,
      "ĠÐ´Ð°Ð½": 4827,
      "ĠÐ¿Ð¾Ð»Ð¾Ð²Ð¸": 4828,
      "ĠÐºÐ¾Ð½ÑĦÐµÑĢÐµÐ½": 4829,
      "Ð°Ð¼Ð¿": 4830,
      "ĠÐ¼ÑĥÐ½ÑĸÑĨÐ¸Ð¿": 4831,
      "ĠÐĵÑĥ": 4832,
      "ĠÑģÐ°Ð¹ÑĤ": 4833,
      "ĠÐ¿ÐµÐ½": 4834,
      "ĠÐ´ÐµÐ¿ÑĥÑĤÐ°ÑĤÑĸÐ²": 4835,
      "ĠÐľÐ°ÑĤ": 4836,
      "Ð»Ð¸Ð²Ð¾Ð³Ð¾": 4837,
      "ĠÑĥÐ²ÑĸÐ¹": 4838,
      "ÐĶÐ¸Ð²": 4839,
      "ĠÐ¼Ð»ÑĢÐ´": 4840,
      "ÑĩÑĥÑİÑĤÑĮ": 4841,
      "ĠÑĢÑĥÐºÐ¸": 4842,
      "Ð¾Ð½ÑĸÑĹ": 4843,
      "ĠÐ´Ð¾Ð¿Ð¾Ð¼Ð¾Ð³ÑĤÐ¸": 4844,
      "ĠÐ¾ÑģÐ½Ð¾Ð²Ð½Ñĸ": 4845,
      "Ð²ÐµÐ½": 4846,
      "ĠÐ°ÐºÑĥ": 4847,
      "ÑģÑĤÑĢÑĸÐ²": 4848,
      "ĠÐ¾Ð±'ÑĶÐºÑĤÑĸÐ²": 4849,
      "ĠÐºÐ¾ÑĢÐ´": 4850,
      "ÐļÐ¸": 4851,
      "Ð½Ð¾ÑĩÑĸ": 4852,
      "ĠÑĩÐ»ÐµÐ½ÑĸÐ²": 4853,
      "Ð¿ÑĢÐ¸ÐºÑĸÐ½ÑĨÑĸ": 4854,
      "ĠÐ½Ð°Ð±Ð°Ð³Ð°ÑĤÐ¾": 4855,
      "ĠÑĤÐ°Ð±": 4856,
      "ĠÐ´ÐµÐ¼Ð¾Ð½": 4857,
      "Ð»Ð¸Ð·": 4858,
      "ĠÐ¿Ð¾Ð²ÐµÑĢÑħÐ½Ñĸ": 4859,
      "ÑĤÐ¾Ñĩ": 4860,
      "ĠÐ¿ÐµÑĢÐµÐ¼Ñĸ": 4861,
      "ĠÐ¿'ÑıÑĤÑĮ": 4862,
      "ĠÑģÐ¸Ð¼Ð¿ÑĤÐ¾Ð¼": 4863,
      "ÑĸÐ¹Ð½Ð¸Ñħ": 4864,
      "ĠÐ²Ð¸ÑīÐ°": 4865,
      "ĠÐ¾ÑĩÑĸÐºÑĥ": 4866,
      "ĠÐļÐ¾Ð¶": 4867,
      "ĠÑģÐµÑĢÑĨÑı": 4868,
      "ĠÐ´Ð²Ð¸Ð³Ñĥ": 4869,
      "Ð¾ÑİÐ·Ñĥ": 4870,
      "Ð¾ÑĢÐ³Ð°Ð½": 4871,
      "ÐºÑĢÐ°ÑĹÐ½Ð°": 4872,
      "Ð½Ð°ÑĤÐ¸": 4873,
      "ĠÐ¿ÐµÑĢÑĪÐ¸Ñħ": 4874,
      "Ð¾Ð²ÑĥÑİÑĩÐ¸": 4875,
      "ĠÐ²Ð°Ð»Ñİ": 4876,
      "ĠÐ¾Ð±ÑģÐ»ÑĥÐ³Ð¾Ð²ÑĥÐ²Ð°Ð½Ð½Ñı": 4877,
      "ĠÐ¾Ð±Ð¾ÑĢÐ¾Ð½Ð¸": 4878,
      "ĠÐ·ÑĢÐ°Ð·": 4879,
      "ĠÐºÐ¾ÑĢÐ´Ð¾Ð½": 4880,
      "ÐµÑĢÐ½Ñĸ": 4881,
      "ĠÑħÐ²Ð¾ÑĢÐ¸": 4882,
      "ĠÐĹÐµÐ¼": 4883,
      "SBN": 4884,
      "ÐĿÐĺ": 4885,
      "ĠÐ¾Ð±ÑģÑıÐ³": 4886,
      "ĠÑĢÐ¾Ð·ÐºÑĢÐ¸": 4887,
      "ĠÑĦÑĢÐ°Ð½ÑĨÑĥÐ·ÑĮ": 4888,
      "ĠÐ´Ð¾Ð²Ñĸ": 4889,
      "ĠÐ¿ÑĢÐ¾ÑıÐ²": 4890,
      "ĠÐ¿Ð¾ÑĪ": 4891,
      "Ð¿ÐµÑĢÑĪÐµ": 4892,
      "ĠÐºÑĥÐ¿Ð¸ÑĤÐ¸": 4893,
      "ÑĢÐ³Ð°Ð½ÑĸÐ·": 4894,
      "ĠÐ±ÑĥÐ´Ð¸Ð½Ð¾Ðº": 4895,
      "ĠÐ´Ð¸ÑĤÐ¸Ð½Ð°": 4896,
      "ĠÐĵÐ¾ÑģÐ¿": 4897,
      "ÑĮÐ¼Ð¸": 4898,
      "Ð½ÑĥÐ²Ð°": 4899,
      "ÑĤÐ½Ð¾Ð³Ð¾": 4900,
      "ple": 4901,
      "ĠÑĩÐ¾Ð»Ð¾Ð²ÑĸÐºÐ°": 4902,
      "Ð²Ð¸Ð¼Ð¸": 4903,
      "ĠÑģÑĤÐ¾ÑģÑĥÑĶÑĤÑĮÑģÑı": 4904,
      "ĠÑħÐ¾Ð»Ð¾Ð´": 4905,
      "ĠÑģÐ²ÑıÑĤ": 4906,
      "ĠÐ¾ÑĤÐ¾Ñĩ": 4907,
      "ĠÐłÐ¾Ð±": 4908,
      "ĠÐĴÑģÑĸ": 4909,
      "ĠÑģÐ¸Ð¼Ð²Ð¾Ð»": 4910,
      "ĠÐ¿ÑĢÐµÐ´ÑģÑĤÐ°Ð²Ð½Ð¸ÐºÐ¸": 4911,
      "ÐĴÑĸ": 4912,
      "ĠÑīÐ¸": 4913,
      "Ð»ÑĸÐº": 4914,
      "ĠÑĢÐ¾Ð·Ð¿Ð¾Ð²ÑĸÐ²": 4915,
      "ĠÐ°Ð²ÑĤÐ¾": 4916,
      "ĠÐ²Ð¸Ð¿Ð°Ð´ÐºÑĸÐ²": 4917,
      "ĠÐºÐ°ÑĢ'ÑĶ": 4918,
      "ĠÐ·Ð°Ð¿Ð¾Ð±ÑĸÐ³": 4919,
      "ĠÑĢÐ¾Ð´": 4920,
      "ĠÐ²ÑĸÐ´Ð´ÑĸÐ»ÐµÐ½Ð½Ñı": 4921,
      "ÑĢÐ¸Ð½Ð°": 4922,
      "ĠÐ³ÑĢÐ¾ÑĪ": 4923,
      "ĠÐ¾Ð±'ÑĶÐ´Ð½Ð°Ð½Ð½Ñı": 4924,
      "ĠÑĤÐ°ÐºÑĥ": 4925,
      "Ð½ÑĥÐ»Ð°": 4926,
      "ĠÐ¾Ð±'ÑĶÐºÑĤ": 4927,
      "Ð¿Ð¾ÑĢ": 4928,
      "Ð³Ð°ÑİÑĤÑĮÑģÑı": 4929,
      "ĠÑıÐºÐ¾Ñİ": 4930,
      "ĠÐ¿Ð¾ÑģÐ¸Ð»": 4931,
      "ĠÑĢÐ¾Ð·Ð¼ÑĸÑī": 4932,
      "ind": 4933,
      "Ð±ÑĢÐ¾": 4934,
      "ĠÑģÐ²ÑıÑĤÐ¾": 4935,
      "ÑĨÐµÐ¹": 4936,
      "Ð½Ð°ÑĢ": 4937,
      "ĠÐ½ÐµÑģÐ¿": 4938,
      "ĠÐ§ÐµÑĢÐµÐ·": 4939,
      "ÑĥÐ¹ÑĤÐµ": 4940,
      "ĠÐ¿ÑĢÐ°Ð²Ð¾Ð¾ÑħÐ¾ÑĢÐ¾Ð½": 4941,
      "ĠÐ»Ð¾Ðº": 4942,
      "ĠÑĢÑĸÑĪÐµÐ½ÑĮ": 4943,
      "ĠÐºÐ½Ð¸Ð³Ð¸": 4944,
      "ĠÐ´Ð¸Ð¿Ð»Ð¾Ð¼": 4945,
      "ĠÐºÐ¾Ð¼ÐµÐ½ÑĤ": 4946,
      "ĠÑĥÐ»ÑİÐ±": 4947,
      "ĠÐ¼Ð°ÑĤÐµÑĢÑĸÐ°Ð»Ñĥ": 4948,
      "ĠÐ²ÑĸÐ´Ð¿ÑĢÐ°Ð²": 4949,
      "ÑĥÐ²Ð°Ð»Ð¾": 4950,
      "ÑĩÐ½ÑĸÐ¹": 4951,
      "ĠÑĤÑĥÑĢÐ¸": 4952,
      "ĠÐ¼Ð¾Ð·": 4953,
      "Ð£ÐºÑĢÐ°ÑĹÐ½": 4954,
      "ĠÐ¿Ð¾ÑĩÐ°Ð²": 4955,
      "Ð±Ñİ": 4956,
      "ĠÐºÐ¾Ð¼ÑĥÐ½": 4957,
      "Ð¿Ð¾Ð²ÑĸÐ´Ð½Ð¾": 4958,
      "ĠÐ¿Ð¾Ð²Ð°": 4959,
      "ĠÐ¼Ð¸Ð½ÑĥÐ»Ð¾Ð³Ð¾": 4960,
      "ĠÐºÐ°Ð½Ð´Ð¸Ð´Ð°ÑĤ": 4961,
      "ĠÐºÐ°Ð´": 4962,
      "ĠÐ¿ÑĢÐµÐ¼": 4963,
      "Ð»ÑĮÐ½Ð¾ÑĹ": 4964,
      "ĠÐ¿Ð¾ÐºÐ¾Ð»": 4965,
      "ĠÐ¾ÑģÑĤÐ°Ð½Ð½Ñĸ": 4966,
      "%,": 4967,
      "Ð¾Ð³ÑĸÐ²": 4968,
      "ĠÐĲÐ¼ÐµÑĢÐ¸": 4969,
      "ÑĩÐ°Ð¼Ð¸": 4970,
      "ĠÐºÑĥÑĤ": 4971,
      "ĠÑıÐºÑĸÑģÑĤÑĮ": 4972,
      "ĠÐ¼ÑĸÑģÑıÑĨÑĮ": 4973,
      "(Ñģ": 4974,
      "ĠÐ¼Ð°ÑĢÑĪÑĢÑĥ": 4975,
      "ĠII": 4976,
      "ĠÐ²Ð°Ðº": 4977,
      "Ð¾ÐºÐ¾": 4978,
      "Ð»ÐµÐ½Ð¸": 4979,
      "ÑĪÐ¾Ñİ": 4980,
      "Ð¿Ð¾": 4981,
      ");": 4982,
      "ĠÐ²Ð°Ð¶ÐºÐ¾": 4983,
      "Ð°Ð»ÑĸÐ·Ð°ÑĨÑĸÑĹ": 4984,
      "Ð¾Ð³ÑĢÐ°Ð´": 4985,
      "ÑĸÐ·ÑĮ": 4986,
      "ĠÐ°ÑĥÐ´Ð¸": 4987,
      "Ð½ÑĸÑĤÑĮ": 4988,
      "ĠÑĪÐºÐ¾Ð»Ñĸ": 4989,
      "ĠÐ²ÑĸÐ´ÐºÑĢÐ¸ÑĤÑĤÑı": 4990,
      "ĠÐ¡Ð°": 4991,
      "ĠÒĲ": 4992,
      "ÑĸÐ¹Ð½Ñĸ": 4993,
      "ĠÐ²Ð¸ÑĢÐ¾Ð±Ð½Ð¸": 4994,
      "ĠÑĢÐ¾Ð·Ð´": 4995,
      "ÑĩÐ¸Ð¼Ð¾": 4996,
      "ĠÐ·Ð¾ÑĢÑĥ": 4997,
      "Ð²ÐµÐ¹": 4998,
      "ĠÐ±ÑĥÐ´ÑĸÐ²Ð½Ð¸ÑĨÑĤÐ²Ð¾": 4999,
      "ÐµÐ´ÐµÑĤÑĮÑģÑı": 5000,
      "ran": 5001,
      "ĠÐ±ÑĢÐ°ÑĤÐ¸": 5002,
      "ÑĪÐµÐ½Ñĸ": 5003,
      "ĠÐ´Ð°Ð½Ð¸Ð¹": 5004,
      "ÑıÐ½Ð½Ñı": 5005,
      "ÑĥÐ±ÐµÑĢ": 5006,
      "ĠÐ¿ÑĢÐ¸Ð½ÑĨÐ¸": 5007,
      "ĠÐ·Ð°ÑħÐ²Ð¾ÑĢÑİ": 5008,
      "ĠÐ¿ÑĢÐ¸Ð¼ÑĸÑī": 5009,
      "Ð¶Ð¸Ð²Ð°Ð½Ð½Ñı": 5010,
      "\"Ð¡": 5011,
      "ĠÐŀÑģÐ¾Ð±": 5012,
      "ĠÐ¼ÑĸÐ»ÑĮÐ¹Ð¾Ð½ÑĸÐ²": 5013,
      "ĠÐ²Ð»Ð°Ð´Ð°": 5014,
      "Ð¦Ñĸ": 5015,
      "Ð½Ð½Ñĸ": 5016,
      "ĠÐļÐ¾Ð½ÑģÑĤÐ¸ÑĤÑĥ": 5017,
      "ĠÐ¼Ð¾Ð±ÑĸÐ»ÑĮ": 5018,
      "ĠÐ¼Ð¾ÑĹ": 5019,
      "ĠÐ¼ÑĸÐ¶Ð½Ð°ÑĢÐ¾Ð´Ð½Ð¸Ñħ": 5020,
      "ĠÐºÐ»ÑİÑĩ": 5021,
      "ĠÐ½Ð°Ð¹Ð±Ð»Ð¸Ð¶": 5022,
      "ĠÐ´Ð¾Ð³Ð¾Ð²Ð¾ÑĢÑĥ": 5023,
      "ĠÐ·Ð°ÑĢÐ¾Ð±ÑĸÑĤ": 5024,
      "ĠÐ½Ð°Ð²ÑĩÐ°Ð»ÑĮÐ½Ð¸Ñħ": 5025,
      "ĠÐ²Ð¸ÑĤÑĢÐ°ÑĤ": 5026,
      "www": 5027,
      "ĠÐ»ÑĸÑĤÐµÑĢÐ°ÑĤÑĥÑĢÐ¸": 5028,
      "ĠÐ½Ð°ÑĤÑĥ": 5029,
      "ĠÐ²Ð¸Ð¿ÑĥÑģÐº": 5030,
      "ĠÐ¿ÑĢÐ¾Ð¿Ð¾Ð½ÑĥÑĶ": 5031,
      "ĠÑĢÐ¾Ð¼Ð°Ð½": 5032,
      "ĠÐ§Ðµ": 5033,
      "ĠÐ³Ð»Ð¸Ð±Ð¾Ðº": 5034,
      "Ð²Ð¸ÑĤÐ¸ÑģÑı": 5035,
      "ĠÐŁÑĢÐ°": 5036,
      "Ð½ÑĭÑħ": 5037,
      "ĠÐ²ÑĸÐ¹ÑģÑĮÐºÐ¾Ð²Ð¸Ñħ": 5038,
      "ĠÐ²Ð¸Ð´Ð°Ð²": 5039,
      "-Ð¼Ñĥ": 5040,
      "ÑĤÐ°ÑĨÑĸÑİ": 5041,
      "ĠÐĿÐ¾Ð²": 5042,
      "Ð»Ð°Ñħ": 5043,
      "ĠÐ¾ÑģÐ¾Ð±Ð»Ð¸Ð²Ð¾ÑģÑĤÑĸ": 5044,
      "-Ð¤ÑĢÐ°Ð½": 5045,
      "Ð°ÑĤÑĸÐ²": 5046,
      "ast": 5047,
      "ĠÑĢÐ¾Ð´Ð¸Ð½Ð¸": 5048,
      "ĠÐłÐ¸": 5049,
      "Ð²Ð¸ÑīÐµ": 5050,
      "ĠÐ³Ð°Ð·Ñĥ": 5051,
      "ĠISBN": 5052,
      "ĠÐ·Ð±ÐµÑĢÐµÐ³": 5053,
      "ÑģÐ»ÑĥÐ¶": 5054,
      "ĠÐ·Ð»Ð¾ÑĩÐ¸Ð½": 5055,
      "ĠÐ½Ð°Ð¿ÑĢÑıÐ¼ÐºÑĥ": 5056,
      "ĠÑĥÑĢÑıÐ´Ñĥ": 5057,
      "ĠÐ·Ð½Ð°Ð½ÑĮ": 5058,
      "ĠÐ¼ÑĸÐ½ÑĸÐ¼": 5059,
      "ĠÐ¿ÑĢÐ°Ð²Ð¸Ð»ÑĮÐ½Ð¾": 5060,
      "ĠÐ³ÑĢÐ¾ÑĪÐµÐ¹": 5061,
      "Ð¶Ð½Ð¸Ñħ": 5062,
      "qu": 5063,
      "Ð²ÐµÑĢÑģ": 5064,
      "Ð¾Ð»Ð¾Ð³ÑĸÑĩÐ½Ð¾Ð³Ð¾": 5065,
      "ĠÐ²Ð¸ÑĢÑĸÑĪÐµÐ½Ð½Ñı": 5066,
      "ive": 5067,
      "ÑĨÐ°ÑĢ": 5068,
      "ÑģÑĥÐ²Ð°ÑĤÐ¸": 5069,
      "ĠÐ¿ÐµÑĢÑĪÐ¾ÑĹ": 5070,
      "ĠÑĩÐµÑĢÐ²Ð¾": 5071,
      "ĠÐ¿ÑĢÐ¸Ð¹Ð½ÑıÑĤÑĤÑı": 5072,
      "ĠÐ±Ð»": 5073,
      "ĠÐ²ÑĸÐ´Ð¿Ð¾Ð²ÑĸÐ´ÑĮ": 5074,
      "ĠÐ½ÑĸÑħÑĤÐ¾": 5075,
      "ĠÐ¿Ðµ": 5076,
      "ÑĤÐ¾ÑĢÑĸÐ²": 5077,
      "Ð²ÐµÑģÑĤ": 5078,
      "ĠÑĦÑĢÐ¾Ð½": 5079,
      "ÐºÐ°Ð·Ñĥ": 5080,
      "Ð¡Ð£": 5081,
      "ĠÑģÐ¿Ð¾ÑĢÑĤÑĥ": 5082,
      "ĠÐ½Ð°Ð½": 5083,
      "ĠÑĨÐ¸ÑĦ": 5084,
      "ÑĪÑĥÑİÑĤÑĮ": 5085,
      "ÐĴÑĸÐ½": 5086,
      "ĠÑĥÐ³": 5087,
      "ĠÐ¾Ð´ÑıÐ³": 5088,
      "Ð±ÑĸÐ½": 5089,
      "ĠÐ¿Ð¾ÑħÐ¾Ð´Ð¶ÐµÐ½Ð½Ñı": 5090,
      "ÑĩÐµÑĢ": 5091,
      "ÑĮÐ²ÑĸÐ²": 5092,
      "ĠÑħÑĢÐ¸ÑģÑĤÐ¸": 5093,
      "ĠÐ¿Ð¸ÑĪÐµ": 5094,
      "ĠÐļÐ°": 5095,
      "ĠÐ¼Ð¸ÑĢ": 5096,
      "Ð±ÑĥÑĢ": 5097,
      "ÐĶÐ¸": 5098,
      "ĠÐĵÐ°Ð»Ð¸": 5099,
      "ry": 5100,
      "ĠÐĵÐµ": 5101,
      "ĠÐ´Ð¾Ð¿Ð¾Ð¼Ð°Ð³Ð°ÑĶ": 5102,
      "ĠÐĿÐ°Ñģ": 5103,
      "ĠÐ¿ÑĢÐ¾Ð²ÐµÑģÑĤÐ¸": 5104,
      "ÑģÑĤÐ¸Ð³": 5105,
      "III": 5106,
      "ÑĥÐ½Ð´": 5107,
      "ĠÐ±Ð»Ð°Ð³": 5108,
      "ÐºÑĤÐ°": 5109,
      "ĠÐ¿ÑĸÐ´ÑĸÐ¹": 5110,
      "ĠÐ¢Ð¾Ð´Ñĸ": 5111,
      "ĠÑĸÐ½Ð¾Ð´Ñĸ": 5112,
      "ÐµÑĢÑģÐ¾Ð½": 5113,
      "ĠÐºÐ¾Ð»ÑĮÐ¾ÑĢÑĥ": 5114,
      "ĠÑĸÐ½ÑĦÑĢÐ°": 5115,
      "ĠÐ²Ð·ÑıÑĤÐ¸": 5116,
      "Ð¾Ð»Ð¾Ð¼": 5117,
      "-Ð¡": 5118,
      "ĠÐ·Ð°ÐºÐ¾Ð½Ð¾Ð¼": 5119,
      "-Ð²Ð¸": 5120,
      "ĠÐ·Ð°Ð³Ð°Ð»ÑĮÐ½Ð¾": 5121,
      "ĠÐ¼ÐµÑĤÑĢÑĸÐ²": 5122,
      "(Ð±": 5123,
      "ĠÑĨÑĸÐ»ÐºÐ¾Ð¼": 5124,
      "Ð¾Ð²ÑĥÑİÑĤÑĮÑģÑı": 5125,
      "ĠÑĢÐµÑĩÐ¾Ð²Ð¸Ð½": 5126,
      "ĠÑĤÑĥÑĢÐ½Ñĸ": 5127,
      "ĠÑģÐ²ÑĸÑĤÐ¾Ð²Ð¾ÑĹ": 5128,
      "ĠÐ´Ð¾Ð¿Ð¾Ð¼Ð¾Ð¶Ðµ": 5129,
      "ĠÐ¾Ð±ÑĸÐ¹": 5130,
      "ĠÐ¿Ð¾Ð»ÑĸÐ¿": 5131,
      "ĠÑĤÐµÑħÐ½Ð¾Ð»Ð¾Ð³ÑĸÑĹ": 5132,
      "ÐºÑĢÑĸÐ¼": 5133,
      "ÐµÐ½ÐºÐ°": 5134,
      "Ð¾ÑĢÐ´Ð¸Ð½Ð°": 5135,
      "ĠÐ¿ÑĢÐ¾Ð¼Ð¸ÑģÐ»": 5136,
      "ĠÐ´ÐµÑĢÐ¶Ð°Ð²Ð°": 5137,
      "ĠÑĩÐ°ÑģÑĤÐ¸Ð½Ð¾Ñİ": 5138,
      "ĠÐ²ÐµÐ»Ð¸ÐºÐ°": 5139,
      "Ð©Ð¾Ð±": 5140,
      "ĠÑĸÑģÐ½ÑĥÐ²Ð°Ð½Ð½Ñı": 5141,
      "ĠÐ½Ð°ÑĨÑĸÐ¾Ð½Ð°Ð»ÑĮÐ½Ð¾ÑĹ": 5142,
      "ĠSp": 5143,
      "ĠÐºÐ¾Ð»ÐµÐ³": 5144,
      "ĠÐ¿Ð¾ÑĤÐ¾Ñĩ": 5145,
      "Ð»ÑĮÐ½Ð°": 5146,
      "ĠÐ¿Ð¾Ð½ÑıÑĤÑĤÑı": 5147,
      "Ð¾ÐºÐ°Ð·": 5148,
      "ĠÐ´Ð¾ÑĤÑĢÐ¸Ð¼Ñĥ": 5149,
      "ĠÐ·'ÑĶÐ´": 5150,
      "ÑĥÐ¼Ð¾Ð²": 5151,
      "(Ð¡": 5152,
      "ÑİÑİÑĤÑĮ": 5153,
      "ĠÐĳÐµÐ·": 5154,
      "ĠÑĸÐ½ÑĸÑĨÑĸÐ°ÑĤÐ¸": 5155,
      "ÐµÑĤÑĢÐ¾Ð²": 5156,
      "ĠÐ¿ÐµÑĢÐµÐ¼Ð¾Ð¶": 5157,
      "ĠÐºÐ¾Ð¼ÑĥÐ½ÑĸÐºÐ°": 5158,
      "ĠÑģÐ°Ð¹ÑĤÑĥ": 5159,
      "ÑĤÐµÑħÐ½ÑĸÑĩ": 5160,
      "ĠÐŁÐ¾Ð²": 5161,
      "ĠÑĥÐ½ÑĸÐ²ÐµÑĢÑģÐ¸ÑĤÐµ": 5162,
      "ĠÐ½Ð°Ð·Ð¸Ð²Ð°ÑİÑĤÑĮ": 5163,
      "ĠÐµÐ½ÐµÑĢÐ³ÑĸÑĹ": 5164,
      "Ð»Ð°Ð²Ð¸": 5165,
      "ÑĪÐ½Ñĸ": 5166,
      ".Ð¡": 5167,
      "ĠÑĤÐµÑħÐ½Ð¾Ð»Ð¾Ð³ÑĸÐ¹": 5168,
      "Ð¾ÑģÐ¸Ð²": 5169,
      "ÑĢÐ°ÑĨÑĸÑĹ": 5170,
      "ĠÐ°ÐºÑĤÐ¸Ð²Ð½Ð¾": 5171,
      "ĠÐŁÐ¾Ð´": 5172,
      ".org": 5173,
      "ĠÐ¿ÑĢÐ¾Ð²Ð¾Ð´Ð¸ÑĤÐ¸": 5174,
      "ÑĪÐ¸Ð²": 5175,
      "ĠÐ½ÐµÑĢ": 5176,
      "ĠÐºÐ¾Ð»ÑĸÑĢ": 5177,
      "ĠÐ¿ÑĢÐ¸ÑģÑĤÑĢÐ¾": 5178,
      "ĠÐ´Ð¾Ð¿Ð¾Ð²": 5179,
      "Ð¿Ð°Ð½ÑĸÑı": 5180,
      "ĠÐŁÐ¾Ð¿": 5181,
      "ĠÐ²ÑģÑĤÐ°Ð½Ð¾Ð²Ð»ÐµÐ½Ð½Ñı": 5182,
      "ĠÐ²ÑĸÐ´Ð½Ð¾Ð²Ð»ÐµÐ½Ð½Ñı": 5183,
      "ies": 5184,
      "ĠÐ¿Ð¾Ð´ÑĸÐ¹": 5185,
      "ĠÐ¿ÑĢÐ¸ÑĩÐ¸Ð½": 5186,
      "ÑĢÐ¾Ð´Ð¾Ð²Ð¶": 5187,
      "ĠÐ¿ÑĢÐ¾Ð¼Ð¸ÑģÐ»Ð¾Ð²": 5188,
      "ĠÐ°ÐºÑĤÐ¸Ð²Ñĸ": 5189,
      "ĠÐ°Ð¼": 5190,
      "Ð´Ð¾Ð¼": 5191,
      "ÐµÑĪ": 5192,
      "ĠÐºÐ¾Ð¼ÑĸÑĤÐµÑĤÑĥ": 5193,
      "ĠÑĢÐµÑģÑĥÑĢÑģÑĸÐ²": 5194,
      "-ÑĹ": 5195,
      "ĠÐ·Ð°Ð²Ð´Ð°Ð½ÑĮ": 5196,
      "ÑĩÐµÐ½Ð½ÑıÐ¼": 5197,
      "ĠÐŁÐ¾ÑĤÑĸÐ¼": 5198,
      "ÐµÐ½Ð¾ÑĹ": 5199,
      "ail": 5200,
      "Ð¾Ð»Ð¸Ð½": 5201,
      "ĠÐ½Ð¾Ð²Ð¾Ð¼Ñĥ": 5202,
      "ĠÐ®ÑĢÑĸÐ¹": 5203,
      "ĠÐ·Ð½Ð¸Ð¶ÐµÐ½Ð½Ñı": 5204,
      "ĠÐ¿ÑĢÐ¾Ð´Ð°Ð¶": 5205,
      "ÑĤÐµÐº": 5206,
      "ĠÐľÐ¾Ð»": 5207,
      "Ð²Ð°Ð»Ð¸ÑģÑı": 5208,
      "ĠÐ³Ð¾Ð²Ð¾ÑĢÐ¸ÑĤÑĮ": 5209,
      "ebook": 5210,
      "ĠÑĸÑģÑĤÐ¾ÑĢÑĸÑİ": 5211,
      "ĠÐ±ÑĢÐµÐ½": 5212,
      "Â«Ð·": 5213,
      "ÐĵÐŀ": 5214,
      "ĠÑĤÐ°Ð»": 5215,
      "Ð¾Ð´Ð¸ÑĤÑĮÑģÑı": 5216,
      "Ð½ÑĥÑĤÑĮ": 5217,
      "ĠÐ¿ÐµÑĢÐµÐ²Ð°Ð¶Ð½Ð¾": 5218,
      "ÑĨÐ¸ÑĤ": 5219,
      "ÑģÐ²ÑĸÑĤ": 5220,
      "ĠÑĢÐµÑĶÑģÑĤÑĢÐ°ÑĨÑĸÑĹ": 5221,
      "ĠÐ°ÑĤÐ¼Ð¾Ñģ": 5222,
      "ĠÐ¾Ð½Ð¾Ð²": 5223,
      "ĠÐĿÐ°Ð²": 5224,
      "ĠÐ½ÑĸÐ¹": 5225,
      "ĠÐ¼ÑĸÑģÑĮÐºÐ¾Ð³Ð¾": 5226,
      "ĠÑģÐ¸ÑĢ": 5227,
      "ĠÐ¦ÐµÐ½ÑĤÑĢÐ°Ð»ÑĮ": 5228,
      "ĠÐ½Ð°ÐºÐ°Ð·": 5229,
      "Ð¾ÑģÑĤÐ¸": 5230,
      "Ð²ÑĸÑĤÐ°": 5231,
      "ÑĨÑıÑħ": 5232,
      "-ÑıÐºÐ¸Ð¹": 5233,
      "ĠÐ·Ð°Ð¿Ð¾Ð²": 5234,
      "ĠÐ½Ð°ÑĤÐ¸": 5235,
      "ĠÐ·Ð°Ð´Ð¾Ð²Ð¾Ð»ÐµÐ½Ð½Ñı": 5236,
      "ĠÐ·Ð°Ð±ÐµÐ·Ð¿ÐµÑĩÐ¸ÑĤÐ¸": 5237,
      "ĠÐ¿ÑĢÐ°Ð²Ð¸Ð»": 5238,
      "ĠÑģÐ°Ð¼Ð°": 5239,
      "ĠÐ¼ÑĸÐ»Ñĸ": 5240,
      "ĠÐ¶Ð¸ÑĤÐ»": 5241,
      "ĠÐĩÑħ": 5242,
      "ĠÑĸÐ½ÑĪÐ¸Ð¼": 5243,
      "ĠÑħÐ¾ÑĤÑĸ": 5244,
      "ĠÐ¾Ð±Ð»Ð¸ÑĩÑĩÑı": 5245,
      "ĠÐ½ÐµÐ·Ð°ÐºÐ¾Ð½": 5246,
      "ĠÐ¿Ð¾Ð»Ñı": 5247,
      "ĠÐľÑĸÐ½ÑĸÑģÑĤÐµÑĢÑģÑĤÐ²Ð°": 5248,
      "Ð¸Ð²ÑģÑı": 5249,
      "ĠÐ¤ÑĢÐ°Ð½ÑĨÑĸÑĹ": 5250,
      "ĠÑĩÐ°ÑģÑĸÐ²": 5251,
      "Ð´ÐµÑĢÐ¶": 5252,
      "ĠÑģÑĤÐ°Ð½Ñĸ": 5253,
      "ĠÐ¿Ð¾Ð²Ð½Ð¾Ð²Ð°": 5254,
      "ĠÐ¿ÐµÑĢÐµÐ²Ð¸Ñī": 5255,
      "ĠÐ´Ð¾ÑĢÐ¾Ð¶": 5256,
      "Ð°ÑģÐºÐ°": 5257,
      "ĠÐ½Ð°Ð·Ð²Ð¾Ñİ": 5258,
      "ĠÐ¿Ð¾ÑĤÑĢÐµÐ±Ð¸": 5259,
      "ÑĢÐ¿": 5260,
      "ÑĤÐ¸Ð²Ð½Ð¾ÑĹ": 5261,
      "Ð¾ÑĢÑı": 5262,
      "ĠÑĢÐ°Ð·Ð¸": 5263,
      "ĠÐ°Ð»ÐºÐ¾Ð³": 5264,
      "ĠÐĲÐ»": 5265,
      "ĠÑģÐºÑĸÐ»ÑĮÐºÐ¸": 5266,
      "ĠÐ²Ð¾Ð´Ñĥ": 5267,
      "ĠÐ²ÑħÐ¾Ð´Ð¸ÑĤÑĮ": 5268,
      "ĠÐ´Ð°Ð»Ðµ": 5269,
      "ĠÑģÐ¿ÑĢÐ°Ð²Ñĸ": 5270,
      "ĠÑĨÐµÑĢÐºÐ²Ð¸": 5271,
      "acebook": 5272,
      "ĠÐ·Ð³Ð¾Ð´Ð¾Ð¼": 5273,
      "ĠÐ·Ð°ÐºÐ¾Ð½Ñĥ": 5274,
      "----": 5275,
      "ĠÐ´Ð°ÑĢ": 5276,
      "ÑĥÑģÑĤÐ¸": 5277,
      "ĠÐ¿Ð¾ÑģÑĤÑĢÐ°": 5278,
      "ĠÑģÑĥÐ¿ÐµÑĢ": 5279,
      "ĠÑĢÐ¾Ð±Ð¾": 5280,
      "ĠÐ±ÑĢÐ¸": 5281,
      "Ð»Ð¾ÑĹ": 5282,
      "Ð¶Ð´Ð¶": 5283,
      "ĠÐ´Ð²ÐµÑĢ": 5284,
      "ĠÐ·Ð²Ð¸ÑĩÐ°Ð¹Ð½Ð¾": 5285,
      "ĠÐ¶Ð°Ð»ÑĮ": 5286,
      "ÑĤÐ½Ð¸Ð¹": 5287,
      "ÐµÑĢÐµÐ¶ÐµÐ½Ð½Ñı": 5288,
      "ĠÑĦÑĸÐ³Ñĥ": 5289,
      "io": 5290,
      "ĠÑģÐ¼Ñĥ": 5291,
      "ĠÐ°Ð½Ñĸ": 5292,
      "ĠÑĸÐ½ÑĪÐ¸Ð¹": 5293,
      "ĠÐ¿Ð°ÑĢÐ»Ð°Ð¼ÐµÐ½ÑĤ": 5294,
      "ĠÑĢÑĥÐº": 5295,
      "ĠÑģÑĤÐ¾ÑĢÐ¾Ð½Ð¸": 5296,
      "ĠÐ½Ð°Ð´Ð°ÑĶ": 5297,
      "Ð°ÑĢÑı": 5298,
      "ĠÐ¥Ð¼ÐµÐ»ÑĮÐ½Ð¸ÑĨÑĮ": 5299,
      "ĠÐ½Ð°Ð·Ð²Ñĥ": 5300,
      "ÐµÑĢÐ±": 5301,
      "ÐĳÑĸ": 5302,
      "ĠÐ´Ð¾Ð²Ð³Ð¾": 5303,
      "ĠÑĦÐµÑĢ": 5304,
      "Ð»ÑİÐ´": 5305,
      "Ð»Ð¸Ð·Ñĥ": 5306,
      "ĠÐºÐ°ÑĤÐµÐ³Ð¾ÑĢÑĸÑĹ": 5307,
      "ĠÐ²Ð·Ð°ÑĶÐ¼Ð¾Ð´": 5308,
      "Ð»ÐµÑİ": 5309,
      "ĠÐ´ÑĥÑĪÑĸ": 5310,
      "ĠÐ½ÐµÐ¾Ð´": 5311,
      "ĠÐ°Ð±ÑģÐ¾Ð»ÑİÑĤÐ½Ð¾": 5312,
      "ĠÐ¾ÑģÑĤÑĢ": 5313,
      "ĠÐ¢Ð°ÐºÐ¸Ð¼": 5314,
      "ĠÐ²Ð¸Ð¼Ð¾Ð³Ð¸": 5315,
      "ĠÑĤÐ¸Ð¶Ð´ÐµÐ½ÑĮ": 5316,
      "ĠÑĸÐ½Ð¶ÐµÐ½": 5317,
      "ĠÐ¹Ð¼Ð¾Ð²ÑĸÑĢ": 5318,
      "ĠÐ´ÑĸÑİ": 5319,
      "ge": 5320,
      "ĠÑģÐ¿Ð¾Ð¶Ð¸Ð²Ð°": 5321,
      "ĠÑĢÐ°Ð·Ñĥ": 5322,
      "ĠÑģÑħÐ¸": 5323,
      "ĠÐ¿ÑĸÐ´ÑĤÐ²ÐµÑĢÐ´Ð¶": 5324,
      "ĠÐ¶ÑĸÐ½ÐºÐ°": 5325,
      "ĠÑĨÑĸÐ»Ð¾Ð¼Ñĥ": 5326,
      "ont": 5327,
      "ĠÑĪÐµ": 5328,
      "ÑıÑĤÑĤÑı": 5329,
      "Ð´Ð°Ð»Ð¸": 5330,
      "ĠÐ¿ÑĢÐ¾Ð¶Ð¸Ð²Ð°Ð½Ð½Ñı": 5331,
      "ĠÑĢÐµÐ²Ð¾Ð»Ñİ": 5332,
      "ĠÐ²Ð²Ð°Ð¶Ð°ÑİÑĤÑĮ": 5333,
      "ĠÑģÑĥÑħ": 5334,
      "ÑĪÑĥÑĶÑĤÑĮÑģÑı": 5335,
      "ĠÑģÐ¿Ð¾ÑĢÑĤ": 5336,
      "ÑĩÐ°ÑģÑĤÑĸÑĪÐµ": 5337,
      "ĠÐ½ÐµÑħÐ°Ð¹": 5338,
      "Ġde": 5339,
      "ĠÑĪÐ°Ñħ": 5340,
      "ĠÐ½ÐµÐ´Ð¾ÑģÑĤÐ°ÑĤ": 5341,
      "ĠÐ²ÑĸÐ´Ð±ÑĥÐ²ÑģÑı": 5342,
      "ÑģÑĥÐ²Ð°Ð½Ð½Ñı": 5343,
      "Ð¾Ð·Ñĥ": 5344,
      ":ĊĊ": 5345,
      "ĠÐĵÐµÐ½": 5346,
      "ÑĸÐ½Ñĥ": 5347,
      "ĠÑģÐµÑĢÐµÐ´Ð¾Ð²Ð¸ÑīÐ°": 5348,
      "ĠÐ²ÐµÐ»Ð¸ÐºÑĥ": 5349,
      "ĠÑħÐ¾ÑĩÑĥ": 5350,
      "ĠÑĢÐ¸Ñģ": 5351,
      "ĠÐ¿ÐµÑĢÑĸÐ¾Ð´Ñĥ": 5352,
      "Ð²Ð°Ð´": 5353,
      "ĠÑĤÐµÐ½": 5354,
      "-ÑĢÐµ": 5355,
      "ĠÐ¿ÑĢÐ¾ÑģÑĤÑĸ": 5356,
      "ĠÑĢÐµÐ³ÑĥÐ»ÑıÑĢ": 5357,
      "ÑĢÐ¾Ð¼Ð°Ð´": 5358,
      "ĠÐ³Ð¾Ð²Ð¾ÑĢÐ¸ÑĤÐ¸": 5359,
      "ĠÐ»ÑĸÐ²": 5360,
      "ÑĪÐ½ÑĮÐ¾Ð³Ð¾": 5361,
      "ĠÑģÐ¸ÑģÑĤÐµÐ¼Ñĸ": 5362,
      "ĠÐ´ÑĸÐ¹ÑģÐ½Ð¾": 5363,
      "ÑĪÐºÑĥ": 5364,
      "ĠÑĸÐ¼Ð¿ÐµÑĢ": 5365,
      "ĠÐ»ÑĸÐ½ÑĸÑĹ": 5366,
      "ĠÐ²Ð¸Ð¿ÑĢÐ¾Ð±": 5367,
      "ĠÐ¾ÑĤÑĢÐ¸Ð¼Ð°Ð»Ð°": 5368,
      "ĠÑģÐ¿Ð¸": 5369,
      "ÑĸÐ¹ÑģÑĮÐºÐ¸Ð¹": 5370,
      "ĠÐºÐ½Ð¸Ð¶": 5371,
      "Ð¾Ð·Ð¸ÑĤ": 5372,
      "ĠÐ¾Ð´Ð½ÑĸÑĶÑİ": 5373,
      "ĠÑĢÐµÐºÐ¾Ð¼ÐµÐ½Ð´Ð°": 5374,
      "ĠÐ°Ð¶": 5375,
      "Ġfor": 5376,
      "ĠÐ·ÐµÑĢ": 5377,
      "ÑİÑĩÐ¸Ð¹": 5378,
      "ÑĩÐµÐ½ÑĮ": 5379,
      "ĠÐ·Ð²ÐµÑĢÑĤÐ°": 5380,
      "ÑĦÐ¾Ð½": 5381,
      "%.": 5382,
      "ÑģÑĤÐ²Ñĥ": 5383,
      "ĠÐ¾Ð»Ñĸ": 5384,
      "ĠÐºÐ»ÑĥÐ±": 5385,
      "ÑĸÐ»ÑĮÐ½Ð¾": 5386,
      "Ð¢Ð¸": 5387,
      "ĠÐ·Ð°ÐºÑĸÐ½ÑĩÐµÐ½Ð½Ñı": 5388,
      "ÑĥÐ²Ð°Ð»Ð°ÑģÑı": 5389,
      "ĠÐ¿ÐµÑĢÑĪÐ¾Ð¼Ñĥ": 5390,
      "ĠÐłÐ¾ÑģÑĸÐ¹ÑģÑĮÐºÐ¾ÑĹ": 5391,
      "ĠÐ»ÑĮ": 5392,
      "ĠÑģÑĥÐ¿ÑĢÐ¾Ð²Ð¾Ð´": 5393,
      "ĠÐ½Ð°Ð³Ð¾ÑĢÐ¾Ð´": 5394,
      "ĠÐ°Ð´Ð¼ÑĸÐ½ÑĸÑģÑĤÑĢÐ°ÑĨÑĸÑĹ": 5395,
      "ĠÐ¿ÑĢÑıÐ¼": 5396,
      "ĠÑģÐµÑĢÐµÐ´Ð½Ñı": 5397,
      "ĠÐļÐ°Ð½": 5398,
      "ĠÐºÐ¾Ð¼Ð°Ð½Ð´Ð°": 5399,
      "ÐµÐ½ÐµÑĢÐ³": 5400,
      "ĠÐ¼Ð°Ð¹Ð´Ð°Ð½": 5401,
      "ÑħÐ¾Ð´ÑıÑĤÑĮÑģÑı": 5402,
      "ĠÐ½Ð°Ð²Ð¸Ñĩ": 5403,
      "Ð½Ð´": 5404,
      "ĠÐ¦ÐµÑĢÐº": 5405,
      "ÑģÑĤÐºÐ°": 5406,
      "ĠÐºÐ¾ÑĢÑĥÐ¿": 5407,
      "ĠÐĽÑĮÐ²Ð¾Ð²Ñĸ": 5408,
      "ĠÐ§ÐµÑĢÐ½ÑĸÐ³": 5409,
      "ĠÐ¼ÑĸÑģÑıÑĨÑĸ": 5410,
      "ĠÑĦÑĸÐ»ÑĮÐ¼": 5411,
      "ĠÐ°ÑĤÐ°": 5412,
      "ĠÐ±Ð°Ñģ": 5413,
      "ĠÐ¾ÑĢÐ³Ð°Ð½Ð¸": 5414,
      "ĠÑĢÐ¸Ð±": 5415,
      "ĠÐ¾Ð·Ð½Ð°Ð¹Ð¾Ð¼": 5416,
      "ĠÐ¿Ð¾Ð½": 5417,
      "ĠÐ¾ÑĨÑĸÐ½Ñİ": 5418,
      "ĠÐ°ÑģÐ¾ÑĨÑĸ": 5419,
      "ĠÐ´ÑĢÑĥÐ³Ð¸Ð¹": 5420,
      "ich": 5421,
      "ĠÑģÐ»Ð°Ð±": 5422,
      "ĠÐ¼Ð¾ÑĢÑı": 5423,
      "ĠÑĢÐ¾ÑģÑĤ": 5424,
      "ĠÑĩÐ¾Ð»Ð¾Ð²ÑĸÐºÑĸÐ²": 5425,
      "ĠÑĦÐ¾Ð½Ð´Ñĥ": 5426,
      "ĠÐ²Ð¸ÑħÐ¾Ð²Ð°Ð½Ð½Ñı": 5427,
      "ÑĢÐ¾Ð¿ÐµÑĤÑĢÐ¾Ð²": 5428,
      "ĠÐ²Ð¸Ð½Ð°": 5429,
      "ĠÐ²Ð²Ð°Ð¶Ð°ÑĶÑĤÑĮÑģÑı": 5430,
      "ĠÐ³Ð¾Ð»Ð¾Ð²Ð½Ð¸Ð¹": 5431,
      "ĠÑĥÑıÐ²": 5432,
      "ĠÐ´Ð¾Ð´Ð°Ð²": 5433,
      "ĠÐ²Ð¸Ð½Ð¸ÐºÐ½ÐµÐ½Ð½Ñı": 5434,
      "ĠÐ¾ÐºÑĢÑĥ": 5435,
      "ÐºÐ¾Ð²Ð¸Ð¼": 5436,
      "ĠÑĪÐ°Ð½": 5437,
      "ĠÐ¿Ð¾Ð±Ð°Ð¶": 5438,
      ".ÐŁ": 5439,
      "ĠÐĹÐľÐĨ": 5440,
      "ĠÐ²ÑĸÐ´ÑģÑĥÑĤÐ½ÑĸÑģÑĤÑĮ": 5441,
      "ĠÐ¢Ð°ÑĢÐ°": 5442,
      "ÑĤÑĥÑĢ": 5443,
      "ĠÐ³Ð°ÑĢÑı": 5444,
      "ĠÐ¿ÐµÑĢÐµÐºÐ¾Ð½": 5445,
      "Ð¼ÐµÐ½Ð¸": 5446,
      "Ð»ÐµÐºÑĤÑĥ": 5447,
      "ĠÐĳÑĢÐ¸ÑĤÐ°Ð½": 5448,
      "ĠÑĪÐ²Ð¸Ð´ÑĪÐµ": 5449,
      "Ð¿Ð°Ð´": 5450,
      "ĠÐŁÑĢÐ°Ð²": 5451,
      "ĠÑħÐ²Ð¾ÑĢÐ¾Ð±Ð¸": 5452,
      "-ÑĤ": 5453,
      "ĠÐ²ÐµÑģÐµ": 5454,
      "ĠÐĹÐ°ÑħÑĸÐ´": 5455,
      "ĠÐ¾Ð±Ð»ÑĸÐºÑĥ": 5456,
      "Ð°Ð·Ð¾Ð¼": 5457,
      "ĠÐ¿Ð¾Ð²ÐµÑĢÐ½ÐµÐ½Ð½Ñı": 5458,
      "ĠÐ¿ÑĢÐ¾Ð´ÑĥÐºÑĤÐ¸": 5459,
      "one": 5460,
      "ĠÐ¼ÑĸÑģÑĨÑĮ": 5461,
      "ÑĢÐ¾Ð¹Ð½Ð¸Ñħ": 5462,
      "Ð¾ÑĢÐ´Ð¾Ð½": 5463,
      "ĠÐ·Ð°ÑģÑĤ": 5464,
      "ĠÑģÑĤÐ¾": 5465,
      "Ð°Ð±Ð¾ÑĢÐ°ÑĤÐ¾ÑĢ": 5466,
      "Ð¾ÑĩÐµ": 5467,
      "ĠÐ·Ð±ÐµÑĢÐµÐ¶ÐµÐ½Ð½Ñı": 5468,
      "ect": 5469,
      "ÑĥÐ²Ð°Ñĩ": 5470,
      "ÑĪÑĤÑĥÐ²Ð°Ð½Ð½Ñı": 5471,
      "ĠÐ¶Ð¸ÑĤÐ¸": 5472,
      "ĠÐ·Ð°ÑĨÑĸ": 5473,
      "ĠÐ¢ÐµÑĢÐ½Ð¾Ð¿ÑĸÐ»ÑĮ": 5474,
      "ÑĩÐµÐ²Ð¸Ð´": 5475,
      "ĠÐ²ÐºÐ»Ð°Ð´": 5476,
      "ĠÐĦÐ²ÑĢÐ¾Ð¿Ñĸ": 5477,
      "ĠÐ·ÑĥÐ±": 5478,
      "ĠÐ¿ÑĢÐ¾ÐºÑĥÑĢÐ°ÑĤÑĥ": 5479,
      "ĠÑģÐ¿ÐµÑĨÑĸÐ°Ð»ÑĸÐ·": 5480,
      "Ð½ÐµÑĨÑĮ": 5481,
      "ĠÐ¿ÑĢÐ¸ÑĩÐ¸Ð½Ð¸": 5482,
      "ÑĨÐ¸Ðº": 5483,
      "ĠÑĸÑģÑĤÐ¾ÑĢÑĸÑı": 5484,
      "ĠÑģÐ»Ð¾Ð²Ð¾": 5485,
      "ÑģÑĤÐ°Ð½Ð½Ñĸ": 5486,
      "ĠÐ²ÑģÑı": 5487,
      "ĠÐ·Ð°ÐºÐ¾Ð½Ð¾Ð¿ÑĢÐ¾": 5488,
      "ÑĤÐ¸ÑģÑĮ": 5489,
      "ĠÐ¿Ð¾Ð¼ÑĸÑĩ": 5490,
      "ĠÑĤÐ°Ð±Ð»Ð¸": 5491,
      "ÑĩÐ°Ð½": 5492,
      "ĠÐ´Ð¾Ð±Ñĥ": 5493,
      "'s": 5494,
      "ĠUn": 5495,
      "Ð°Ð»ÑĸÑı": 5496,
      "ĠÐ½Ð°Ð²ÐºÐ¾Ð»Ð¸": 5497,
      "ĠÑģÑĨÐµÐ½": 5498,
      "ĠÐ»Ð°Ð½": 5499,
      "ĠÑĤÐ¾ÑĩÐºÐ¸": 5500,
      "ĠÐ¾Ð¿ÐµÑĢÐ°ÑĨÑĸÐ¹": 5501,
      "Ð¾Ð´Ð½Ñĸ": 5502,
      "ĠÐ²ÐµÐ±": 5503,
      "ĠÑĢÐ¾Ð·Ð¼ÑĸÑĢ": 5504,
      "Ð¾ÑģÑĤÐ°": 5505,
      "ÐµÐºÐ¾Ð½Ð¾Ð¼ÑĸÑĩ": 5506,
      "ĠÐ¿Ð¾Ð±Ð°ÑĩÐ¸ÑĤÐ¸": 5507,
      "....": 5508,
      "Ð±Ð¸ÑĢÐ°ÑĤÐ¸": 5509,
      "ÑĨÐ°": 5510,
      "ÑĢÐ¸Ð¼": 5511,
      "Ð±Ð»ÑĸÐ²": 5512,
      "ÐºÑĨÑĸÐ¹": 5513,
      "ĠÑĢÐµÐ¶Ð¸Ñģ": 5514,
      "ĠÑĸÐ½Ð´": 5515,
      "(Ð²ÑĸÐ´": 5516,
      "ÐļÐ£": 5517,
      "ĠÐ²Ð½ÑĥÑĤÑĢÑĸÑĪÐ½ÑĸÑħ": 5518,
      "ĠÐ¿Ð¾Ð·Ð¸ÑĨÑĸÑĹ": 5519,
      "ĠÐ©Ðµ": 5520,
      "ĠÑģÑĤÐ¸Ð¼Ñĥ": 5521,
      "ĠÑĥÑģÑĥ": 5522,
      "ĠÐ§Ð°": 5523,
      "ĠÑĤÐ°ÐºÐ¸Ð¼Ð¸": 5524,
      "ĠÐ¼Ð°Ð¹Ð½Ð°": 5525,
      "Ð»Ð¸Ð½Ð°": 5526,
      "ĠÑģÐ»ÑĥÑħ": 5527,
      "ĠÐ²Ð¾Ð»Ñĸ": 5528,
      "ĠÑģÐµÐºÑĢÐµÑĤÐ°ÑĢ": 5529,
      "ĠÐ¿ÑĢÐ¾Ñħ": 5530,
      "ĠÐºÐ¾Ð½ÑĨÐµÐ¿": 5531,
      "ĠÑĦÐ°ÐºÑĥÐ»ÑĮ": 5532,
      "Ð¶ÑĥÐ²Ð°ÑĤÐ¸": 5533,
      "of": 5534,
      "ĠÐ½ÐµÐ¾Ð±ÑħÑĸÐ´Ð½Ñĸ": 5535,
      "ĠÐ¿Ð°Ðº": 5536,
      "ÑĸÐ¹ÑģÑĮÐºÐ°": 5537,
      "ĠÐ»ÑİÐ´ÑıÐ¼": 5538,
      "ĠÐ·Ð±ÐµÑĢÑĸÐ³Ð°Ð½Ð½Ñı": 5539,
      "ĠÐ·Ð°Ð¼ÑĸÑģÑĤÑĮ": 5540,
      "ĠÐ·Ð½Ð°ÑĤÐ¸": 5541,
      "ĠPro": 5542,
      "ĠÐ´ÑĢÑĥÐ³Ð¾Ð³Ð¾": 5543,
      "ĠÑĤÐµÑģÑĤ": 5544,
      "ĠÑģÐºÐ¾ÑĢÐ¾Ñĩ": 5545,
      "ĠÐ¿Ð¾ÑĢÐ°": 5546,
      "ĠÐ¾Ð±ÑģÑı": 5547,
      "ĠÐĽÑĥÐ³Ð°Ð½": 5548,
      "Ð½ÑĭÐµ": 5549,
      "ĠÐ¿Ð¾ÑĪÐ¸ÑĢ": 5550,
      "ĠÑģÐ¾ÑĨÑĸÐ°Ð»ÑĮÐ½Ð¾Ð³Ð¾": 5551,
      "ĠÐ²ÑģÑĮÐ¾Ð¼Ñĥ": 5552,
      "ĠÐ½Ð°ÑĨÑĸÐ¾Ð½Ð°Ð»ÑĮÐ½Ð¾Ð³Ð¾": 5553,
      "Ð³ÑĢÐµ": 5554,
      "ÑģÐ¾": 5555,
      "ĠÐ¿ÑĢÐ¾Ð²Ð¾Ð´Ð¸ÑĤÑĮÑģÑı": 5556,
      "ĠÐ´ÐµÐºÐ»Ð°": 5557,
      "ĠÐĹÐ¾ÐºÑĢÐµÐ¼Ð°": 5558,
      "ĠÐ¿Ð°ÑĤÑĢÑĸ": 5559,
      "ĠÐ²ÑĸÐ´Ð±ÑĥÐ´ÐµÑĤÑĮÑģÑı": 5560,
      "Ð¾Ð±ÑĥÐ´": 5561,
      "ÑĪÐ¾ÑĹ": 5562,
      "Ð¾ÑĢÐ¾Ð´Ð¸": 5563,
      "ĠÐµÐºÑĢÐ°": 5564,
      "ĠÐ¿Ð°ÑģÐ°Ð¶": 5565,
      "ÐŀÑĤ": 5566,
      "ĠÐ¿Ð¾Ð´Ð¸": 5567,
      "ĠÐ¿Ð°Ð¼'ÑıÑĤ": 5568,
      "ĠÐ´ÑĸÐ°Ð³Ð½Ð¾": 5569,
      "ĠÐ¿Ð¾Ð´Ð°ÑĤÐºÑĸÐ²": 5570,
      "-Ð¤ÑĢÐ°Ð½ÐºÑĸÐ²": 5571,
      "ĠÐĨÐ½ÑģÑĤÐ¸ÑĤÑĥ": 5572,
      "Ð°ÑĢÐ´": 5573,
      "Ð¾ÑĩÑĸ": 5574,
      "ĠÐ¾Ð²Ð¾": 5575,
      "ĠÐ²Ð±Ð¸Ð²": 5576,
      "Ð¿ÑĸÐ´": 5577,
      "ÐºÑĨÑĸÑİ": 5578,
      "ÑĩÐ¾ÑģÑĤÑĸ": 5579,
      "ĠÐ´ÑĸÐ»ÑıÐ½ÐºÐ¸": 5580,
      "ĠÑĢÐ¾Ð´Ñĥ": 5581,
      "ĠÐ¿ÑĢÐ¾ÑĦÐµ": 5582,
      "sp": 5583,
      "ĠÑĸÐ½ÑĦÑĢÐ°ÑģÑĤÑĢÑĥ": 5584,
      "ĠÐ¿Ð¾ÑĢÑıÐ´Ð¾Ðº": 5585,
      "Ð½Ð°ÑĤÐ¾Ð»": 5586,
      "Ð»Ð°ÑĤÑĥ": 5587,
      "Ð½ÑĭÐ¹": 5588,
      "ĠÑĩÐµÑģÑĤÑĮ": 5589,
      "ÑĢÐ¸Ð½": 5590,
      "ĠÐ³Ð¾Ð´": 5591,
      "ĠÑħÐ¾Ð´Ñĸ": 5592,
      "ĠÐŁÑĢÐµÐ·Ð¸Ð´ÐµÐ½ÑĤÐ°": 5593,
      "ĠÐ´ÐµÑĢÐ¶Ð°": 5594,
      "ĠÐ²Ð¾Ð´Ð¾Ñİ": 5595,
      "Ð¼Ð°Ð¹": 5596,
      "ÐŁÑĢ": 5597,
      "ÐŁÑĢÐµ": 5598,
      "ÑĤÐµÑģÑı": 5599,
      "ĠÐ¿Ð¾ÑģÐ°Ð´Ñĥ": 5600,
      "ĠÑĶÐ²ÑĢÐ¾": 5601,
      "ĠÐ½Ð¾Ð²Ð¾ÑĹ": 5602,
      "ĠÐ¾Ð´Ð½Ð¾ÑĩÐ°ÑģÐ½Ð¾": 5603,
      "ÐĿÐ¯": 5604,
      "ĠÐºÐ¾Ð½ÐºÑĥÑĢÑģ": 5605,
      "ĠÑģÐµÑĢÑĤÐ¸": 5606,
      "ĠÐ²ÑĸÐ´Ð³Ñĥ": 5607,
      "ĠÐŀÑĢ": 5608,
      "ĠÐ³ÑĸÐ¿": 5609,
      "ĠÑģÐ¸Ð»Ñĥ": 5610,
      "ĠÐ½ÐµÐ¾Ð±ÑħÑĸÐ´Ð½Ð¾ÑģÑĤÑĸ": 5611,
      "ĠÐ»ÑĸÐºÐ°ÑĢÑı": 5612,
      "Ð¦ÐµÐ¹": 5613,
      "ĠÐ·Ð°ÐºÐ»Ð¸": 5614,
      "ĠÐ²ÑĸÐ´Ð¾Ð¼Ð¸Ð¹": 5615,
      "Ð²ÑĸÑĤÐ¸": 5616,
      "Â«Ð¤": 5617,
      "ĠÐ¡Ð°Ð½": 5618,
      "ĠÑĤÐ°ÐºÐ¾Ð¼Ñĥ": 5619,
      "ĠÐŀÐ»ÑĮ": 5620,
      "ĠÐºÑĸÐ»ÑĮÐºÐ¾Ñħ": 5621,
      "Ð½Ð¾ÑĢ": 5622,
      "Ð²Ð°Ð½Ð¸Ñħ": 5623,
      "ÑĤÐµÐ»ÑĮÐ½Ð¾": 5624,
      "ĠÐ½ÐµÑĢÑĥ": 5625,
      "ĠÐ¿Ð¾ÑĩÑĥÑĤÑĤÑı": 5626,
      "ĠÐ´Ð¾ÑģÑĤ": 5627,
      "The": 5628,
      "Ð°Ð»ÑĸÐ¹": 5629,
      "ĠÑģÑĤÐ°ÑĤÑĥÑģ": 5630,
      "ĠÐ½Ð°Ð¿Ð¾Ð²": 5631,
      "ĠÐ¿Ð°Ð»ÑĮ": 5632,
      "ĠÑĥÐ½Ð¸Ðº": 5633,
      "ÑıÑĤ": 5634,
      "ĠÐłÐ¾Ð¼Ð°Ð½": 5635,
      "ĠÐ²ÐºÐ»ÑİÑĩÐ°ÑĶ": 5636,
      "ĠÐ²Ð¸ÐºÐ»Ð¸Ðº": 5637,
      "ĠEn": 5638,
      "ĠÐ¿ÑĢÐµÐºÑĢÐ°Ñģ": 5639,
      "ĠÑĩÑĥÑĤ": 5640,
      "Ð°Ð¶ÑĥÑĤÑĮ": 5641,
      "ĠÐ¾Ð±Ð¼ÐµÐ¶ÐµÐ½Ð½Ñı": 5642,
      "ĠÐ°Ð¿Ðµ": 5643,
      "ĠÑĢÐµÐ·ÑĥÐ»ÑĮÑĤÐ°ÑĤÑĸÐ²": 5644,
      "ĠÐ´Ð²Ð¾Ð¼Ð°": 5645,
      "ĠÑĤÑıÐ¶": 5646,
      "ĠÐ¾Ð¿Ð¸": 5647,
      "ĠÐ¿ÑĢÐ¾Ð´ÑĥÐºÑĤÐ¸Ð²": 5648,
      "ĠÑģÑĤÐ¾ÑģÑĥÐ½": 5649,
      "Ð¾ÑĩÐºÐ¸": 5650,
      "ĠÐ·Ð½Ð°ÑĶ": 5651,
      "Ð¾Ð¼Ð¸ÑĢ": 5652,
      "ĠÐ²Ð¸Ð¼Ð°Ð³Ð°ÑĶ": 5653,
      "ĠÐ´ÑĥÐ¼ÐºÐ¸": 5654,
      "ÑĪÐ°Ð½": 5655,
      "ĠÐ½Ð°Ð¼Ð¸": 5656,
      "ost": 5657,
      "ĠÐ·Ð°ÐºÑĥÐ¿": 5658,
      "Ð¶ÐµÐ½Ð½Ñĸ": 5659,
      "ĠÑģÐ¿ÐµÑĨ": 5660,
      "ĠÐ¿Ð¾ÑĹÐ·Ð´": 5661,
      "ĠÑģÑĥÑĩÐ°ÑģÐ½Ð¸Ñħ": 5662,
      "ĠÐ¾Ð±ÑģÑĤÑĢÑĸ": 5663,
      "Ð°Ð½ÑĸÑĪÐµ": 5664,
      "ĠÐ¿ÑĢÐ°Ð²Ð¸Ð»Ð°": 5665,
      "ÑģÑĤÑıÑħ": 5666,
      "ĠÑģÐ¸Ð³Ð½": 5667,
      "ĠÑģÐºÐ»": 5668,
      "ĠÑĥÑĢÐ°Ñħ": 5669,
      "ĠÐ¿ÑĢÐ¾Ð´ÑĥÐºÑĤ": 5670,
      "ĠÐ»ÑİÐ´ÑĮÐ¼Ð¸": 5671,
      "ate": 5672,
      "ĠÐĶÐ¾Ð½Ð±Ð°Ñģ": 5673,
      "ĠÐ²Ð¸Ð±ÑĢÐ°ÑĤÐ¸": 5674,
      "ÐµÑĢÐºÐ¾Ð²": 5675,
      "ĠÐ´Ð°Ð²Ð½Ð¾": 5676,
      "Ð³Ðµ": 5677,
      "ĠÐ¿Ð¾Ð´Ð°ÑĤÐºÑĥ": 5678,
      "ĠÑĢÑĸÐ·Ð½Ð¸Ð¼Ð¸": 5679,
      "ĠÐ·Ð°ÑģÑĥ": 5680,
      "ĠÑĸÐ¼ÐµÐ½": 5681,
      "ÑīÐµÐ½Ð¸Ð¹": 5682,
      "ĠÐ½Ð¸Ð¶ÑĩÐµ": 5683,
      "ĠÑĪÐºÐ¾Ð»Ð°": 5684,
      "ĠÑĤÐ¾ÑĢÐ³ÑĸÐ²Ð»Ñĸ": 5685,
      "ĠÐ¡ÑĤÐ°ÑĢ": 5686,
      "ĠÐ·Ð°ÐºÐ»Ð°Ð´Ñĥ": 5687,
      "ĠÐµÐºÑģÐ¿ÐµÑĢÐ¸": 5688,
      "(Ð·Ð°": 5689,
      "ĠÐºÑĥÐ´Ð¸": 5690,
      "ĠÐ¿ÑĥÐ±Ð»ÑĸÐºÐ°": 5691,
      "Ð¹Ð½Ñĥ": 5692,
      "ĠÐ¿Ð¾ÑģÑĤÑĢÐ°Ð¶": 5693,
      "ĠÑģÐ¸ÑĤÑĥÐ°ÑĨÑĸÑİ": 5694,
      "ĠÐ¤ÐµÐ´ÐµÑĢÐ°ÑĨÑĸÑĹ": 5695,
      "Ð¾ÐºÐ¾Ð»": 5696,
      "ne": 5697,
      "ĠÐ²Ð¸ÑģÑĤÐ°": 5698,
      "ĠÐ¿Ð¾Ð²ÑĸÐ´Ð¾Ð¼Ð¸Ð»Ð¸": 5699,
      "ĠÑĸÐ½ÑĪÐµ": 5700,
      "Ð¾Ð²Ð°Ð½Ð¸Ð¼": 5701,
      "ĠÐ¿ÑĢÐ¾Ð·": 5702,
      "ĠÐºÐ¾Ð¼ÐµÑĢ": 5703,
      "ĠÐ´Ð¾ÑģÑĤÐ°ÑĤÐ½ÑĮÐ¾": 5704,
      "ĠÑģÐ¿Ð¾Ð´ÑĸÐ²": 5705,
      "ÑĩÐ¸Ð·Ð½Ñı": 5706,
      "ĠÐ¾ÑĦÑĸÑĨÑĸÐ¹": 5707,
      "ĠÐ³Ð»Ñı": 5708,
      "Ð½ÐµÐ½Ð½Ñĸ": 5709,
      "ĠÑĤÐµÐ¼Ñĥ": 5710,
      "ĠÐ²ÑĸÐ´ÑĩÑĥÑĤÑĤÑı": 5711,
      "ÑĥÐ²Ð°Ð»ÑĮ": 5712,
      "ĠÐ²ÑĸÐ´Ð¾Ð±ÑĢÐ°Ð¶": 5713,
      "ĠÑĸÐ½Ð½Ð¾Ð²Ð°": 5714,
      "ĠÐĹÐµÐ»ÐµÐ½": 5715,
      "Ã©": 5716,
      "ĠÐĨÑĤÐ°Ð»": 5717,
      "ĠÑĥÐºÑĢÐ°ÑĹÐ½ÑģÑĮÐºÑĸ": 5718,
      "Ð·Ñı": 5719,
      "____": 5720,
      "Ð±ÑĥÐ´ÑĮ": 5721,
      "ĠÐ´Ð¶ÐµÑĢÐµÐ»Ð°": 5722,
      "ĠÐºÐ¾Ð¼Ð¿Ð°Ð½ÑĸÐ¹": 5723,
      "ĠÐ²Ð¾Ð»Ð¾Ð´": 5724,
      "ĠÑĤÐ°ÑĢÐ¸": 5725,
      "ĠÐ±Ð»Ð°Ð³Ð¾Ð´": 5726,
      "Ð»Ð¾Ð¼Ñĥ": 5727,
      "ÑĦÑĸÐ»ÑĮ": 5728,
      "ele": 5729,
      "ÑĸÐ¿": 5730,
      "ĠÐ»ÑĸÐºÐ°ÑĢÐ½Ñĸ": 5731,
      "Â·": 5732,
      "ĠÐ´Ð¾ÑģÑĸ": 5733,
      "ĠÑĢÐ¾Ð·ÑģÐ»ÑĸÐ´ÑĥÐ²Ð°Ð½Ð½Ñı": 5734,
      "ĠÐ´Ð¸Ñħ": 5735,
      "ĠÐ¿Ð¾Ð³Ð»Ñı": 5736,
      "ĠÐ¿Ð¾ÑģÐ»ÑĸÐ´": 5737,
      "ĠÐ·Ð¼ÑĸÑĨ": 5738,
      "ĠÐ´Ð½ÐµÐ¼": 5739,
      "ĠÐ³ÑĢÑĸ": 5740,
      "Â«Ð§": 5741,
      "ĠÐłÐ¾ÑģÑĸÑı": 5742,
      "end": 5743,
      "ĠÐµÐºÑģÐ¿Ð»ÑĥÐ°ÑĤ": 5744,
      "act": 5745,
      "ĠÐºÐ¾ÑĢÐ¸ÑģÑĤÑĮ": 5746,
      "ĠÑĤÐ°ÑĶÐ¼": 5747,
      "ĠÐºÐ¾Ð½ÑĨÐµÐ½ÑĤ": 5748,
      "ĠÐ¿Ð»Ð¾ÑīÑĸ": 5749,
      "Ġre": 5750,
      "ĠÑĥÑĢÐ¾": 5751,
      "ĠÐµÐ½ÐµÑĢÐ³Ðµ": 5752,
      "ĠÐ°ÐºÑĤ": 5753,
      "ÐºÐ¾Ð²Ð¾Ñİ": 5754,
      "ÐºÐ¾Ð»Ð°": 5755,
      "ĠÑģÐ¿ÐµÑĨÐ¸": 5756,
      "ĠÑĤÐ²Ð¾ÑĢÐ¸": 5757,
      "Ð¾Ð»Ð¾Ð³ÑĸÑĩÐ½Ð¾ÑĹ": 5758,
      "ĠÐ¿ÑĢÐ¾Ð¿Ð¾Ð·Ð¸ÑĨÑĸÑĹ": 5759,
      "ĠÑĹÐ¶Ñĸ": 5760,
      "ĠÐ°Ð½Ð°Ð»ÑĸÐ·Ñĥ": 5761,
      "ĠÐ¿ÑĢÐ¸Ð±": 5762,
      "-Ðĳ": 5763,
      "ĠÐ½ÐµÐ¿Ð¾Ð²": 5764,
      "ĠÐ±ÑĥÐº": 5765,
      "Ð¾Ð²ÑĥÑĶ": 5766,
      "ĠÑģÐ²ÑıÑĤÐ°": 5767,
      "ĠÐ·Ð°Ð¿Ð¸ÑĤÐ°Ð½Ð½Ñı": 5768,
      "ĠÐ·Ð²ÑĸÐ»ÑĮÐ½ÐµÐ½Ð½Ñı": 5769,
      "ĠÑĦÑĸÐº": 5770,
      "Ð¾Ð¼ÑĸÑģÑĤÑĮ": 5771,
      "ĠÑģÐ¾ÑĨÑĸÐ°Ð»ÑĮÐ½Ð¾": 5772,
      "ĠÐ¢Ð°Ð¼": 5773,
      "ĠÐ³Ð¾ÑĤÐ¾Ð²Ñĸ": 5774,
      "ĠÐ¿ÑĢÐ¸Ð¿Ñĥ": 5775,
      "ĠÑģÐµÑĢÑĸ": 5776,
      "ÑĤÑĸÐ¼": 5777,
      "ĠÐ¿ÑĢÐ¸Ð¹Ð¾Ð¼": 5778,
      "Ð³Ð¾Ñİ": 5779,
      "ĠÐ±Ð¾Ð»": 5780,
      "Ð¾Ð¿ÐµÑĢÐ°": 5781,
      "Â«ÐĿÐ°": 5782,
      "ĠÑĥÐ½ÑĸÐ²ÐµÑĢÑģÐ¸ÑĤÐµÑĤ": 5783,
      "Ð¼Ð°Ñİ": 5784,
      "Ð±ÑĸÑĤ": 5785,
      "ĠÐľÐ¸ÐºÐ¾Ð»Ð°ÑĹÐ²": 5786,
      "ĠÐ±ÑĥÑĢ": 5787,
      "ĠÐºÑĸÑģÑĤ": 5788,
      "ĠÐºÐ»ÑĥÐ±Ñĥ": 5789,
      "ĠÐŁÐ¾Ð»Ñĸ": 5790,
      "ĠÐ²ÑĸÐ´Ð¿Ð¾ÑĩÐ¸Ð½ÐºÑĥ": 5791,
      "ĠÐ¿ÑĸÑģÐ½Ñĸ": 5792,
      "ĠÐºÐµÑĢÑĸÐ²Ð½Ð¸Ðº": 5793,
      "ĠÐ¿Ð¾Ð²Ð½Ð¾": 5794,
      "Ð½Ð¸ÑĨÑĤÐ²Ñĸ": 5795,
      "ÑĸÐ²ÐºÐ¸": 5796,
      "ÐĽÐ¬": 5797,
      "ĠÐ²Ð°ÑĪÐ¾Ð³Ð¾": 5798,
      "ĠÑģÐ¿ÑĸÐ»ÐºÑĥÐ²Ð°Ð½Ð½Ñı": 5799,
      "ĠÑĤÐ¾Ð²Ð°ÑĢÑĥ": 5800,
      "!!": 5801,
      "ĠÐ³Ð¾Ð»Ð¾Ð²Ð½Ð¾Ð³Ð¾": 5802,
      "Ð²Ð¾ÑĢÐ¾ÑĤ": 5803,
      "ĠÐ»Ñĥ": 5804,
      "ĠÐ±Ð°Ð½Ðº": 5805,
      "ÑİÑĢ": 5806,
      "ĠÐ¢ÐŀÐĴ": 5807,
      "ĠAl": 5808,
      "ĠÐ¼Ð°Ð½": 5809,
      "ĠÐ±ÑĢÐ¸ÑĤÐ°Ð½": 5810,
      "ust": 5811,
      "ĠÐ¿Ð°ÑĢÐ°Ð¼ÐµÑĤ": 5812,
      "ĠÐ½Ð°ÑĢÐ°": 5813,
      "ÐŁÐŀ": 5814,
      "ĠÐ¿'ÑıÑĤÐ¸": 5815,
      "ĠÐ°Ð³ÑĢÐµ": 5816,
      "ÑĸÐ³ÑĢÐ°": 5817,
      "Ġr": 5818,
      "Ð½ÑĸÑİ": 5819,
      "Ð»Ð¸Ð²Ð¸Ð¼Ð¸": 5820,
      "ĠÐ·Ð°ÑħÐ¾Ð´Ñĥ": 5821,
      "ĠÐ¿Ð°Ð»": 5822,
      "ĠÐ²Ð¸Ð¿ÑĢÐ°Ð²": 5823,
      "ĠÑĦÐ¾ÑĢÐ¼Ð°": 5824,
      "ĠÐ²Ð¸Ð´Ð°ÑĤ": 5825,
      "ÑģÑĤÐ°Ð¼Ð¸": 5826,
      "ĠÐ½Ð¾Ð²Ð¸Ð½Ð¸": 5827,
      "ĠÐºÐ»ÑĸÑĶÐ½ÑĤÑĸÐ²": 5828,
      "ĠÐ²ÑĸÐ¹ÑģÑĮÐºÐ¾Ð²": 5829,
      "ĠÑĸÐ½ÑĦÐ¾ÑĢÐ¼Ð°ÑĨÑĸÑĶÑİ": 5830,
      "ĠÑĢÐµÐ³ÑĥÐ»ÑİÐ²Ð°Ð½Ð½Ñı": 5831,
      "ĠÐ½Ð°Ð²Ð°Ð½ÑĤÐ°Ð¶ÐµÐ½Ð½Ñı": 5832,
      "ÐĿÐł": 5833,
      "ĠÐ¿Ð¾ÑĩÐ°ÑĤÐ¾Ðº": 5834,
      "Ð»Ð¾Ð½": 5835,
      "ĠÐ½Ð¾Ð²Ñĥ": 5836,
      "ÑĪÐ¾Ð¼Ñĥ": 5837,
      "ĠÐ°Ð²Ð°": 5838,
      "ĠÐ½Ð¾Ð¼ÐµÑĢ": 5839,
      "ĠÐ²Ð¸Ð·Ð½Ð°ÑĩÐ¸ÑĤÐ¸": 5840,
      "Ð´ÑĥÐ²Ð°ÑĤÐ¸": 5841,
      "ĠÐ½Ð°ÑĢÐµ": 5842,
      "-ÑģÐ»ÑĥÐ¶": 5843,
      "ish": 5844,
      "ÑıÑĢ": 5845,
      "ĠÑĤÐ¸Ð¶Ð½Ñı": 5846,
      "ÑĩÐ¸Ñģ": 5847,
      "Ð¶ÐµÑĤ": 5848,
      "ÑĸÐ¹ÑģÑĮÐºÐ¸Ñħ": 5849,
      "ĠÐ¿Ð°Ð´": 5850,
      "ĠÐ¿Ð¾Ð»Ð¸": 5851,
      "ment": 5852,
      "ĠÐĲÐ¢Ðŀ": 5853,
      "ĠÐĶÑĢÑĥÐ³": 5854,
      "ÐºÐ¾Ð²Ð°Ð½Ñĸ": 5855,
      "ĠÑģÐ¾ÑĨÑĸÐ°Ð»ÑĮÐ½Ð¾ÑĹ": 5856,
      "ĠÑĢÐµÑĩÐ¾Ð²Ð¸Ð½Ð¸": 5857,
      "ĠÐ±ÑĥÐ´ÑĸÐ²Ð»Ñĸ": 5858,
      "ÑıÐ½Ð°": 5859,
      "ĠÑĸÐ¼Ñĥ": 5860,
      "Ð°ÑħÐ¸": 5861,
      "ĠÑĥÑģÐºÐ»Ð°Ð´": 5862,
      "ĠÐ½ÐµÐ¼Ð¾Ð¶Ð»Ð¸Ð²Ð¾": 5863,
      "Ð¾ÑĢÐ³Ð°Ð½ÑĸÐ·": 5864,
      "ĠÐ¿ÑĢÐµÐ´Ð¼Ðµ": 5865,
      "ĠÑĤÐµÐºÑģÑĤ": 5866,
      "ĠÑħÐ»Ñĸ": 5867,
      "ĠÐ°Ð´Ð²Ð¾Ðº": 5868,
      "ÑģÐºÑĸÐ»ÑĮÐºÐ¸": 5869,
      "Ð»ÑĮÐ½ÑĸÑģÑĤÑĮ": 5870,
      "ÑĸÐ»ÑĮÐºÑĸÑģÑĤÑĮ": 5871,
      "ĠÐµÐ»ÐµÐ¼ÐµÐ½ÑĤÑĸÐ²": 5872,
      "ĠÐ·Ð°Ð³ÑĢÐ¾Ð·": 5873,
      "Ð²Ð°Ð¶Ð»Ð¸Ð²Ñĸ": 5874,
      "ĠÐ¼ÑĸÑģÑĨÑıÑħ": 5875,
      "ÑĸÑĩÐ½Ð°": 5876,
      "Ð±Ð¸ÑĤ": 5877,
      "ĠÐ½Ð°ÑĪÐ°": 5878,
      "ĠÑģÑĤÐ°Ð´": 5879,
      "ĠÐľÐµ": 5880,
      "ÑĢÑĸÑģ": 5881,
      "].": 5882,
      "ĠÐ¾ÑĨÑĸÐ½ÐºÐ¸": 5883,
      "ĠÐĨÐ²Ð°Ð½Ð¾": 5884,
      "ĠÐ²Ð¶Ð¸": 5885,
      "ĠÐ¼ÐµÐ½ÐµÐ´Ð¶": 5886,
      "ÐµÐºÑģÐ¸": 5887,
      "ĠÐ¼ÑĸÐ¹": 5888,
      "ĠÐ·Ð²ÐµÑĢÐ½ÐµÐ½Ð½Ñı": 5889,
      "ÑģÑĤÑĢÐ¾Ñİ": 5890,
      "ĠÐ·Ð°Ð¿Ð¸ÑĤ": 5891,
      "ĠÐ·Ð½Ð°ÑħÐ¾Ð´ÑıÑĤÑĮÑģÑı": 5892,
      "ĠÐ¡ÑħÑĸÐ´": 5893,
      "Ð´Ð°Ð¿": 5894,
      "ĠÑĪÐºÑĸÐ´": 5895,
      "ĠÑģÑĤÐ°ÑĤÑĥ": 5896,
      "ĠÐ²Ð·ÑıÐ»Ð¸": 5897,
      "Ð¶ÐµÐ½Ð¸Ñħ": 5898,
      "ÐºÐ¾Ð²Ð¾Ð¼Ñĥ": 5899,
      "ĠÐĿÐ°ÑĨÑĸÐ¾Ð½Ð°Ð»ÑĮÐ½Ð¾ÑĹ": 5900,
      "ĠÐ°Ð³ÐµÐ½ÑĤ": 5901,
      "ĠÑĥÑģÐµ": 5902,
      "ĠÐ¾Ð±ÑĸÑĨÑı": 5903,
      "ÑĤÑĥÐ²Ð°Ð²": 5904,
      "Ð»Ð°ÑĤÐ°": 5905,
      "ĠÑģÑĤÐ¸Ð»Ñĸ": 5906,
      "ĠÑģÐ»ÑĸÐ²": 5907,
      "ĠÐ¼Ð°ÑĤÐµ": 5908,
      "ĠÐ¿Ð¾ÐºÑĢÐ¸ÑĤÑĤÑı": 5909,
      "ĠÐºÐ¾Ð¶Ð½Ð¾ÑĹ": 5910,
      "ĠÐ¾Ð±'ÑĶÐºÑĤÐ¸": 5911,
      "ĠÐ±ÑĸÐ´": 5912,
      "ĠÐ¿Ð¾ÑģÐµÐ»ÐµÐ½Ð½Ñı": 5913,
      "ĠÐ·Ð½Ðµ": 5914,
      "-Ð¿ÑĢÐ°Ð²": 5915,
      "ÑĸÐ¹ÑģÑĮÐºÐ¾Ð³Ð¾": 5916,
      "ĠÐ²ÑĸÐ´Ð¿Ñĥ": 5917,
      "ÑĶÐ²Ð°": 5918,
      "ĠÐºÐ¾Ð²": 5919,
      "ĠÐ¼Ð¾Ð¶ÐµÐ¼Ð¾": 5920,
      "ÑĸÐ»ÑĸÐ²": 5921,
      "-Ð¼Ñĸ": 5922,
      "ĠÐ²Ð¸ÑģÐ»Ð¾Ð²Ð¸": 5923,
      "ĠÑĤÐ¾ÑĩÐ½Ð¾": 5924,
      "ÐµÐ»Ñı": 5925,
      "ĠÐ½Ð°ÑĥÐºÐ¾Ð²Ð¸Ñħ": 5926,
      "Ð¿ÑĥÑĤÐ°ÑĤÐ¸": 5927,
      "ĠÐ¯Ð¿": 5928,
      "**": 5929,
      "ÐµÐ½Ð½Ñİ": 5930,
      "ĠÑģÑĤÐ¾ÑĢÑĸÐ½ÑĨÑĸ": 5931,
      "ĠXV": 5932,
      "ĠÑıÐ¹": 5933,
      "ĠÐ²Ð¸ÐºÐ¾ÑĢÐ¸ÑģÑĤÐ°Ð½Ð½ÑıÐ¼": 5934,
      "ĠÐĳÐ¾ÑĢÐ¸": 5935,
      "Ð»ÐµÐºÑģÑĸÐ¹": 5936,
      "ĠÐ½ÐµÑĢÐ²": 5937,
      "ĠÐ·Ð°Ð³Ð°Ð»ÑĮÐ½Ð¾ÑĹ": 5938,
      "Ð²Ð°Ð±": 5939,
      "Ð¶ÐµÐ½Ð¾": 5940,
      "ĠÐ¿Ð¾Ð±Ð»Ð¸Ð·Ñĥ": 5941,
      "ÑģÐ¸Ð¿": 5942,
      "ĠÐ¿ÐµÑĢÑĪÐ¸Ð¼": 5943,
      "ÑĸÐ±ÑĢÐ°ÑĤÐ¸": 5944,
      "ĠÑĢÐµÐ·ÑĥÐ»ÑĮÑĤÐ°ÑĤÐ°Ð¼Ð¸": 5945,
      "ĠÑģÑĥÐ¿ÐµÑĢÐµ": 5946,
      "ĠÐ²ÑĸÑĢÑĥ": 5947,
      "ĠÐ²Ð»Ð°ÑģÑĤÐ¸Ð²Ð¾ÑģÑĤÑĸ": 5948,
      "ĠÑģÐ¿ÑĢÐ°Ð²Ñĥ": 5949,
      "ĠÑĦÑĸÐ½Ð°Ð½ÑģÑĥÐ²Ð°Ð½Ð½Ñı": 5950,
      "Ġst": 5951,
      "Ð°ÑĤÐºÑĥÐ²Ð°Ð½Ð½Ñı": 5952,
      "ack": 5953,
      "ĠÑĤÐµÐ¿Ð»Ð¾": 5954,
      "ĠÐ²ÑĸÐ²": 5955,
      "ĠÐµÐºÑģÐ¿ÐµÑĢÑĤÐ¸": 5956,
      "ĠÐĿÐ°ÑĢÐ¾Ð´": 5957,
      "ĠÐ¿Ð¾Ð´Ð°": 5958,
      "ĠÐ³Ð»Ð¸Ð±Ð¸": 5959,
      "ĠÐºÐ¾ÑĢÐ¾Ð½Ð°": 5960,
      "kra": 5961,
      "ĠÑĨÑĸÐ½Ñĥ": 5962,
      "Â«Ð¥": 5963,
      "ĠÐ¼Ð°ÑĪÐ¸Ð½": 5964,
      "Ð¾ÑĢÐ¾ÑĤ": 5965,
      "ĠÐ²Ð¸ÐºÐ¾Ð½ÑĥÐ²Ð°ÑĤÐ¸": 5966,
      "ÑģÐ¿ÑĢÐ°Ð²Ð´Ñĸ": 5967,
      "ĠÐ²Ð¸ÑħÐ¾Ð´Ð¸ÑĤÑĮ": 5968,
      "ĠÐ´Ð¾Ð²ÑĸÐ´": 5969,
      "ĠÐºÑĢÐ°Ð¹": 5970,
      "ĠÐ¿Ð¾ÑĢÑĥÑĩ": 5971,
      "ĠÐ¿ÑĢÐ¾Ð±Ð»ÐµÐ¼Ð°": 5972,
      "ÑİÑİÑĤÑĮÑģÑı": 5973,
      "ĠÐ¿Ð¾ÑģÐ°Ð´Ð¸": 5974,
      "ĠÐ½ÐµÑī": 5975,
      "Ð½Ð¸Ñĩ": 5976,
      "ĠÑĤÐ¸ÑģÑıÑĩÑĸ": 5977,
      "ĠÐ²Ð¸ÑĢÐ¾Ð±Ð½Ð¸ÑĨÑĤÐ²Ð¾": 5978,
      "Ð¾ÑģÐµ": 5979,
      "ĠÐºÑĥÐ»ÑĮ": 5980,
      "ĠÐ¿ÐµÐ½Ñģ": 5981,
      "ĠÑĥÑĢÐ¾Ðº": 5982,
      "ĠÐ´Ð¸Ð½Ð°Ð¼Ñĸ": 5983,
      "ĠÐ·Ð°ÑģÑĸÐ±": 5984,
      "ÐĽÑİ": 5985,
      "Ð¾Ð³ÐµÐ½": 5986,
      "ĠÑĸÐ½ÑĤÐµÐ½": 5987,
      "ĠÐºÐ¾Ð¼Ð°Ð½Ð´Ñĥ": 5988,
      "ĠÐ¡ÑĮÐ¾Ð³Ð¾Ð´Ð½Ñĸ": 5989,
      "ĠÑģÑĤÑĥÐ¿ÐµÐ½Ñı": 5990,
      "ĠÐ·Ð°ÑħÐ²Ð¾ÑĢÑİÐ²Ð°Ð½ÑĮ": 5991,
      "ĠÑħÐ°ÑĢÐ°ÐºÑĤÐµÑĢÑĥ": 5992,
      "].Ċ": 5993,
      "ĠÐ¿ÑĢÐ¸Ð³Ð¾ÑĤÑĥÐ²Ð°Ð½Ð½Ñı": 5994,
      "ĠÐĴÑĸÐ»ÑĮ": 5995,
      "ĠÐ·Ð°ÐºÐ¾ÑĢÐ´Ð¾Ð½": 5996,
      "ÐĸÐ¸ÑĤ": 5997,
      "ĠÐ¿ÑĢÐ¾Ð¼Ð¸ÑģÐ»Ð¾Ð²Ð¾ÑģÑĤÑĸ": 5998,
      "ier": 5999,
      "Ð½ÑĸÑģ": 6000,
      "ĠÐļÑĢÐ¸Ð¼": 6001,
      "ĠÑĢÐ¾Ð±Ð»ÑıÑĤÑĮ": 6002,
      "Ð¿ÑĸÐ²": 6003,
      "ĠÑĢÐ¾Ð»Ñĸ": 6004,
      "ĠÐĲÑģ": 6005,
      "ĠÑĢÐ¾ÑģÑĸÐ¹ÑģÑĮÐºÐ¸Ñħ": 6006,
      "ĠÐ·Ð½Ð¸Ðº": 6007,
      "-ÑıÐºÐ¾Ð³Ð¾": 6008,
      "Â«Ð¯": 6009,
      "ĠÐ¾ÑģÐ¾Ð±Ð°": 6010,
      "ĠÐ²Ñĭ": 6011,
      "ĠÐ·Ð¾Ð±ÑĢÐ°Ð¶ÐµÐ½Ð½Ñı": 6012,
      "ĠÐĲÐ½Ð°ÑĤÐ¾Ð»": 6013,
      "ĠÐºÐ¾Ð¼Ð¿Ð°Ð½Ñĸ": 6014,
      "ĠÐ²Ð°ÑĢÑĤÐ¾ÑģÑĤÑĸ": 6015,
      "ĠÐ²Ð¸Ð½": 6016,
      "ÐµÐ½Ð´Ð°ÑĢ": 6017,
      "ĠÐĵÑĢÐ¸Ð³Ð¾ÑĢ": 6018,
      "ÑĦÐµÑĢÐ°": 6019,
      "ĠÐĩÑĹ": 6020,
      "ÐµÐ½ÑĤÐ°": 6021,
      "ĠÐĴÐ¾Ð»Ð¾Ð´Ð¸Ð¼Ð¸ÑĢÐ°": 6022,
      "-ÑĸÐ½": 6023,
      "Ð¿Ð¸ÑģÐºÐ¾Ð¿": 6024,
      "ĠÐ½Ð°ÑģÑĤÑĥÐ¿Ð½Ñĸ": 6025,
      "ĠÐ»ÑİÐ±Ð¾Ð²Ñĸ": 6026,
      "ace": 6027,
      "ÑĸÐ´ÑĮ": 6028,
      "ĠÐ·ÑĢÐ¾Ð±Ð¸Ð²": 6029,
      "ĠÐŁÐ¾ÑĢÐ¾ÑĪ": 6030,
      "ĠÐ°Ð´ÑĢÐµÑģ": 6031,
      "Ġth": 6032,
      "ĠÑĸÐ½ÑĤÐµÐ»ÐµÐºÑĤÑĥ": 6033,
      "ĠÐŁÐ°ÑĢ": 6034,
      "Ð¼ÐµÑĤÑĮÑģÑı": 6035,
      "ĠÐŀÐ»ÐµÐºÑģÐ°Ð½Ð´ÑĢÐ°": 6036,
      "ÑĥÐ²Ð°Ð»Ð¾ÑģÑı": 6037,
      "ĠÐ»Ð°Ð±Ð¾ÑĢÐ°ÑĤÐ¾ÑĢ": 6038,
      "ÑģÑĤÐ¾Ð³Ð¾": 6039,
      "ĠÑģÑħÐ¾Ð¶": 6040,
      "ĠÑģÐ¿ÑĸÐ²Ð¿ÑĢÐ°ÑĨÑİ": 6041,
      "ĠÐ·Ð°Ð¿Ð°Ñģ": 6042,
      "ĠÐ¼ÐµÐ´Ð¸ÑĨÐ¸": 6043,
      "ĠÐ»Ð¾Ð¶": 6044,
      "ĠÑĢÐ¾Ð·ÑĥÐ¼ÑĸÐ½Ð½Ñı": 6045,
      "ĠÐ¿ÑĢÐ¾ÑĦÑĸÐ»Ð°": 6046,
      "ĠÐĹÐ°Ð²Ð´ÑıÐºÐ¸": 6047,
      "ÑĤÐ¾ÑĹ": 6048,
      "-ÑıÐºÐ¸Ñħ": 6049,
      "ĠÐ¼ÐµÑĤÐ°": 6050,
      "ÑĦÑĸÐºÑĥ": 6051,
      "ĠÐ´Ð¸ÑĢÐµÐºÑĤÐ¾ÑĢÐ°": 6052,
      "ĠÐĵÐ°ÑĢ": 6053,
      "ĠÑģÑĤÑĥÐ´ÐµÐ½ÑĤ": 6054,
      "ĠÐ´Ð¾ÑĢÐ¾Ð³Ð¸": 6055,
      "ib": 6056,
      "ĠEx": 6057,
      "ĠÐ¿ÑĸÐ´Ð»": 6058,
      "ĠÐĶÐµÐ½ÑĮ": 6059,
      "ĠÐ¿Ð¾ÐºÐ»Ð°Ð´": 6060,
      "ĠÐĶÐ¾Ð±": 6061,
      "ĠÐ´Ð¾Ð³Ð¾Ð²ÑĸÑĢ": 6062,
      "ĠÐ°Ð²ÑĤÐ¾ÑĢÐ¸": 6063,
      "ĠÑħÑĢÐ¸ÑģÑĤÐ¸ÑıÐ½": 6064,
      "ĠFacebook": 6065,
      "ĠÐ¿Ð¾ÐºÐ¾Ð»ÑĸÐ½Ð½Ñı": 6066,
      "ĠÐ½Ð°Ð´Ð°ÑĤÐ¸": 6067,
      "ĠÐ¶Ð¸ÑĤÐµÐ»ÑĸÐ²": 6068,
      "ÑĢÐ¾Ð³Ð¾": 6069,
      "Ð°ÐºÐ¾Ð²": 6070,
      "ÑīÑĸÐ²": 6071,
      "ĠÐ²Ð¸Ð¹ÑĪÐ¾Ð²": 6072,
      "ĠÐ¿Ð°ÑĨÑĸÑĶÐ½ÑĤÑĸÐ²": 6073,
      "ress": 6074,
      "ĠÐ¿ÑĢÐ¾Ð³Ð½Ð¾Ð·": 6075,
      "Ð¼Ð¾ÑĤ": 6076,
      "ĠÐĴÑģÐµÑĥÐºÑĢÐ°ÑĹÐ½": 6077,
      "ĠÐ·Ð¼Ð¾Ð³Ñĥ": 6078,
      "ĠÑĢÐ¾Ð·ÑĤÐ°ÑĪÐ¾Ð²": 6079,
      "ĠÐ¿ÑĢÐ¾Ð²Ð°Ð´Ð¶ÐµÐ½Ð½Ñı": 6080,
      "ĠÐ¿ÑĸÐ´Ð³Ð¾ÑĤ": 6081,
      "ĠÐ½Ð°ÑģÑĤÑĥÐ¿Ð½Ð¾Ð³Ð¾": 6082,
      "ĠÐ¿ÐµÑĢÐµÐ±ÑĥÐ²Ð°ÑĶ": 6083,
      "ĠÑĢÐµÐ¿": 6084,
      "ĠÐ·Ð²Ð¸Ñĩ": 6085,
      "SA": 6086,
      "ĠÐ½Ð°ÑģÐ¿ÑĢÐ°Ð²Ð´Ñĸ": 6087,
      "ĠÐ½Ð°Ð¿ÑĢÐ°Ð²": 6088,
      "Ð°Ð»Ð°Ð¼Ð¸": 6089,
      "ĠÐºÐ¾Ð½ÐºÑĥÑĢÑģÑĥ": 6090,
      "ÐĲÑĢ": 6091,
      "ÐĽÑĸÑĤÐµÑĢÐ°ÑĤÑĥ": 6092,
      "ĠAr": 6093,
      "ĠÑħÐ²Ð¾ÑĢÐ¾Ð±": 6094,
      "Ð¾Ð´Ð¾": 6095,
      "ĠÐ¼ÑĥÐ»ÑĮ": 6096,
      "ĠÐ´ÑĢÐ°": 6097,
      "ĠÐ´Ð¾Ð²ÐµÐ´ÐµÑĤÑĮÑģÑı": 6098,
      "ĠÐ²Ð¸ÑģÐ»Ð¾Ð²": 6099,
      "ÑĨÑıÑĤÑĮ": 6100,
      "ĠÑĤÐµÐ»ÐµÑĦÐ¾Ð½": 6101,
      "\"ÐŁ": 6102,
      "ĠÐ¾ÑĦÐ¾ÑĢÐ¼Ð»ÐµÐ½Ð½Ñı": 6103,
      "ÑĪÑĤÐ°": 6104,
      "Ð²ÑĸÐ´ÐºÐ¸": 6105,
      "ĠÐ´Ð¸ÑģÑĨÐ¸Ð¿": 6106,
      "ĠÐ¿Ð¾ÑģÐ¸Ð»Ð°Ð½Ð½ÑıÐ¼": 6107,
      "ĠÐ¿ÑĢÐ¾ÑĨÐµÑģÑĸÐ²": 6108,
      "ĠÐ²ÑĤ": 6109,
      "ĠÐ¿ÑĢÐ¸ÑĢÐ¾Ð´Ð¸": 6110,
      "ÑĸÐ»ÑĮÐ½Ð¾Ð³Ð¾": 6111,
      "ĠÐĵÑĢÐµ": 6112,
      "ĠÑģÐ¿ÑĸÐ²Ð¿ÑĢÐ°ÑĨÑĸ": 6113,
      "ÐµÐºÑĢÐµ": 6114,
      "ĠÐ´Ð¾ÑĢÑĸ": 6115,
      "ĠÐ²Ð¸Ð½Ð¸ÐºÐ°ÑĶ": 6116,
      "Ð°ÑĨÑĸÑĶÑİ": 6117,
      "ĠÐĳÐ°ÑĢ": 6118,
      "Ð£ÐºÑĢÐ°ÑĹÐ½Ð°": 6119,
      "Ð²'Ñİ": 6120,
      "ĠÐ¼Ð°ÐºÑģÐ¸Ð¼Ð°Ð»ÑĮÐ½Ð¾": 6121,
      "ĠÐ²ÑĸÐ´Ð½Ð¾ÑģÐ¸Ð½Ð¸": 6122,
      "Ð±Ð¾ÑĢÐ°Ñħ": 6123,
      "ĠÐ½ÐµÐ¿ÑĢÐ¸": 6124,
      "Ð·Ð¸Ð´ÐµÐ½ÑĤ": 6125,
      "Ð¿Ð°ÐºÐ¸": 6126,
      "ĠÑĥÐºÑĢÐ°ÑĹÐ½ÑģÑĮÐºÐ°": 6127,
      "ĠÐ½Ð¾Ð²Ð°": 6128,
      "ĠÐºÑĸÐ½ÑĨÑĸ": 6129,
      "ĠÐ¼ÑĸÐ½ÑĸÐ¼Ñĥ": 6130,
      "ĠÐ°ÐºÑĤÐ¾ÑĢ": 6131,
      "ĠÐĴÐ¾Ð´": 6132,
      "ĠÑĢÐ¸Ð½Ð¾Ðº": 6133,
      "Â«Ðķ": 6134,
      "ĠÐļÑĥÐ±": 6135,
      "ĠÐłÑĸÐ·": 6136,
      "Ð»ÑıÐ³": 6137,
      "ÑĪÐ¸ÑģÑĮ": 6138,
      "ĠÐ·Ð°ÐºÑĢÑĸÐ¿": 6139,
      "ĠÐ³ÑĢÑĥÐ½": 6140,
      "Ð¼ÑĸÑİ": 6141,
      "ĠÐ»ÑĸÑĨÐµÐ½": 6142,
      "Ð¡ÑĤ": 6143,
      "ÑĸÐ»Ð»Ñı": 6144,
      "ÐĹÐ°Ð¿": 6145,
      "ĠÐ¿ÑĢÐ¾Ð´Ð°Ð¶Ñĥ": 6146,
      "Ġk": 6147,
      "Ð¾Ð´Ð¾Ð¼": 6148,
      "ĠÑĩÐµÑĢÐµ": 6149,
      "ĠÐ¡ÑĤÐ°Ð½": 6150,
      "ĠÐ²ÑĸÐ´Ð¾Ð¼Ð¾ÑģÑĤÑĸ": 6151,
      "ĠÐ²ÐºÐ»ÑİÑĩÐ°ÑİÑĩÐ¸": 6152,
      "ĠÑĢÐµÐ¶Ð¸Ð¼": 6153,
      "Ð±ÐµÐ»ÑĮ": 6154,
      "ÑĸÐ½ÐºÐ°": 6155,
      "ÐºÐ¸Ð´": 6156,
      "ĠÐ±ÑĥÑħ": 6157,
      "-ÑĤÐµÑħÐ½ÑĸÑĩ": 6158,
      "ĠÐŁÐ¾Ñģ": 6159,
      "ĠÐ¿Ð¾ÑĢÐ¾Ð¶": 6160,
      "Ð»ÑĮÐ½Ð¾ÑģÑĤÑĸ": 6161,
      "Ð¹ÑĤÐµÑģÑı": 6162,
      "(ÐŁ": 6163,
      "ÐĽÐĲ": 6164,
      "ĠÐŁÐ°ÑĢÑĤÑĸÑĹ": 6165,
      "ĠÐ¾Ð´ÑĢÐ°Ð·Ñĥ": 6166,
      "Â»)": 6167,
      "ĠÐ»Ð°": 6168,
      "ĠÑģÐ¿ÑĢÐ¸ÑıÑĶ": 6169,
      "-Ð½Ðµ": 6170,
      "ÑģÑĤÐºÐ¸": 6171,
      "Ð¾ÑģÐ²ÑĸÑĤ": 6172,
      "Ð»ÑĮÐ½Ð¸Ð¼": 6173,
      "ÑĸÐ·Ñĸ": 6174,
      "Ð½ÐµÑģÑĤÐ¸": 6175,
      "ĠÐ±ÐµÐ·Ð»ÑĸÑĩ": 6176,
      "ĠÑģÐºÐ¾ÑĢÐ¸ÑģÑĤ": 6177,
      "ĠÐ¼Ð°ÑĶÐ¼Ð¾": 6178,
      "Ð½ÑģÑĮÐºÐ¾Ð³Ð¾": 6179,
      "ĠÐ·Ð°Ð½ÑıÑĤÑĤÑı": 6180,
      "ÑĤÐ¸Ð²Ð½Ð°": 6181,
      "Ð¡Ñĥ": 6182,
      "ĠÑĪÐ»Ñĥ": 6183,
      "ĠÑĢÐ¾Ð·Ð¿Ð¾Ð²ÑĸÐ´Ð°ÑĶ": 6184,
      "ĠÐ²Ð¸Ð³Ð¾ÑĤÐ¾Ð²Ð»ÐµÐ½Ð½Ñı": 6185,
      "ĠÐ¥Ð¾ÑĩÐ°": 6186,
      "ÑģÑĤÐ¾Ñı": 6187,
      "ĠÐ°Ð²ÑĤÐ¾Ð¼Ð¾Ð±ÑĸÐ»Ñı": 6188,
      "ĠÐ§ÐµÑĢÐºÐ°": 6189,
      "ÐºÐ¾ÑĤ": 6190,
      "Ð°Ð´Ð¼ÑĸÐ½ÑĸÑģÑĤÑĢÐ°": 6191,
      "Ð¶ÑĸÐ²": 6192,
      "ĠÐ·Ð°Ð¹Ð¼": 6193,
      "ĠÐ¢Ð¾Ð±ÑĤÐ¾": 6194,
      "ÐµÐ¹Ñģ": 6195,
      "ĠÐ¿ÑĢÐ¾ÐµÐºÑĤÑĸÐ²": 6196,
      "ĠÐ½Ð°ÐºÐ»Ð°Ð´": 6197,
      "ĠÐ¿ÑĢÐ°Ð²Ð¾Ð¿": 6198,
      "ĠÑĢÐ¾Ð±Ð¸": 6199,
      "ĠÐºÐ¾Ð´ÐµÐºÑģÑĥ": 6200,
      "ĠÐ½Ð°ÑĪÑĸÐ¹": 6201,
      "-ÑĤÐ°": 6202,
      "ÐĨÐĶ": 6203,
      "ĠÐ¿ÑĸÐ´ÐºÐ»Ñİ": 6204,
      "ĠÐĶÐ½ÑĸÐ¿ÑĢÐ¾Ð¿ÐµÑĤÑĢÐ¾Ð²": 6205,
      "ĠÐ²Ð¸ÐºÐ»ÑİÑĩÐ½Ð¾": 6206,
      "ÑĢÐ°Ð·Ð¸": 6207,
      "ĠÐĨÐ²Ð°Ð½Ð°": 6208,
      "ĠÐĴÐ¾Ð»": 6209,
      "ĠÐ¿ÑĸÐ´ÑģÑĤÐ°Ð²Ñĸ": 6210,
      "ĠÐ¾Ð·Ð±ÑĢÐ¾": 6211,
      "ÑĩÐ¸ÑĤÐ¸ÑģÑı": 6212,
      "ĠÐ·Ð½Ð°Ð¹Ð¾Ð¼": 6213,
      "ĠÑģÐ°Ð¼Ð¸Ð¼": 6214,
      "ĠÐ´ÐµÑģÑıÑĤÐ¸": 6215,
      "ĠÑĸÐ´ÐµÑĹ": 6216,
      "ĠÐ½Ð°ÑĤÑĥÑĢÐ°Ð»ÑĮ": 6217,
      "az": 6218,
      "ĠÐ¿Ð¾ÑĤÐµÐ½ÑĨÑĸ": 6219,
      "ĠÑĪÐ»ÑıÑħÑĥ": 6220,
      "ÑĸÐ´ÐµÑĢ": 6221,
      "ĠÐ¨ÐµÐ²ÑĩÐµÐ½ÐºÐ°": 6222,
      "ĠÐ·Ð°Ð³Ð°Ð»ÑĮÐ½Ð¾Ð¼Ñĥ": 6223,
      "ĠÑģÐµÐ·Ð¾Ð½Ñĥ": 6224,
      "ĠÑĤÐµÐ¼Ð¸": 6225,
      "Ð²Ð°ÑİÑĩÐ¸": 6226,
      "ĠÐ²Ð¸Ð±Ð¾ÑĢÑĸÐ²": 6227,
      "ĠÐĹÐ°ÐºÐ°ÑĢÐ¿Ð°ÑĤ": 6228,
      "Ð¡ÐµÑĢÐµÐ´": 6229,
      "ĠÐ²ÑĸÐ´ÑĤ": 6230,
      "ĠÐ½Ð°Ð¿ÑĸÐ²": 6231,
      "ĠÑģÐ°Ð»": 6232,
      "ĠÐ¼Ð°Ðº": 6233,
      "ĠÐ²Ð¸Ð´Ñĥ": 6234,
      "ĠÑģÐ¸Ð»ÑĮÐ½Ð¾": 6235,
      "ĠÐ¿ÑĢÐ¾ÑħÐ¾Ð´Ð¸ÑĤÑĮ": 6236,
      "ĠÐ·Ð¼ÑĸÑģÑĤ": 6237,
      "ĠÐ²ÑģÑĸÐ¹": 6238,
      "ĠÐ±Ð°ÑĤÑĮÐºÐ¸": 6239,
      "ÑĩÐ°ÑĢ": 6240,
      "ĠÑģÐºÐ°ÑĢ": 6241,
      "ĠÐ³Ð¾ÑĤÐµ": 6242,
      "ĠÐĿÑĮÑİ": 6243,
      "-ÐºÐ¾Ð½": 6244,
      "ĠÐ¿ÑĢÐ¾Ð¿Ð¾Ð½Ñĥ": 6245,
      "ĠÐ¼Ð¾Ð½Ð°ÑģÑĤÐ¸": 6246,
      "Ð¶Ð½Ð¸Ð¹": 6247,
      "ĠÐŀÐ»ÐµÐ³": 6248,
      "(Ð¼": 6249,
      "ÑĩÑĥÑĶÑĤÑĮÑģÑı": 6250,
      "ith": 6251,
      "ĠÐ½Ð°ÑĪÑĥ": 6252,
      "Ġon": 6253,
      "ÑĤÐ¾Ñİ": 6254,
      "ĠÑĹÑħÐ½Ñĸ": 6255,
      "ÑĨÐµÐ·": 6256,
      "ĠÐ²ÑģÑĤÐ°Ð½Ð¾Ð²Ð»ÐµÐ½Ð¾": 6257,
      "ÑİÑĩÐ¾Ð³Ð¾": 6258,
      "ĠÑĢÐµÐ¼Ð¾Ð½ÑĤ": 6259,
      "ÑıÐ³Ñĥ": 6260,
      "):": 6261,
      "Ð¿Ð°Ð½ÑĸÑĹ": 6262,
      "ĠÐ¿Ð¾Ð²ÐµÑĢÑĤÐ°": 6263,
      "Ð²Ð°Ð»ÑĸÐ´": 6264,
      "ĠÑĢÐ°Ð´ÑĸÐ¾": 6265,
      "ĠÑĤÑĢÐµÑĤÑĮ": 6266,
      "ÐµÐ¹Ð½": 6267,
      "Ð²Ð°Ð»Ñİ": 6268,
      "ĠÐ´ÐµÑĢÐµÐ²Ð°": 6269,
      "ĠÐ¾ÑħÐ¾Ð¿": 6270,
      "ĠÐºÐ¾ÑĢÐ¿Ð¾ÑĢÐ°": 6271,
      "ÐłÐĺ": 6272,
      "ĠÑĦÑĥÑĤÐ±Ð¾Ð»Ñĸ": 6273,
      "Ð±ÑĢÐ°": 6274,
      "ĠÑĨÑĸÐ½Ð°": 6275,
      "ĠÑĤÐ°ÐºÐ¸": 6276,
      "ĠÐ±Ð¾Ñı": 6277,
      "ÑĤÐ¸Ð¼Ñĸ": 6278,
      "ĠÐĹÐ°ÑĢÐ°Ð·": 6279,
      "ĠÐ¿Ð¾ÑĤÑĢÐµÐ±ÑĥÑĶ": 6280,
      "ĠÐ²Ð½ÐµÑģÐµÐ½Ð½Ñı": 6281,
      "ĠÐºÐ²Ð¸": 6282,
      "ĠÐ¾ÐºÑĢÑĥÐ³": 6283,
      "ĠÐĿÑĸÐ¼ÐµÑĩÑĩÐ¸Ð½Ð¸": 6284,
      "Ð´Ð²Ð°": 6285,
      "ĠÑģÐµÐ·Ð¾Ð½": 6286,
      "ÐĳÑĥ": 6287,
      "ĠÑĩÐ°ÑģÐ¸": 6288,
      "ĠÐ¾Ð´Ð½ÑĸÐ¹": 6289,
      "ĠÑĢÐµÑĦÐ¾ÑĢÐ¼": 6290,
      "Ð±Ð»Ñĥ": 6291,
      "ĠÐ¼Ð¾Ð¼ÐµÐ½ÑĤÑĥ": 6292,
      "ÑĩÐ¾Ñİ": 6293,
      "ĠÐ·ÑĥÐ¿Ð¸": 6294,
      "ĠÐ±ÑĥÐ´ÐµÐ¼Ð¾": 6295,
      "ĠÐ¿ÑĢÐ¾ÑħÐ¾Ð´Ð¸": 6296,
      "ÐµÐ½Ð¸Ñħ": 6297,
      "ÑģÑĤÐ¾ÑĢÐ¸": 6298,
      "Ð©Ðµ": 6299,
      "ĠÐ½Ð°Ð¿Ð¸ÑģÐ°Ð²": 6300,
      "ĠÐ°ÐºÑĨÑĸÑĹ": 6301,
      "ĠÑģÐ²ÑĸÐ´Ð¾Ð¼": 6302,
      "(Ðļ": 6303,
      "Ð°ÑĢÑħ": 6304,
      "ÑĢÐ¾Ð²Ð°Ð´": 6305,
      "ÐºÐ¾Ð²ÑĸÐ¹": 6306,
      "ĠÐ·ÑĢÑĥÑĩ": 6307,
      "ĠÐ¾ÑĦ": 6308,
      "ĠÐ¿ÑĸÐº": 6309,
      ".),": 6310,
      "ĠÐµÐ»ÐµÐ¼ÐµÐ½ÑĤÐ¸": 6311,
      "ÑĪÐµÐ½Ð¸Ð¹": 6312,
      "ight": 6313,
      "ĠÑĢÐ¾Ð·ÑĪÐ¸": 6314,
      "Ð¾ÑĤÐ²Ð¾ÑĢ": 6315,
      "ĠÐ»ÑĸÐ½ÑĸÐ¹": 6316,
      "ĠÐ²ÑĸÐ´Ð¼ÑĸÐ½Ñĥ": 6317,
      "ÑĸÐ¹Ð½Ð¾ÑĹ": 6318,
      "ci": 6319,
      "ÑĩÑĥÐ²Ð°ÑĤÐ¸": 6320,
      "ĠÑĥÑģÑĮÐ¾Ð³Ð¾": 6321,
      "ĠÑĪÑĤÑĢÐ°": 6322,
      "ĠÐ·ÑĢÐ¾Ð·ÑĥÐ¼ÑĸÑĤÐ¸": 6323,
      "ÑĤÐ¸Ð½Ñĥ": 6324,
      "ĠÑĥÑĢÐ°ÑħÑĥÐ²Ð°Ð½Ð½ÑıÐ¼": 6325,
      "Ð¾Ð²Ð°Ð½Ñĥ": 6326,
      "ÑĢÐ½Ñĸ": 6327,
      "ĠÐ¼ÐµÐ¶Ñĸ": 6328,
      "ure": 6329,
      "ÑĸÑĩÐ½Ð¾ÑĹ": 6330,
      "ĠÐĴÐµ": 6331,
      "ĠÐ¥ÑĢÐ¸": 6332,
      "ĠÐ£ÐºÑĢÐ°ÑĹÐ½ÑģÑĮÐºÐ¾ÑĹ": 6333,
      "ĠÐ¡ÑĤÐ°": 6334,
      "ĠÐ±Ð¾Ðº": 6335,
      "Ð¿Ð°ÑĢÐ°": 6336,
      "ĠÐ½Ð°Ð¼Ð°": 6337,
      "ÐµÑĤÐµÐ½": 6338,
      "Ð°Ð¹Ð´Ñĥ": 6339,
      "Ð³ÑĸÐ´": 6340,
      "ÐµÐ·ÐµÐ½Ð½Ñı": 6341,
      "ĠÑĦÐ»": 6342,
      "ĠÑĢÐµÑģÐ¿ÑĥÐ±Ð»Ñĸ": 6343,
      "ÑĦÐµ": 6344,
      "ÑģÑĤÐ°ÑĤÐ¾Ñĩ": 6345,
      "ĠÐ¿ÐµÑĢÐ²Ð¸Ð½": 6346,
      "ÐĵÐ¾Ð»Ð¾Ð²": 6347,
      "ĠÑıÐ¿Ð¾Ð½": 6348,
      "ĠÐ°Ð´Ð°Ð¿": 6349,
      "ass": 6350,
      "(Ð½Ð°Ð¿ÑĢÐ¸ÐºÐ»Ð°Ð´": 6351,
      "ĠÐ·Ð°Ð»ÐµÐ¶Ð½Ð¾ÑģÑĤÑĸ": 6352,
      "ĠÐ½ÐµÑģ": 6353,
      "ĠÐµÐ»ÐµÐ¼ÐµÐ½ÑĤ": 6354,
      "ĠÐ´Ð¶ÐµÑĢÐµÐ»": 6355,
      "Ð½ÐµÐ½Ð¸Ñħ": 6356,
      "Ð·ÑĸÑı": 6357,
      "Ð»ÐµÐ½Ðµ": 6358,
      "ĠÐ¼Ð¾Ñı": 6359,
      "Ð¾ÑĢÑĸÐ·ÑĮ": 6360,
      "ĠÐ½Ð°Ð¿ÑĢÑĥ": 6361,
      "ĠÐ·Ð±Ð¸ÑĤ": 6362,
      "ĠXI": 6363,
      "ĠÐ²Ð°Ð½": 6364,
      "ĠÐ´Ð¾Ð±Ð¸": 6365,
      "ĠÐ½Ð°ÑĤ": 6366,
      "ĠÐ¾ÑģÐ½Ð¾Ð²Ð½Ð¾Ð¼Ñĥ": 6367,
      "ĠÑĸÐ½ÑĤÐµÐ½ÑģÐ¸Ð²": 6368,
      "ĠÑĤÐµÐ½Ð´ÐµÐ½": 6369,
      "ÑĤÐ¸Ð½Ð³Ñĥ": 6370,
      "Ð¶Ð¸ÑĤ": 6371,
      "Ð°ÑĤÑĮÐºÑĸÐ²": 6372,
      "ĠÐ½Ð°Ð»ÐµÐ¶Ð°ÑĤÑĮ": 6373,
      "ÑģÑĸÑĶÑİ": 6374,
      "ÐºÑģÐ¿": 6375,
      "ĠÐ¢ÐµÑĤ": 6376,
      "Ð¿ÐµÑĢÐµ": 6377,
      "ĠÑĢÐ¾Ð·Ð¼": 6378,
      "Â²": 6379,
      "ÑĢÐ½Ð¾Ð³Ð¾": 6380,
      "ÑĩÐ¾ÑĢÐ°": 6381,
      "ĠÐ¼'ÑıÐ·": 6382,
      "Ð¾ÑģÐ»ÑĥÐ¶": 6383,
      "ĠÐ¿ÐµÑĢÑĸÐ¾Ð´Ð¸": 6384,
      "ĠÑģÑĤÑĢÐ°Ð¶": 6385,
      "ÑĸÐ´Ðµ": 6386,
      "ĠÐ¼ÑĸÐ½ÐµÑĢÐ°": 6387,
      "ĠÑĸÐ½ÑģÑĤÑĢÑĥÐ¼ÐµÐ½ÑĤ": 6388,
      "Ð°Ð¼Ð±": 6389,
      "ÑĸÑĤÐº": 6390,
      "ĠÐ¿ÑĢÐ¾Ð³ÑĢÐ°Ð¼Ð°": 6391,
      "ĠÑĥÑĩÐ°ÑģÐ½Ð¸ÐºÐ¸": 6392,
      "ĠÐļÐ°Ð±ÑĸÐ½": 6393,
      "ĠÐļÐ°Ð·": 6394,
      "ÑĢÐ¾Ð¼Ð¾Ð¶": 6395,
      "ĠÑģÑĸ": 6396,
      "ĠÑĩÐ¾ÑĤÐ¸ÑĢÑĮÐ¾Ñħ": 6397,
      "Ð°ÑĤÐ¾ÑĢÐ°": 6398,
      "Ð´ÑĸÑĶÐ½": 6399,
      "ÐµÐ´ÐµÑĢÐ°": 6400,
      "ĠÑģÑĤÐ¾Ð»Ð¸ÑĨÑĸ": 6401,
      "ĠÑħÐ²Ð¾ÑĢÐ¸Ñħ": 6402,
      "ÑĢÐµÑĪÑĤ": 6403,
      "ĠÑģÑĥÑĤÑĤÑĶ": 6404,
      "(Ðľ": 6405,
      "Ð°Ð¹ÑĤ": 6406,
      "ĠÑħÑĤÐ¾ÑģÑĮ": 6407,
      "ĠÐ´ÑĸÑĤÑıÐ¼": 6408,
      "Ð§Ð¸ÑĤÐ°Ð¹ÑĤÐµ": 6409,
      "Ð½ÐµÐ¼Ð¾": 6410,
      "Ð¾Ð»Ð¾Ð³ÑĸÑĩÐ½Ð¸Ð¹": 6411,
      "ÑĥÐ»Ñı": 6412,
      "ĠÐ¿ÑĢÑĸÐ·": 6413,
      "ĠÐĳÑĸÐ»Ð¾ÑĢÑĥ": 6414,
      "ĠÑģÑĤÐ°": 6415,
      "ĠÐ½ÐµÐ¾Ð±ÑħÑĸÐ´Ð½ÑĸÑģÑĤÑĮ": 6416,
      "ĠÐ½Ð°ÑĩÐ°Ð»ÑĮÐ½Ð¸Ðº": 6417,
      "Ð¶ÐµÐ½Ð°": 6418,
      "ÐºÑĤÐ°Ð¼Ð¸": 6419,
      "ĠÑģÑĤÐ°Ð½Ð¾Ð¼": 6420,
      "ĠÐ¾ÐºÑĥÐ¿": 6421,
      "-ÐĴ": 6422,
      "ĠÐ¥ÐµÑĢÑģÐ¾Ð½": 6423,
      "ĠÐºÑĢÐµÐ´Ð¸ÑĤ": 6424,
      "ĠÐŁÐµÑĤÑĢÐ¾": 6425,
      "ĠÑģÐµÐ»Ð¸Ñī": 6426,
      "ĠÐ¼Ð¾ÑĤ": 6427,
      "ĠÐºÐ°Ð±ÑĸÐ½": 6428,
      "ĠÐ·Ð°Ð»Ð¸ÑĪÐ°": 6429,
      "ĠÐ·Ð°Ð²ÐµÑĢÑĪÐµÐ½Ð½Ñı": 6430,
      "ĠÐ½Ð°ÑģÑĤÑĸÐ»ÑĮÐºÐ¸": 6431,
      "ĠÐŁÐ¾Ð»ÑĤÐ°Ð²": 6432,
      "ĠÐ²ÑĸÐ´ÑģÑĤÐ°Ð½Ñĸ": 6433,
      "ÑĢÐ¾Ð´ÑĥÐº": 6434,
      "ĠÐŁÐµÑĢÐµÐ´": 6435,
      "ĠÐ¿Ð¾ÑĪÐ¸ÑĢÐµÐ½Ð½Ñı": 6436,
      "ĠÑĤÐµÐ»ÐµÐº": 6437,
      "ĠÐ·ÐµÐ¼Ð»Ñİ": 6438,
      "ĠÐľÐ¸ÑħÐ°Ð¹Ð»Ð¾": 6439,
      "Ð±ÑĥÑĢÐ³": 6440,
      "ĠÑĢÐ¾ÑģÐ»Ð¸Ð½Ð¸": 6441,
      "ĠÐ²Ð¸Ð¼ÑĸÑĢ": 6442,
      "ĠÐ§ÐµÑĢÐ½ÑĸÐ²": 6443,
      "ĠÐ²ÐµÑĩÑĸÑĢ": 6444,
      "Ð°Ð¼ÐµÑĤ": 6445,
      "ĠÐ¼Ð°ÑĪÐ¸Ð½Ð¸": 6446,
      "ĠÐ²ÑģÑĤÐ¸Ð³": 6447,
      "ÐºÐ¾ÑĢÐ°": 6448,
      "ek": 6449,
      "ĠÐ¿ÑĢÑĸ": 6450,
      "ĠÐ¿ÐµÑĢÐµÐ±ÑĥÐ²Ð°Ð½Ð½Ñı": 6451,
      "ÐłÐ¾Ñģ": 6452,
      "ĠÐ³Ð»Ð¾Ð±": 6453,
      "uc": 6454,
      "Ð³Ð°Ð´": 6455,
      "ĠÐ¿ÑĢÐ¸Ð¹Ð¼Ð°ÑĤÐ¸": 6456,
      "ĠÐ²Ð°ÐºÑĨÐ¸": 6457,
      "ÐŁÐ¾Ð²": 6458,
      "ÑĮÐ¾Ð³Ð¾": 6459,
      "ĠÐ·Ð±ÑĢÐ¾ÑĹ": 6460,
      "ĠÐ¿Ð¾Ð»ÑĸÑĤÐ¸ÑĩÐ½Ð¸Ñħ": 6461,
      "Ð²ÐµÑĨÑĮ": 6462,
      "ĠÐĳÐ°": 6463,
      "ĠÐ¿Ð¾ÑĤÑĢÑĸÐ±Ð½Ñĸ": 6464,
      "ĠÐ¿Ð°ÑĢÑĤÐ½": 6465,
      "ĠÑıÐºÐ¾": 6466,
      "ÑģÐ¿Ð¾Ð½": 6467,
      "ĠÐ¾Ð¿Ð»Ð°ÑĤÐ¸": 6468,
      "ĠÐ·Ð¼Ð¾Ð³": 6469,
      "Ð¾ÑģÐ»ÑĥÐ¶Ð±Ð¾Ð²": 6470,
      "ĠÐŀÐŀÐĿ": 6471,
      "rom": 6472,
      "Ð¿ÐµÑĤ": 6473,
      "ond": 6474,
      "ÐºÐ¾Ð¿Ð¸": 6475,
      "ĠÐ²ÑĸÐ´ÑĢÑĸÐ·Ð½ÑıÑĶÑĤÑĮÑģÑı": 6476,
      "ĠÐ²Ð¸ÑĢÑĥ": 6477,
      "ĠÑĢÐ¾Ð¼": 6478,
      "ĠÐ²'ÑıÐ·": 6479,
      "ĠÐ¾Ð±'ÑĶÐ´Ð½": 6480,
      "Ð¾Ð½Ð°Ð¼Ð¸": 6481,
      "ĠÐ²ÑĸÐ´Ð±ÑĥÐ»Ð°ÑģÑı": 6482,
      "(ÐĴ": 6483,
      "Ð»ÑıÑĤÐ¾ÑĢ": 6484,
      "ence": 6485,
      "ÑĤÑĢÐ¸Ð¼Ð°ÑĤÐ¸": 6486,
      "ĠÐ²Ð¸Ð·Ð½Ð°Ð½Ð½Ñı": 6487,
      "ĠÐĶÐ¼Ð¸ÑĤÑĢÐ¾": 6488,
      "ĠÑĥÑĢÐ¾ÑĩÐ¸": 6489,
      "Ð·ÑĥÐ²Ð°ÑĤÐ¸": 6490,
      "Ð¼Ð½Ñĸ": 6491,
      "Ð»ÑİÐ²": 6492,
      "ĠÑĤÑĢÐ¸Ð²Ð°ÑĶ": 6493,
      "ÐµÑĢÑĸÐ¹": 6494,
      "ÑĢÐµÑĩ": 6495,
      "ÑĤÐ¾ÑĢÐ³": 6496,
      "ĠÐ²ÑħÐ¾Ð´ÑıÑĤÑĮ": 6497,
      "ĠÐ½ÑĸÐ³": 6498,
      "ÐĹÐ³ÑĸÐ´Ð½Ð¾": 6499,
      "ĠÑĥÑĤÑĢÐ¸Ð¼": 6500,
      "ĠÐºÐ¸ÑģÐ»": 6501,
      "ĠÐºÑĥÑĢÑģÑĥ": 6502,
      "man": 6503,
      "ĠÐ»ÑİÐ´Ð¸Ð½Ñĥ": 6504,
      "ĠÑĨÐµÑĢÐºÐ¾Ð²": 6505,
      "ĠÐ¯ÑĢÐ¾Ñģ": 6506,
      "ĠÑĦÑĸÐ»ÑĮÐ¼Ñĥ": 6507,
      "ĠÐ²Ð¾Ð´Ð°": 6508,
      "ĠÐ¿ÑĢÐ¾Ð²ÑĸÐ²": 6509,
      "ĠÐ¿Ð¾Ð³Ð»ÑıÐ´": 6510,
      "ĠÐºÑĢÑĥÐ³": 6511,
      "ĠÑģÐ¿ÐµÑĨÑĸÐ°Ð»Ñĸ": 6512,
      "ĠÑħÑĢÐ°": 6513,
      "ĠÐ½Ð°Ð´Ð·Ð²Ð¸ÑĩÐ°Ð¹Ð½Ð¾": 6514,
      "Ð»ÑĸÐ·Ð°ÑĨÑĸÑĹ": 6515,
      "Ð½Ð°Ñı": 6516,
      "ÑĢÑĥÐ²Ð°Ð½Ð½Ñı": 6517,
      "ĠÐ§ÐµÑĢÐ½ÑĸÐ³ÑĸÐ²": 6518,
      "Ð²ÐµÐ´ÐµÐ½Ð½Ñı": 6519,
      "ĠÑĥÑģÐ²ÑĸÐ´Ð¾Ð¼": 6520,
      "ĠÑģÑĤÐ¾ÑģÐ¾Ð²Ð½Ð¾": 6521,
      "Ð»ÑĥÑħ": 6522,
      "ĠÑģÐ¸Ð½Ð°": 6523,
      "ĠÐ´Ð²Ð¾ÑĢ": 6524,
      "ĠÐ¢ÐµÐ¿ÐµÑĢ": 6525,
      "ĠÐ²Ð°ÑĪÑĸ": 6526,
      "ĠÐ¿Ð¾ÑĶÐ´Ð½Ñĥ": 6527,
      "ĠÑģÐ²ÑĸÑĤÐ»Ð¾": 6528,
      "ĠÑĢÐ¸Ð·Ð¸Ðº": 6529,
      "ĠÐ²Ð¸ÑĢÐ°Ð·": 6530,
      "ĠÐĴÐµÑĢ": 6531,
      "ĠÐ¢Ð¸Ð¼": 6532,
      "ĠÐ¢ÑĢÐµ": 6533,
      "ÐµÐ´Ñĸ": 6534,
      "Ð²Ð¸ÑĩÐ°Ð¹Ð½Ð¾": 6535,
      "ĠÐ¿Ð¾Ð±ÑĥÑĤ": 6536,
      "ĠÐ¼Ð¾Ð½Ñĸ": 6537,
      "Ð½ÑĸÑĪÐ¸Ñħ": 6538,
      "ĠÑģÐ¿Ð¸ÑģÐºÑĥ": 6539,
      "ÐµÑĢÐ¶Ð°Ð²": 6540,
      "ĠÐ±ÐµÑĢ": 6541,
      "ĠÐ¾ÑģÐ¾Ð±Ð¸ÑģÑĤÐ¾ÑģÑĤÑĸ": 6542,
      "ÑĥÐ²Ð°Ð¶": 6543,
      "ĠÐºÐ°ÑĦÐµÐ´ÑĢÐ¸": 6544,
      "ĠÑĸÑģÑĤÐ¾ÑĤ": 6545,
      "ĠÐ°ÑĢÐ¾Ð¼": 6546,
      "Â«ÐĹÐ°": 6547,
      "iÐ´": 6548,
      "ĠÐ´ÑĸÐ²ÑĩÐ°ÑĤ": 6549,
      "Ð½ÑıÐ¼Ð¸": 6550,
      "ĠÐ·Ð°ÑĦÑĸÐº": 6551,
      "ÑĸÑģÑĨÐµ": 6552,
      "ĠÑĸÐ½ÑģÑĤÐ¸ÑĤÑĥÑĤÑĥ": 6553,
      "ĠÑĦÐ°ÑħÑĸÐ²ÑĨÑĸÐ²": 6554,
      "ĠÑģÐ¾Ð»Ð¾Ð´": 6555,
      "ÑĢÑĥÐ³Ðµ": 6556,
      "ÑĤÐ¾ÑģÑĤÑĸ": 6557,
      "ÑģÑĤÐ²ÐµÐ½": 6558,
      "ĠÐ·Ð½Ð¸Ñī": 6559,
      "ĠÑĢÐµÐ¶Ð¸Ð¼Ñĸ": 6560,
      "gle": 6561,
      "Ð¾Ð¿Ð¾Ð»ÑĮ": 6562,
      "Ð½Ð°ÐºÑĪÐµ": 6563,
      "ÐŀÑģÐ¾Ð±": 6564,
      "ĠÐ·Ð¼Ð°Ð³Ð°Ð½Ð½Ñı": 6565,
      "ĠÑģÐ¿Ð¾Ð»Ñĥ": 6566,
      "ĠÐ·Ð¸Ð¼": 6567,
      "Ð»ÑİÑİÑĤÑĮÑģÑı": 6568,
      "Ð±Ð¾ÑĤ": 6569,
      "ĠÑĢÐ¾ÑģÑĸÐ¹ÑģÑĮÐºÐ¾Ð³Ð¾": 6570,
      "ĠÐ·Ð¼Ð¾Ð¶ÑĥÑĤÑĮ": 6571,
      "ĠÑĤÐµÐ¾ÑĢÐµ": 6572,
      "ÑĤÐ¾Ð½Ð¾Ð¼": 6573,
      "ĠÐ¼Ð³": 6574,
      "ĠÐ±Ð¾Ð¹Ð¾Ð²Ð¸Ñħ": 6575,
      "ĠÐ·Ð°ÑĢÐ¿": 6576,
      "ĠÑĨÑĸÐ»ÐµÐ¹": 6577,
      "ĠÐ·Ð¼ÐµÐ½ÑĪÐµÐ½Ð½Ñı": 6578,
      "ĠÐ´Ð¸Ð·Ð°Ð¹Ð½": 6579,
      "ĠÐ·Ð°ÑĤÐ²ÐµÑĢÐ´Ð¶": 6580,
      "ÑĹÑħÐ°Ð²": 6581,
      "ĠÑĤÐ²Ð¾ÑĢÑĩÐ¾ÑģÑĤÑĸ": 6582,
      "Ð°Ð»Ð¸ÑģÑĮ": 6583,
      "ĠÑĤÐµÐ¼Ð¿ÐµÑĢÐ°ÑĤÑĥÑĢÐ¸": 6584,
      "ĠÐ½Ð°Ð¿Ð°Ð´": 6585,
      "ĠÐ²Ð¿Ð»Ð¸Ð²Ð°ÑĶ": 6586,
      "Ð¼Ð¾Ð²Ð°Ð½Ñĸ": 6587,
      "ĠÑĦÐ°ÐºÑĤÐ¸ÑĩÐ½Ð¾": 6588,
      "ĠÑĨÐ°ÑĢ": 6589,
      "ĠÐ¾ÑģÑĤÐ°Ð½Ð½ÑĸÐ¹": 6590,
      "ĠÑĸÐ½ÑĤÐµÑĢÐµÑģÑĸÐ²": 6591,
      "ĠÑĢÐ¾ÑģÑĸÐ¹ÑģÑĮÐºÐ¾ÑĹ": 6592,
      "ĠÐ¾ÑģÐ¾Ð±Ð¸ÑģÑĤÑĸ": 6593,
      "ame": 6594,
      "ĠÐ·Ð¼Ð¾Ð¶ÐµÑĤÐµ": 6595,
      "ain": 6596,
      "ĠÐľÐµÑĤ": 6597,
      "Ð²Ð°Ð¹": 6598,
      "ĠÐ¿'ÑıÑĤ": 6599,
      ".Ðļ": 6600,
      "ĠÐ½Ð¾": 6601,
      "ĠÐºÐ°Ð±": 6602,
      "ĠÐ½Ð°ÑĢÐ°Ñħ": 6603,
      "Ð¦ÐĨ": 6604,
      "-ÐĶ": 6605,
      "ÑĤÐ¸Ð½Ð¸": 6606,
      "ĠÐ´Ð¾ÑģÐ²ÑĸÐ´Ñĥ": 6607,
      "ĠÐ¿Ð¾ÑĩÐ¸Ð½Ð°ÑĶ": 6608,
      "ff": 6609,
      "ĠÐ»Ð¸ÑģÑĤÑı": 6610,
      "ĠÐĿÑĸÐº": 6611,
      "ĠÐ¾Ð¿ÑĤÐ¸Ð¼": 6612,
      "ĠÑĢÐ¾Ð·Ð³Ð»ÑıÐ´Ñĥ": 6613,
      "ĠÐ¸Ð·": 6614,
      "ĠÐºÐ¾Ð¾ÑĢÐ´Ð¸Ð½Ð°": 6615,
      "ĠÐ¿ÐµÐ²Ð½Ñĸ": 6616,
      "ĠÐ³Ð¾Ð»Ð¾Ð²Ð¾Ñİ": 6617,
      "ĠÐļÐ¾Ð²": 6618,
      "ĠÐ´Ð¸ÑĤÐ¸Ð½": 6619,
      "ÑĢÑĥÑĢÐ³": 6620,
      "Ð¾Ð±ÑĸÐ»ÑĸÐ²": 6621,
      "ĠÐºÐ°Ð²": 6622,
      "ĠÐ¿ÑĢÐ¾Ð²ÑĸÐ½": 6623,
      "ĠÑģÐµÑĢÑĸÑĹ": 6624,
      "ĠÑĤÐ¾Ð¿": 6625,
      "ĠÐ¶Ð¸Ð²Ðµ": 6626,
      "ĠÐ´Ð¾ÑģÑĤÑĥÐ¿Ñĥ": 6627,
      "ĠÑģÐµÐ¼ÑĸÐ½Ð°": 6628,
      "ĠÐ²ÑĸÐ´Ð±ÑĥÐ»Ð¾ÑģÑı": 6629,
      "ĠÐ´Ð¾Ð·Ð²Ð¾Ð»Ð¸ÑĤÑĮ": 6630,
      "ĠÐĲÐ½Ð³": 6631,
      "ĠÐ²Ð°Ð¼Ð¸": 6632,
      "ĠÑĦÑĢÑĥ": 6633,
      "ÑĩÐ°Ð²": 6634,
      "ĠCom": 6635,
      "ĠÐ¿ÑĢÐ°Ð²Ð¾ÑģÐ»Ð°Ð²": 6636,
      "ĠÐļÑĥÑĢ": 6637,
      "ĠÐ²Ð¸ÑĢÑĸÑĪÐ¸Ð»Ð¸": 6638,
      "Ð´Ð¸Ñħ": 6639,
      "ĠÑģÑĤÐ°Ð²Ð»ÐµÐ½Ð½Ñı": 6640,
      "ÑĨÑĸÐ¹Ð½Ñĥ": 6641,
      "ros": 6642,
      "ĠÐ·Ð²'ÑıÐ·Ð¾Ðº": 6643,
      "ĠÐºÐ¾ÑĢÐ¸ÑģÑĤÑĥÐ²Ð°ÑĩÑĸÐ²": 6644,
      "ÐºÐ¾Ð½ÑģÑĤÑĢÑĥ": 6645,
      "ĠÑĢÐ°Ð¹Ð¾Ð½Ð½Ð¾ÑĹ": 6646,
      "Ð½Ð°ÑĨÑĸÑĹ": 6647,
      "ĠÐ²Ð¾Ð»Ð¾Ð³": 6648,
      "ÐĿÐ¡": 6649,
      "Ð°ÑħÐ¸Ñģ": 6650,
      "ÑĤÐµÑĢÐ½Ð°": 6651,
      "ĠÑģÐºÐ»Ð¸Ðº": 6652,
      "ĠÐ¿ÑĢÐ¾ÑĨÐµÐ´ÑĥÑĢÐ¸": 6653,
      "ĠÐ·ÑĢÐ¾": 6654,
      "ÑĢÐ°Ð½ÑģÐ¿": 6655,
      "ĠÑģÐ¿ÐµÑĨÑĸÐ°Ð»ÑĮÐ½Ð¾": 6656,
      "ĠÑĥÐ¿ÑĢÐ°Ð²Ð»ÑĸÐ½": 6657,
      "ĠÐ´Ð¾Ð±ÑĢÐ¾Ð²": 6658,
      "Ð°ÑĤÐ¾ÑĢÐ¸": 6659,
      "Ð°ÑĢÐ°Ð·Ñĸ": 6660,
      "]Ċ": 6661,
      "ĠÐ´Ð¾Ð·Ð²Ð¾Ð»ÑıÑİÑĤÑĮ": 6662,
      "Ð´ÑĥÐ¼": 6663,
      "ĠÐ¿ÑĢÑıÐ¼Ð¾": 6664,
      "ĠÐŀÐ»ÐµÐºÑģÑĸÐ¹": 6665,
      "ĠÐ¾Ð±ÑĢÐ¾Ð±ÐºÐ¸": 6666,
      "ĠÐºÐ¾Ð½ÐºÑĥ": 6667,
      "Ð°Ð¼Ð¿ÐµÑĢÐµÐ´": 6668,
      "ĠÐĳÐ¾": 6669,
      "ĠNew": 6670,
      "ĠÐ¼Ð¾ÑĤÐ¸": 6671,
      "ĠÐ·Ð°Ð¼ÑĸÐ½": 6672,
      "ÑģÑĤÐ°Ð½Ð¾Ð²Ð°": 6673,
      "ory": 6674,
      "ĠÐ½Ð°Ð²ÑĩÐ°Ð»ÑĮÐ½Ð¾Ð³Ð¾": 6675,
      "ĠÐ¿ÑĢÐ¾ÑĢ": 6676,
      "ĠÐ¾ÑģÐ²ÑĸÑĤÑĥ": 6677,
      "ÐºÐ¾ÑĢÐ´Ð¾Ð½": 6678,
      "ĠÐ¼Ð¾Ð¶Ð»Ð¸Ð²Ñĸ": 6679,
      "ĠÑĢÐµÐ³ÑĸÐ¾Ð½Ñĥ": 6680,
      "ĠÐ¿ÐµÑĢÐµÐ²ÑĸÑĢÐºÐ¸": 6681,
      "ĠÐĦÐ²Ð³ÐµÐ½": 6682,
      "Ð¢ÐµÑĢ": 6683,
      "ĠÐµÐºÑģÐ¿Ð»ÑĥÐ°ÑĤÐ°ÑĨÑĸÑĹ": 6684,
      "ear": 6685,
      "Ð²Ð¸ÑīÐ°": 6686,
      "ĠÐ³Ð¾Ð»Ð¾Ð²Ð½Ð¸Ð¼": 6687,
      "ĠÐºÐ½Ð¾Ð¿": 6688,
      "ĠÐ½Ð¾Ð²Ð¸Ð½": 6689,
      "ĠÐ³ÑĥÑĢÑĤ": 6690,
      "ĠÐ¿ÑĢÐ¾ÑĨÐµÑģÐ¸": 6691,
      "ĠÐ¿ÐµÑĢÑģÐ¾Ð½Ð°": 6692,
      "ĠÑĥÐ½Ð¸ÐºÐ½ÑĥÑĤÐ¸": 6693,
      "Ð²Ð°Ð½Ð¸Ð¹": 6694,
      "ĠÐ²Ð´Ð¾Ð¼Ð°": 6695,
      "ĠÐ¢ÑĢÐ¸": 6696,
      "-ÑıÐºÑĸ": 6697,
      "Ð¸Ð¼Ð¸": 6698,
      "ÐµÐ»ÐµÐ¹": 6699,
      "ĠÐ¿ÑĢÐ¸Ð·Ð²Ð¾Ð´Ð¸ÑĤÑĮ": 6700,
      "ĠÑĢÐµÑģÑĤÐ¾": 6701,
      "Ð¾ÑĢÐ¸ÑģÑĤÐ¸": 6702,
      "ĠÑĤÑĸÐ»Ð¾": 6703,
      "ĠÐ·Ð½Ñı": 6704,
      "ÑĸÐ»Ð¾Ðº": 6705,
      "Ð½ÑİÑĶÑĤÑĮÑģÑı": 6706,
      "ĠÐŀÑģÑĮ": 6707,
      "ĠÑĸÐ½ÑĪÐ¾ÑĹ": 6708,
      "ĠÐºÑĢÐ°Ñİ": 6709,
      "Ð¶ÐºÐ°": 6710,
      "Ġy": 6711,
      "ĠÐºÐ»ÑĸÑĤÐ¸Ð½": 6712,
      "ĠÐ¿Ð¾Ð²ÐµÐ´ÑĸÐ½ÐºÐ¸": 6713,
      "Ð½ÑĥÐº": 6714,
      "ĠÑĸÐ³Ð¾ÑĢ": 6715,
      "ĠÐ¼Ð°Ð¹Ð±ÑĥÑĤÐ½ÑĶ": 6716,
      "ÑĸÐ»ÐºÐ¸": 6717,
      "ĠÐ·Ð¾Ð½Ð¸": 6718,
      "ĠÐ·Ð¼ÑĸÐ½Ð¸ÑĤÐ¸": 6719,
      "ÐµÐ»Ð°": 6720,
      "ĠÐ²ÑĸÐ¹ÑģÑĮÐºÐ¾Ð²Ð¾ÑĹ": 6721,
      "ĠÐ°ÐºÐ°Ð´ÐµÐ¼ÑĸÑĹ": 6722,
      "tern": 6723,
      "ĠÐ¿Ð¾Ñı": 6724,
      "ĠÐ¿ÑĤÐ°Ñħ": 6725,
      "ĠÐ¿Ð¾Ð»ÑĸÑĤÐ¸": 6726,
      "ĠÑĤÑĢÐ¸Ð²Ð°Ð»Ð¸": 6727,
      "ĠÑģÑĤÐ°Ð½Ð´Ð°ÑĢÑĤ": 6728,
      "ĠÐ³ÐµÐ½": 6729,
      "ĠÑĪÑĤÐ°": 6730,
      "Ð¾Ð·Ð¸ÑĨÑĸÑĹ": 6731,
      "ĠÐºÐ¸ÑĤÐ°Ð¹": 6732,
      "ÑīÐµÐ½ÐºÐ¾": 6733,
      "ĠÑĢÐ¾Ð·Ð²'ÑıÐ·": 6734,
      "ĠÐ´Ð¸ÑĤÐ¸Ð½Ñĥ": 6735,
      "Ð½ÐµÐ½Ð°": 6736,
      "Ð°Ð»Ð°Ñħ": 6737,
      "ĠÐ£Ð½Ñĸ": 6738,
      "ĠÐ½Ð°Ð¹Ð²Ð°Ð¶Ð»Ð¸Ð²Ñĸ": 6739,
      "ĠÐ²ÑģÑĤÐ°Ð½Ð¾Ð²Ð¸ÑĤÐ¸": 6740,
      "ĠÑģÑĢÑĸÐ±": 6741,
      "ĠÐºÑĸ": 6742,
      "ĠÐŀÑĢÐ³Ð°Ð½ÑĸÐ·": 6743,
      "ÑĤÐ¸Ð¿": 6744,
      "ĠÐ¼ÐµÑĪÐºÐ°Ð½ÑĨÑĸÐ²": 6745,
      "ĠÐ¾Ð³Ð»ÑıÐ´Ñĥ": 6746,
      "ĠÐ²Ð¿ÑĢÐ¾Ð²Ð°Ð´Ð¶ÐµÐ½Ð½Ñı": 6747,
      "ĠÐĽÑİÐ´": 6748,
      "ĠÑģÐ¿ÑĢÐ°Ð²ÐµÐ´": 6749,
      "ĠÐ½Ð°ÑģÑĸÐ½Ð½Ñı": 6750,
      "ĠÐ¿ÑĢÐ¸Ð´Ð±Ð°ÑĤÐ¸": 6751,
      "ĠÐŁÑĢÐµÐ·Ð¸Ð´ÐµÐ½ÑĤ": 6752,
      "ĠÐĴÐ¸Ñģ": 6753,
      "Ð¢ÐĲ": 6754,
      "ĠÑģÐ¾ÑİÐ·": 6755,
      "ĠÐ¿ÐµÑĢÐµÑĤÐ²Ð¾ÑĢÐ¸": 6756,
      "ÑīÐ°Ð´": 6757,
      "Ð¾ÑĢÑĥÑĪÐµÐ½Ð½Ñı": 6758,
      "ĠÐ±ÑĥÐ´Ð¸Ð½ÐºÑĸÐ²": 6759,
      "ĠÐ²ÑĸÐ´Ð½Ð¾Ð²Ð¸": 6760,
      "ĠÐ¼ÐµÑĤÐ¾Ð´ÑĸÐ²": 6761,
      "ĠÐĽÐ¸ÑĤ": 6762,
      "ĠÑĤÐµÐ¾ÑĢÑĸÑĹ": 6763,
      "ĠÐ¿ÑĢÐ¸Ð²Ð¾Ð´Ñĥ": 6764,
      "ĠÑĢÐ¾ÑģÑĸÑı": 6765,
      "ĠÐ³ÐµÑĢÐ¾ÑĹ": 6766,
      "Ð´Ð¸Ð»Ð¸": 6767,
      "-ÑĦ": 6768,
      "ĠÐ·Ð°ÑĢÐµÑĶÑģÑĤÑĢ": 6769,
      "ÐĽÑĸÑĤÐµÑĢÐ°ÑĤÑĥÑĢÐ°": 6770,
      "ĠÐ²ÑĩÐ¸Ð½": 6771,
      "ÑĤÑĮÐ¼Ð¸": 6772,
      "ork": 6773,
      "Ð½Ð¸ÑĨÐµÑİ": 6774,
      "Ð»Ð¾Ð²Ð¾": 6775,
      "ĠÐ¿Ð¾ÑģÑĤÑĥÐ¿Ð¾Ð²Ð¾": 6776,
      "ĠÐ½Ð°ÐºÐ¾Ð¿Ð¸": 6777,
      "ÑĢÑĸÑİ": 6778,
      "ĠÐ³Ð¾Ð»Ð¾Ð²Ñĥ": 6779,
      "ĠÐ¿Ð°ÑĢÑĤÑĸÑı": 6780,
      "ĠÐ¿ÐµÑĢÐµÐ´Ð°ÑĩÑĸ": 6781,
      "\"ÐĴ": 6782,
      "ĠÐłÑĸ": 6783,
      "ĠÐ´ÐµÐºÑĸÐ»ÑĮÐºÐ¾Ñħ": 6784,
      "ĠÐµÑĤÐ°Ð¿Ñĸ": 6785,
      "ĠÐ·Ð°Ð²Ð¾Ð´": 6786,
      "ĠÐľÑĸÐ½ÑĸÑģÑĤÑĢÑĸÐ²": 6787,
      "ĠÐ²Ð¸Ð³ÑĢÐ°": 6788,
      "Ð»ÑĮÐ½Ðµ": 6789,
      "ĠÐľÐ°ÑĢÑĸ": 6790,
      "ĠÐµÐ¿ÑĸÐ·": 6791,
      "ĠÐ²ÑĸÐ´Ð¿Ð¾Ð²ÑĸÐ´Ñĸ": 6792,
      "ĠÑģÐ¿ÑĸÐ»ÐºÑĥ": 6793,
      "ĠÑģÐµÐ½": 6794,
      "ĠÐ´Ð¾Ð´Ð°ÑĤÐ¸": 6795,
      "ĠÐ¿ÑĢÐ¸ÑħÐ¸": 6796,
      "ĠÑģÑĤÑĢÑĥÐºÑĤÑĥÑĢÐ¸": 6797,
      "ĠÑĤÑĥÑĢÐ¸ÑģÑĤÐ¸": 6798,
      "ĠÐºÐ¾ÑĢÐ¾Ð½Ð°Ð²Ñĸ": 6799,
      "Ð¾Ð²Ð°Ð½Ð¸Ð¼Ð¸": 6800,
      "Ð¾Ð´Ð¸Ð²ÑģÑı": 6801,
      "ĠÐĹÐ±ÑĢÐ¾Ð¹Ð½Ð¸Ñħ": 6802,
      "ĠÐ²ÑĸÐ¹Ð½Ð°": 6803,
      "ĠÑĸÐ½Ð²Ð°Ð»ÑĸÐ´": 6804,
      "ĠÑĥÐ³Ð¾Ð´Ð¸": 6805,
      "aw": 6806,
      "ĠÐ½Ð¾Ð²Ðµ": 6807,
      "ĠÐ¾ÑĩÐµÐ²Ð¸Ð´": 6808,
      "ĠÐļÐ¸ÑĹÐ²ÑģÑĮÐºÐ¾ÑĹ": 6809,
      "ĠÑĢÐµÐ¶Ð¸Ð¼Ñĥ": 6810,
      "ĠÑĤÐ¸Ð¼ÑĩÐ°ÑģÐ¾Ð²Ð¾": 6811,
      "ÑģÐºÐ¾Ð¹": 6812,
      "ĠÐ´Ð°Ð»ÐµÐºÐ¾": 6813,
      "ĠÑĤÑĢÑĥÐ±": 6814,
      "ĠÑĸÐ½ÑĤÐµÑĢÐ²'Ñİ": 6815,
      "ÐµÑĢÑĤÐ°": 6816,
      "ĠÐĿÐ°Ð¹Ð±ÑĸÐ»ÑĮ": 6817,
      "ĠÐ¿Ð»Ð¸": 6818,
      "ÑĸÐ²Ð½Ð°": 6819,
      "ÑĸÐ»ÑĮÐ½Ð¾ÑĹ": 6820,
      ".Ðĵ": 6821,
      "are": 6822,
      "ĠÐ²Ð²ÐµÐ´ÐµÐ½Ð½Ñı": 6823,
      "ĠCO": 6824,
      "ark": 6825,
      "ĠÐ²Ð¸Ð·Ð½": 6826,
      "Ð°ÐºÐ°": 6827,
      "Ð¾Ð¼Ð¸Ð¹": 6828,
      "Ð½ÑĥÐ»Ð¸ÑģÑı": 6829,
      "ĠÐºÐ°Ð¶ÑĥÑĤÑĮ": 6830,
      "ĠÐ´Ð°ÑĤ": 6831,
      "ĠÐ¿ÑĢÐ¸Ð»Ð°Ð´": 6832,
      "ĠÑĤÐ¾Ð²Ð°ÑĢÐ¸ÑģÑĤÐ²Ð°": 6833,
      "ĠÐ²Ð¸Ð»Ñĥ": 6834,
      "Ð±ÑĥÑĤÑĮ": 6835,
      "ational": 6836,
      "Ð¾ÑĢÐ¾Ð½Ñĥ": 6837,
      "ĠÐ²ÑĸÐ´Ð¼Ð¾Ð²": 6838,
      "ĠÑĤÐ²Ð¾ÑĹ": 6839,
      "ĠÐ·ÐµÐ»ÐµÐ½": 6840,
      "ĠÑģÑĥÐ¼Ð¸": 6841,
      "Ð¾ÑĪÐµÐ½Ð½Ñı": 6842,
      "ĠÐ·Ð°Ð±Ð¾ÑĢÐ¾Ð½": 6843,
      "ary": 6844,
      "ĠÐ´ÑĢÑĥÐ·ÑĸÐ²": 6845,
      "Ð¼Ð°Ð½Ð°": 6846,
      "ĠÐ·Ð´Ð°ÑĶÑĤÑĮÑģÑı": 6847,
      "ÑĤÐµÑĢÑĸ": 6848,
      "ĠÐ³Ð¾ÑĢÑĸ": 6849,
      "ÐµÑĦÑĸ": 6850,
      "ĠÑĪÐºÐ¾Ð»Ñı": 6851,
      "âĢ¦âĢ¦": 6852,
      "ĠÐ·Ð°Ð³Ð°Ð»ÑĮÐ½Ð¾Ð³Ð¾": 6853,
      "Ð°Ð»ÑĮÐ¹": 6854,
      "ĠÐłÐµÑģÐ¿ÑĥÐ±Ð»ÑĸÐºÐ¸": 6855,
      "Ð°ÑĢÐ°Ð½Ð½Ñı": 6856,
      "-ÐºÐ°": 6857,
      "ĠÑģÐ²ÑıÑĤÐºÑĥ": 6858,
      "ÑĢÐ¾Ð²Ð¸Ð¹": 6859,
      "ĠÑĩÐ°ÑģÑĤÑĸÑĪÐµ": 6860,
      "ÐŀÐł": 6861,
      "ÑĸÐ»ÑĮÐ½Ð¸Ñħ": 6862,
      "ÑĤÐ°Ð¶": 6863,
      "ĠÐ¿ÐµÑĢÐµÑĢÐ¾Ð±": 6864,
      "iÐ²": 6865,
      "ĠÐ²ÐµÐ´": 6866,
      "ĠÑģÐµÑĢÐµÐ´Ð½ÑĮÐ¾Ð¼Ñĥ": 6867,
      "ĠÐ²ÐµÐ»Ð¸ÐºÐ¾Ð³Ð¾": 6868,
      "ĠÑħÐ°ÑĢÐ°ÐºÑĤÐµÑĢÐ¸ÑģÑĤÐ¸ÐºÐ¸": 6869,
      "ĠÑģÐµÐºÑģÑĥ": 6870,
      "ĠÐ´Ð¾Ð´Ð¾Ð¼Ñĥ": 6871,
      "ĠÐ¿ÑĢÐ¸Ð²Ð°Ð±": 6872,
      "Ð»Ð¾ÑĤÐ¸": 6873,
      "ĠÐ¿ÑĢÑĸÐ¾ÑĢÐ¸": 6874,
      "ĠÑģÐµÑģ": 6875,
      "ÐļÐ¸ÑĹÐ²": 6876,
      "ĠÐ±ÑĥÑħÐ³Ð°Ð»": 6877,
      "ĠÐ³ÑĸÐ¼Ð½Ð°": 6878,
      "(C": 6879,
      "ĠÑĢÑĸÑĪÐµÐ½Ð½ÑıÐ¼": 6880,
      "ĠÑĤÐµÑĢÐ¸ÑĤÐ¾ÑĢÑĸÑİ": 6881,
      "ÐļÐĺ": 6882,
      "ÑĦÑĸÐºÐ°ÑĨÑĸÑı": 6883,
      "ĠÑĸÐ½Ð²ÐµÑģÑĤ": 6884,
      "ĠÐ¿Ð¾ÑĩÐ°Ð»Ð°": 6885,
      "ĠÐ²ÑĸÐ´Ð½Ð¾ÑģÐ½Ð¾": 6886,
      "ĠÐ¿ÑĢÐ¾ÑĦÐµÑģÐ¾ÑĢ": 6887,
      "ĠÐºÐ°ÑĤÐ°Ð»Ð¾Ð·Ñĸ": 6888,
      "ĠÑĪÐ²Ð¸Ð´ÐºÑĸÑģÑĤÑĮ": 6889,
      "ĠÐºÐ¾ÑģÑĤ": 6890,
      "ĠIII": 6891,
      "ĠÐĿÐ°ÑĨÑĸÐ¾Ð½Ð°Ð»ÑĮÐ½Ð¾Ð³Ð¾": 6892,
      "ĠÐ²Ð¸Ð·Ð½Ð°ÑĩÐ°ÑĶÑĤÑĮÑģÑı": 6893,
      "Ð·Ð°ÑĨÑĸÑİ": 6894,
      "ĠÐ²Ð¸ÐºÐ»Ð°Ð´Ð°": 6895,
      "-ÐĲ": 6896,
      "Ð²Ð¾Ð±": 6897,
      "Ð¢Ðĺ": 6898,
      "ĠÐ´Ð°ÑİÑĤÑĮ": 6899,
      "ĠÐ²Ð¸Ð½ÑıÑĤ": 6900,
      "ĠÐķÐ½": 6901,
      "ĠÑĢÐ¾Ð·ÑĤÐ°ÑĪÐ¾Ð²Ð°Ð½Ð¸Ð¹": 6902,
      "ĠÐĶÑĢÑĥ": 6903,
      "Ð¾ÑĹÑĤÑĮ": 6904,
      "ĠÐ¿ÑĢÐ¸Ðº": 6905,
      "ĠÐ³ÑĥÐ±ÐµÑĢ": 6906,
      "ĠÑģÑĤÐ°ÑĢÐ¸": 6907,
      "ĠÐ°ÑĥÐ´Ð¸ÑĤÐ¾ÑĢ": 6908,
      "ĠÐ¿Ð°ÑĢÐºÑĥ": 6909,
      "ÑĢÐ°Ð¿Ð¸": 6910,
      "Ð¾ÑĤÐµÑħ": 6911,
      "Ð²ÐµÐ¹ÑĨÐ°ÑĢ": 6912,
      ".-": 6913,
      "ĠÐ¼ÑĸÐ¶Ð½Ð°ÑĢÐ¾Ð´Ð½Ð¾Ð³Ð¾": 6914,
      "ĠÐºÐµÑĢÑĸÐ²Ð½Ð¸ÑĨÑĤÐ²Ð¾Ð¼": 6915,
      "Ð°Ð·Ð¸Ð½": 6916,
      "ax": 6917,
      "ĠÐ³Ð°ÑĢÐ°Ð½ÑĤ": 6918,
      "ÐµÑĤÑĸÐ²": 6919,
      "ĠÐºÐ¾Ð¶Ð½Ð°": 6920,
      "ĠÐ¿Ð»Ð°Ð½Ñĥ": 6921,
      "ĠÐ´ÐµÑĢÐµÐ²'Ñı": 6922,
      "Ð´Ð½Ñĸ": 6923,
      "ĠÐ½Ð°Ð¹Ð¼ÐµÐ½": 6924,
      "per": 6925,
      "ĠÐ¿ÑĢÐ¾Ð³ÑĢÐ°Ð¼Ñĥ": 6926,
      "ĠÐ¾ÑĤÑĢÐ¸Ð¼Ð°ÑĶ": 6927,
      "ĠÑĸÐ½ÑĤÐµÑĢÐµ": 6928,
      "ÑĢÐ½Ð¸Ð¹": 6929,
      "ĠÑħÐ¾ÑĩÑĥÑĤÑĮ": 6930,
      "ĠÐºÐ½Ð¸Ð³": 6931,
      "ĠÑĸÑĤÐ°Ð»": 6932,
      "ĠÐ¿Ð¾ÑĢÑĸÐ²Ð½ÑıÐ½Ð¾": 6933,
      "Ð½Ð¸ÑĨÑĮÐºÐ¾ÑĹ": 6934,
      "Ð»ÑıÑĤÐ¸ÑģÑı": 6935,
      "ĠÐ·Ð½Ð°Ñİ": 6936,
      "ĠÑģÑħÐµ": 6937,
      "ĠÐ²ÑģÐµÑĢÐµÐ´Ð¸Ð½Ñĸ": 6938,
      "ĠÐ½Ð°Ð³Ð¾ÑĢ": 6939,
      "ÑģÑĤÐ¸Ð½": 6940,
      "Ð´Ð°ÑĢ": 6941,
      "ĠÐ½Ð¾ÑĢÐ¼Ð¸": 6942,
      "ĠÑĦÑĸÐ·Ð¸ÑĩÐ½Ð¸Ñħ": 6943,
      "ĠÐļÐ¾": 6944,
      "ĠÑĤÐ°ÐºÐ¾Ñİ": 6945,
      "ĠÐ²Ð¸Ð´Ð°": 6946,
      "Ð¾ÑĩÐ°ÑĤ": 6947,
      "ĠÐ²ÑĸÑĤÑĩÐ¸Ð·Ð½Ñı": 6948,
      "ĠÐ±ÑĥÐ²Ð°ÑĶ": 6949,
      "ĠÐ¾ÐºÑĢÐµÐ¼": 6950,
      "ĠÐ²ÐµÐ»Ð¸ÐºÐ¾ÑĹ": 6951,
      "ĠÐ·Ð¾Ð±ÑĢÐ°Ð¶": 6952,
      "ĠÐ¼ÑĸÑģÑĨÐµÐ²Ñĸ": 6953,
      "ĠÐ¿ÑĢÐ°ÑĨÑĸÐ²Ð½Ð¸ÐºÐ¸": 6954,
      "ĠÐ±Ð¸ÑĤ": 6955,
      "ĠÐ¾ÑĢÐ³Ð°Ð½ÑĸÐ·Ð¼": 6956,
      "ĠÐĳÐ°Ð³Ð°ÑĤÐ¾": 6957,
      "ĠÐ°ÑĢÑħÑĸÐ²": 6958,
      "ĠÑģÐ¿Ð»Ð°": 6959,
      "ÑģÑĤÐ°Ð½Ð½Ñı": 6960,
      "ult": 6961,
      "ĠÐ¿ÑĢÐµÐ¿Ð°ÑĢÐ°ÑĤÑĥ": 6962,
      "Ð½ÑĸÐºÐ¸": 6963,
      "ÐµÐ·ÑĥÐ»ÑĮ": 6964,
      "Ð°Ð»Ð¾ÑģÑĮ": 6965,
      "ĠÐ·Ð°ÑģÐ¾Ð±Ð°Ð¼Ð¸": 6966,
      "ĠÐĴÐ°ÑĪ": 6967,
      "ĠÐ¡ÑĥÐ¼": 6968,
      "ĠÐĳÐ¾Ð¶": 6969,
      "ÑĢÐ°ÑħÑĥÐ½": 6970,
      "ĠÐ¼ÑĸÑģÑĤÐ¸ÑĤÑĮÑģÑı": 6971,
      "ĠÐ¾ÑģÑĤÐ°ÑĤÐ¾Ñĩ": 6972,
      "ĠÐ¿Ð°ÑĢÑĤÐ½ÐµÑĢ": 6973,
      "ÐŀÐĹ": 6974,
      "ĠÐ²ÑĸÐ´Ð¿Ð¾Ð²ÑĸÐ´Ð½Ð¸Ñħ": 6975,
      "Ð¾Ð²Ð¸Ð½Ð°": 6976,
      "ĠÐĿÑĥ": 6977,
      "ĠÑĢÑĸÑĩÐºÐ¸": 6978,
      "Ġhttps": 6979,
      "ĠÐºÑĸÐ»ÑĮÐºÑĸÑģÑĤÑİ": 6980,
      "ĠÐ²Ð°Ð³ÑĸÑĤÐ½Ð¾ÑģÑĤÑĸ": 6981,
      "Ð¾Ð·Ð½Ð°Ð²": 6982,
      "ĠÐ¾ÑģÑĤÐ°Ð½Ð½ÑĸÑħ": 6983,
      "ial": 6984,
      "ore": 6985,
      "ĠÐ¼ÑĸÑģÑĨÐµÐ¼": 6986,
      "Ð¼ÑĸÑģ": 6987,
      "ĠÑģÐ»ÑĥÐ¶Ð±Ñĥ": 6988,
      "Ð¾ÑģÑĤÐµÐ¹": 6989,
      "ĠÐ±Ð°ÐºÑĤ": 6990,
      "(,": 6991,
      "ĠÐ´Ð¾ÑħÐ¾Ð´ÑĸÐ²": 6992,
      "ĠÐ²ÐºÑĢÐ°": 6993,
      "ĠÐ¼Ð¾Ð²Ñĥ": 6994,
      "ang": 6995,
      "Ð²ÑĸÑĤÑĥ": 6996,
      "ĠÐ½ÐµÐ·Ð½Ð°": 6997,
      "ĠÑĨÐ¸Ðº": 6998,
      "ÑĩÐ°ÑģÐ½Ð¾": 6999,
      "ĠÐĽÑĮÐ²Ð¾Ð²Ð°": 7000,
      "ĠÐ¡ÐµÑĢ": 7001,
      "ÐĶÑĸ": 7002,
      "ĠÐ²Ð¸Ð±Ð¾ÑĢÑĥ": 7003,
      "ĠÐ´ÑĸÑĤÑĮÐ¼Ð¸": 7004,
      "ÑĢÐ¾Ð½ÑĸÑĩ": 7005,
      "ĠÐĶÐ¾Ð²": 7006,
      "ĠÑģÑĤÐ°Ð½Ð¾Ð²": 7007,
      "ĠÐ¢Ð°ÐºÑĸ": 7008,
      "ĠÐ·ÐµÐ¼Ð»Ñı": 7009,
      "ĠÐ°ÐµÑĢÐ¾Ð¿": 7010,
      "ĠÑģÑĤÐ¾Ñı": 7011,
      "Ð¼ÑĸÑģÑĤ": 7012,
      "ĠÐ¼ÑĥÐ·ÐµÐ¹": 7013,
      "ĠÐ²Ð´Ð°": 7014,
      "ĠÐ¾ÑĢÐ³Ð°Ð½Ñĥ": 7015,
      "ĠÐ¿ÐµÑĢÐµÐºÐ¾Ð½Ð°": 7016,
      "ÐĴÐĲ": 7017,
      "Ð¡Ð¸": 7018,
      "ÐĵÐ¾Ð»": 7019,
      "Ð°Ð´ÑĤÐ¾": 7020,
      "Ð»ÑĸÐ¹": 7021,
      "ĠÐ¿Ð¾ÑĢÐ°Ð½": 7022,
      "ĠÐ·Ð°Ñı": 7023,
      "ĠÐ¾Ð±Ð¾Ñħ": 7024,
      "ĠÐ²ÑĢÐ°Ð¶ÐµÐ½Ð½Ñı": 7025,
      "ĠÐ¶Ð¸Ð²ÑĥÑĤÑĮ": 7026,
      "ĠÐłÐ°Ð´ÑıÐ½": 7027,
      "ĠÑĦÑĥÐ½ÐºÑĨÑĸÐ¹": 7028,
      "ĠÐ¿Ð¾Ð¶ÐµÐ¶": 7029,
      "ĠÐ¿Ð¾Ð´Ð¾Ð±": 7030,
      "ĠÐ¾Ð±Ð»Ð°ÑģÐ½Ð¾Ð³Ð¾": 7031,
      "ÑĹÐ¶Ð´Ð¶": 7032,
      "ĠÐ´ÐµÐ¼Ð¾ÐºÑĢÐ°": 7033,
      "Ð¡Ð°Ð¼": 7034,
      "ÑĩÐ¸Ð¼Ð¸": 7035,
      "ÑĨÐµÑĢ": 7036,
      "(Ð½Ðµ": 7037,
      "ĠÑĩÐ°Ð¹": 7038,
      "ĠÐ¤Ð¾ÑĢ": 7039,
      "ĠQ": 7040,
      "ĠÐºÐ¾Ð½ÑĤÐ°ÐºÑĤ": 7041,
      "ĠSh": 7042,
      "oogle": 7043,
      "ĠÐ·Ð±ÑĥÐ´": 7044,
      "ĠÐ±Ð°Ð·Ð¸": 7045,
      "ÑĩÐ°Ð»Ð¸": 7046,
      "ĠÐ¿ÑĢÐ¸Ð´Ñĸ": 7047,
      "ÑĪÑĸÐ²": 7048,
      "ĠÐ¿Ð¾ÑģÑĤÐ°Ð½Ð¾Ð²": 7049,
      "ĠÐĳÐ°Ð¶Ð°Ñİ": 7050,
      "ĠÑĢÐ¾Ð·Ð¼ÑĸÑĢÑĸ": 7051,
      "ĠÐ°ÐºÐ°Ð´ÐµÐ¼Ñĸ": 7052,
      "ĠÐ¡Ð¾ÑİÐ·Ñĥ": 7053,
      "ĠÐ¿ÐµÐ²Ð½Ð¸Ñħ": 7054,
      "ÑĨÐ¸Ð¸": 7055,
      "ĠÑĦÐ¾Ð½Ð´": 7056,
      "ĠÐĸÐ¸ÑĤÐ¾Ð¼Ð¸ÑĢ": 7057,
      "Ð¾ÑģÐºÐ¾Ð½Ð°Ð»ÐµÐ½Ð½Ñı": 7058,
      "ĠÐ³ÑĸÐ¿ÐµÑĢ": 7059,
      "ĠÑģÑĦÐµÑĢÐ¸": 7060,
      "ĠÑģÑĤÐ°Ð½ÑĨÑĸÑĹ": 7061,
      "ĠÐ²Ð¸ÑĢÐ¾Ñī": 7062,
      "ĠÐ·Ð²Ð°Ð½Ð½Ñı": 7063,
      "ĠÐ¾Ð¿ÑĢÐ¸": 7064,
      "ĠÐ³Ð°Ð»Ð°Ðº": 7065,
      "Ð»ÐµÐ½Ð¾ÑĹ": 7066,
      "Ġe": 7067,
      "ÑĸÐ²ÐµÐ»ÑĮ": 7068,
      "ĠÐ¢Ð¾Ð¼": 7069,
      "ĠÐ·Ð½Ð°Ð¹ÑĪÐ»Ð¸": 7070,
      "ĠÐĳÑĥÐ´ÑĮ": 7071,
      "ĠÑĨÑĸÐ»ÑĸÑģ": 7072,
      "ĠÐ³ÑĢÐ¾Ð¼Ð°Ð´ÑģÑĮÐºÐ¸Ñħ": 7073,
      "ĠÑĤÐ¸ÑģÐºÑĥ": 7074,
      "ÑģÐ¼ÐµÐ½": 7075,
      "ĠÐ²ÑĢÐ°Ð¶": 7076,
      "ÑģÐ¸Ð½": 7077,
      "Ð³ÑĸÑĢ": 7078,
      "ĠÐ¿Ð¾Ð¿ÐµÑĢÐµÐ´Ð½ÑĸÑħ": 7079,
      "ĠÐ½Ð°Ð²Ð¿Ð°ÐºÐ¸": 7080,
      "Ð±ÑĸÐ¶": 7081,
      "Ð°Ð·Ð½Ð°": 7082,
      "ĠÐ¿ÐµÑĢÑĪÐ°": 7083,
      "ĠÐ·Ð¾Ð½Ñĸ": 7084,
      "ÑĪÐµÐ½Ð½Ñĸ": 7085,
      "ĠÐ¶ÑĥÑĢÐ½Ð°Ð»ÑĸÑģÑĤ": 7086,
      "ĠÐ¼Ð¾Ð·ÐºÑĥ": 7087,
      "Ð¼Ð°Ðº": 7088,
      "ÑĸÐ»ÑĮÐ½Ð¸Ð¹": 7089,
      "ĠÐ½ÐµÐ·Ð°Ð»ÐµÐ¶Ð½Ð¾": 7090,
      "Ð¾Ð´Ð°Ð²Ð½Ð¾": 7091,
      "ÑĤÐ¸Ð²Ð¸": 7092,
      "pt": 7093,
      "ĠÑĢÑĸÐ²Ð½ÐµÐ¼": 7094,
      "ĠÐĶÐŁ": 7095,
      "(S": 7096,
      "Ð²Ð°Ð¹ÑĤÐµ": 7097,
      "ĠÑĩÑĤÐ¾": 7098,
      "ĠÐ¾ÑģÐ½Ð°": 7099,
      "ĠÐłÑĸÐ²Ð½ÐµÐ½": 7100,
      "ĠÑĢÐµÐ°Ð³": 7101,
      "ĠÐ¼Ð¾Ð¶Ñĥ": 7102,
      "ĠÑĤÑĢÐ°Ð³": 7103,
      "Ð°Ð½Ð¾Ñİ": 7104,
      "ĠÑģÐ¸Ð½ÑĤÐµ": 7105,
      "(Ðº": 7106,
      "ĠÐ¿ÑĢÐ¾Ð¶Ð¸": 7107,
      "ÑĪÐµÐ½ÐºÐ¾": 7108,
      "ÐĿÑĸ": 7109,
      "ĠÐ¿ÑĢÐµÐ´ÑģÑĤÐ°Ð²Ð¸": 7110,
      "ĠÐ·Ð°ÑģÑĤÐ¾ÑģÐ¾Ð²ÑĥÐ²Ð°ÑĤÐ¸": 7111,
      "ĠÐ¿Ð¾Ð»ÑĸÑĨÐµÐ¹": 7112,
      "ĠÐ·Ð°Ð±ÑĢÑĥÐ´": 7113,
      "ĠÐ·Ð°Ð»Ñĸ": 7114,
      "ĠÑģÐºÐ»Ð°Ð´Ð½Ð¾": 7115,
      "ÑĩÐºÐ¾": 7116,
      "ĠÐŁÑĢÐ¾ÑĤ": 7117,
      "ÐĳÑĸÐ»ÑĮ": 7118,
      "ĠÐ°Ð²ÑĤÐ¾Ð¼Ð¾Ð±ÑĸÐ»ÑĸÐ²": 7119,
      "ÑĤÐ²Ð¾ÑĢÐµÐ½Ð½Ñı": 7120,
      "ĠÐĳÐ°Ð»": 7121,
      "Ð»ÑĸÑĤÐºÑĥ": 7122,
      "ĠÐ¿Ð¾ÑĤÑĢÐ°Ð¿Ð¸": 7123,
      "Ð´ÐµÑĢÐ¶Ð°Ð´Ð¼ÑĸÐ½ÑĸÑģÑĤÑĢÐ°": 7124,
      "ĠÐ·Ð½Ñĸ": 7125,
      "Ð°ÑĦ": 7126,
      "ĠÐ·Ð±Ñĥ": 7127,
      "Ð°ÑĤÑĢÑĸ": 7128,
      "ĠÑīÐ¾Ð´ÐµÐ½": 7129,
      "ĠÐ²Ð¾ÑĶÐ½": 7130,
      "ern": 7131,
      "ĠÐ³ÑĢÐ°ÑĦ": 7132,
      "ĠÐ²Ð»Ð°ÑģÐ½Ñĸ": 7133,
      "ĠÐ½Ð°ÑģÐ¸Ð»ÑĮ": 7134,
      "out": 7135,
      "Ð¾ÑĢÑıÐ´Ð¶ÐµÐ½Ð½Ñı": 7136,
      "Ð¿ÑĢÐ°Ð²Ð»ÑĸÐ½Ð½Ñı": 7137,
      "ĠÐ¼ÑĥÐ¶": 7138,
      "ĠÑĢÐµÐ´Ð°ÐºÑĨÑĸÑĹ": 7139,
      "ical": 7140,
      "ĠÐ¿Ð¾Ð±Ñĥ": 7141,
      "ÑģÐ¿ÐµÐºÑĤ": 7142,
      "ĠÑĨÑĸÑĶÑİ": 7143,
      "ĠÐ¼Ð¾Ð¶Ð»Ð¸Ð²Ð¾ÑģÑĤÐµÐ¹": 7144,
      "ÑĨÑĸÐ¹Ð½Ðµ": 7145,
      "ÐŀÐ¿Ð¸Ñģ": 7146,
      "ĠÑĩÐ°ÑģÑĤÐ¸Ð½": 7147,
      "ĠÐ·ÑĢÐ¾Ð±Ð¸Ð»Ð¸": 7148,
      "ÑĢÐµÐ¼ÐµÐ½": 7149,
      "ĠÑĥÐºÑĢÐ°ÑĹÐ½ÑģÑĮÐºÐ¾Ñİ": 7150,
      "ĠÐ²Ð°Ð¶Ð»Ð¸Ð²Ñĸ": 7151,
      "ĠÐµÑĤ": 7152,
      "ĠÑģÐµÐºÑĤ": 7153,
      "ĠÐĴÐµÐ»Ð¸Ðº": 7154,
      "Ð°Ð³Ð°": 7155,
      "Ð¾ÐºÐ¾Ð¼": 7156,
      "ĠÐºÑĢÐ°Ñī": 7157,
      "ĠÑĢÐ¾Ð·ÑĢÐ¾Ð±ÐºÐ¸": 7158,
      "ĠÑģÑĤÑĢÐ°ÑħÑĥÐ²Ð°Ð½Ð½Ñı": 7159,
      "Ð½ÑıÑĶ": 7160,
      "ĠÐ´Ð¸ÑģÑĤÐ°Ð½": 7161,
      "ĠÐ·Ð½ÑĸÐ¼": 7162,
      "ok": 7163,
      "ĠÐ´Ð¸ÑģÐºÑĥ": 7164,
      ".ÐĨ": 7165,
      "Ð²Ð°ÑĩÐ°": 7166,
      "ĠÑĸÐ³ÑĢÐ¸": 7167,
      "ĠÑĢÐ°ÐºÐµÑĤ": 7168,
      "ĠXX": 7169,
      "ĠÐ¾Ð¿ÑĤÐ¸Ð¼Ñĸ": 7170,
      "yl": 7171,
      "ĠÑĸÐ¼Ð¿ÐµÑĢÑĸÑĹ": 7172,
      "Ð°ÑħÑĸÐ´": 7173,
      "ung": 7174,
      "ĠÐ·ÑĸÑĤÐº": 7175,
      "ĠÐĳÐ°Ð½": 7176,
      "ĠÐŁÐ°Ð½": 7177,
      "ĠÐ²Ð¾Ðº": 7178,
      "Ð¾Ð¼ÐµÑĢ": 7179,
      "ĠÐºÐ°Ð½Ð´Ð¸Ð´": 7180,
      "ĠÐ½Ð°ÑĢÐ¾Ð´Ð¸Ð²ÑģÑı": 7181,
      "ĠÐ½ÐµÑĢÑĥÑħÐ¾Ð¼": 7182,
      "ĠÐ´Ð¾Ð³Ð»Ñı": 7183,
      "Ð°Ð±Ð°ÑĢÐ¾Ð¼": 7184,
      "ĠÐ²Ð¸ÑħÐ¾Ð²Ð°Ð½": 7185,
      "ĠÐ¿Ð°Ð¼'ÑıÑĤÑĮ": 7186,
      "ĠÐ²ÑĸÐ´Ð¿ÑĢÐ°Ð²Ð¸": 7187,
      "Ð½ÑİÐ²Ð°ÑĤÐ¸": 7188,
      "ĠÐ´ÐµÐ¿ÑĥÑĤÐ°ÑĤÐ¸": 7189,
      "Ð·Ð¸Ð½": 7190,
      "ĠÐ¿Ð¾ÑĩÐ¸Ð½Ð°ÑĶÑĤÑĮÑģÑı": 7191,
      "ĠBl": 7192,
      "ach": 7193,
      "ĠÐ¿ÑĸÐ´ÑħÑĸÐ´": 7194,
      "ĠÐ²Ð»Ð°ÑģÑĤÐ¸Ð²Ð¾": 7195,
      "ĠÐ²Ð¾Ð´Ñĸ": 7196,
      "ĠAp": 7197,
      "ÑģÐºÐ¸Ð¹": 7198,
      "ĠÐ·Ð°Ð»ÑĸÐ·Ð½Ð¸": 7199,
      "Ð»Ð¸Ð¼Ð¸": 7200,
      "ĠÐ²ÑĥÐ·": 7201,
      "ĠÐ²ÑĸÑĢÐ¸": 7202,
      "ĠÐ´ÐµÑĢÐ¶Ð°Ð²Ð½Ð¸Ð¹": 7203,
      "ĠÐ¿Ð¾Ð·Ð°Ð¿": 7204,
      "-ÑıÐºÐ¾Ð¼Ñĥ": 7205,
      "ĠÐ´Ð²ÐµÑĢÑĸ": 7206,
      "ĠÐºÐ°ÑĢÑĤÐ¾Ð¿": 7207,
      "ĠÐ°Ð²ÑĤÐ¾ÑĢÐ°": 7208,
      "ĠÐ¼Ð°ÑģÐ¸": 7209,
      "ĠÑĥÐ³Ð¾Ð´": 7210,
      "ĠÐ½Ð°Ð¹Ð±ÑĸÐ»ÑĮÑĪÐµ": 7211,
      "ĠÑĤÐºÐ°Ð½Ð¸Ð½Ð¸": 7212,
      "\"Ðľ": 7213,
      "ĠÑģÐ¿ÑĢÑı": 7214,
      "ĠÐ·Ð°Ð¹Ð¼Ð°ÑĶ": 7215,
      "ĠÑĤÐµÑĢÐ¸ÑĤÐ¾ÑĢÑĸÑı": 7216,
      "ĠÑģÐ¿Ð¸ÑģÐ¾Ðº": 7217,
      "ĠÑħÐ¾ÑĩÐµÑĤÐµ": 7218,
      "ĠÐ·Ð½Ð°Ð´": 7219,
      "ĠÐ¾Ð¿Ð¸Ð½Ð¸": 7220,
      "ĠÑĥÑĤÐ¾Ñĩ": 7221,
      "ĠÐ¿ÑĸÐ´Ð»ÑıÐ³": 7222,
      "ĠÑĢÐ°Ð¿": 7223,
      "ĠÐļÐ¾Ð¼Ñĸ": 7224,
      "ĠÐ´Ð¾ÑĢÐ¾ÑģÐ»Ð¸Ñħ": 7225,
      "ase": 7226,
      "ĠÐºÐ¾ÑĢÐ¸ÑģÑĤÑĥÐ²Ð°Ð½Ð½Ñı": 7227,
      "ĠÐ³Ð»ÑıÐ´Ð°": 7228,
      "ÑĨÑĮÐºÐ¸Ñħ": 7229,
      "ĠÐ·Ð°ÑĨÑĸÐºÐ°Ð²": 7230,
      "Â«Ð¨": 7231,
      "ÑĸÑĩÐ½Ðµ": 7232,
      "ĠÐ¼Ð°ÑģÑĪÑĤÐ°Ð±": 7233,
      "ĠÑĢÐ¾Ð·ÑĪÐ¸ÑĢÐµÐ½Ð½Ñı": 7234,
      "ĠÐ²Ð¸ÑĢÑĸÑĪÐ¸Ð²": 7235,
      "ĠÐ½Ð°Ð¿ÑĢÐ¸ÐºÑĸÐ½ÑĨÑĸ": 7236,
      "ĠÐ²Ð¸ÑıÐ²Ð»ÐµÐ½Ð½Ñı": 7237,
      "olog": 7238,
      "Ð½ÑĸÑģÑĤÐ¸": 7239,
      "ĠÑĥÐ±": 7240,
      "ÑĩÐ½ÑĸÑģÑĤÑĮ": 7241,
      "ĠÐ½Ð°Ð·Ð°Ð´": 7242,
      "ÑģÑĤÐ¸Ð¼": 7243,
      "ÑĩÐµÐ½Ð¾ÑĹ": 7244,
      "ĠÐ²Ð·Ð°ÑĶÐ¼Ð¾Ð´ÑĸÑĹ": 7245,
      "ĠÐļÑĸÑĢ": 7246,
      "ĠÐ¿ÑĸÐ´Ð¿ÑĢÐ¸ÑĶÐ¼ÑģÑĤÐ²Ð¾": 7247,
      "ĠÐ·Ð°ÑĥÐ²Ð°Ð¶": 7248,
      "ld": 7249,
      "ÑĸÐ½Ð½Ñĸ": 7250,
      "ĠÐ¿ÑĢÐ¸ÑģÐº": 7251,
      "ĠÐ¾ÑĤÑĢÐ¸Ð¼ÑĥÐ²Ð°ÑĤÐ¸": 7252,
      "ĠÐ±ÑĢÐ°Ð²": 7253,
      "Ð½ÑĸÑģÑĤÑĢ": 7254,
      "ĠÐ´ÐµÑĢÐµÐ²": 7255,
      "Ð»ÑĸÐ¼Ð¿": 7256,
      "Ð½ÑİÑİÑĤÑĮ": 7257,
      "ĠÑĩÑĸÑĤÐºÐ¾": 7258,
      "ĠÐ¼Ð°ÑĤÑĩ": 7259,
      "ÐµÐ´ÐµÐ½Ð¾": 7260,
      "ÐºÑĥÑĢÑģ": 7261,
      "Ð½ÑĸÑĪÑĸ": 7262,
      "ĠÐĿÐ°Ð·": 7263,
      "ĠÐĿÐĲÐ¢Ðŀ": 7264,
      "ĠÐ½Ð°Ð¿Ð¾Ð»": 7265,
      "ue": 7266,
      "ĠÑģÑĤÑĸÐ½": 7267,
      "ĠÐ¼Ð°Ð¹Ð´Ð°Ð½ÑĩÐ¸": 7268,
      "ĠÑĢÐµÐºÐ¾Ð¼ÐµÐ½Ð´ÑĥÑĶÑĤÑĮÑģÑı": 7269,
      "ĠÐ²ÑĥÐ³Ð»Ðµ": 7270,
      "ĠÐ¿ÑĥÐ½ÐºÑĤÐ¸": 7271,
      "ĠÐŁÐ°": 7272,
      "ĠÐ²ÑĸÐ´Ð¾Ð¼Ñĸ": 7273,
      "ĠÐ¿ÐµÑĢÐµÐ´Ð°ÑĶ": 7274,
      "Ð·ÐµÑĢ": 7275,
      "ĠÐ¿ÑĢÐ¸Ð¿Ð¸Ð½ÐµÐ½Ð½Ñı": 7276,
      "ÑĤÑĢÐ¾Ð»ÑĮ": 7277,
      "ĠÐ²Ð»Ð°ÑģÐ½Ðµ": 7278,
      "ĠÐ¿ÑĢÐ°Ð²Ð»ÑĸÐ½Ð½Ñı": 7279,
      "ĠÑģÐºÐ»Ð°Ð´Ð°ÑĶ": 7280,
      "ĠÑĢÐ¸Ð·Ð¸ÐºÑĥ": 7281,
      "ĠÐĵÑĢÐ°": 7282,
      "ĠÐ¼ÐµÑĤÐ¸": 7283,
      "-ÑĢÑĸÑĩÐ½Ð¸Ð¹": 7284,
      "ÑĤÐ¾Ð½Ñĸ": 7285,
      "ĠÐ½Ð°ÑģÐ»ÑĸÐ´ÐºÐ¸": 7286,
      "ĠÑĥÑģÐ¿ÑĸÑĪÐ½Ð¾": 7287,
      "ĠÐ¼ÑĸÑģÑıÑĨÑı": 7288,
      "ĠÐ¼Ð°ÑĤÑĩÑĸ": 7289,
      "ĠÐ²ÑĤÑĢÑĥÑĩ": 7290,
      "ĠÑĤÑıÐ³": 7291,
      "ĠÐ´Ð¾ÑĢÑĥ": 7292,
      "ÑĸÑıÐ¼Ð¸": 7293,
      "ĠÐ´Ð°Ð½Ð¾Ð³Ð¾": 7294,
      "ĠÐºÐ¸ÑĹÐ²": 7295,
      "Ð²ÐµÑĩ": 7296,
      "ĠÐ¾ÑĤÑĢÑĥ": 7297,
      "ĠÐ¿ÑĢÐ¾ÑĩÐ¸": 7298,
      "ĠÑĤÐµÑĢÐ°": 7299,
      "ĠÑĥÑģÐ¿ÑĸÑħÑĥ": 7300,
      "ĠÐ¿Ð¾ÐºÑĢÐ°Ñī": 7301,
      "ĠÐ²Ð¸ÑĢÐ°Ð¶": 7302,
      "ĠÐ·Ð±ÑĸÑĢÐ½Ð¾ÑĹ": 7303,
      "ĠÐ¢Ð¾Ð¶": 7304,
      "ĠÐľÐ°Ñģ": 7305,
      "ĠÐ¿Ð¾Ð¼ÑĸÑĤ": 7306,
      "ĠÑĸÐ¼Ð¿ÐµÑĢÐ°": 7307,
      "ÑĤÐµÐ¿": 7308,
      "ĠÐ´Ð¾Ð¿Ð¾Ð¼Ð¾Ð³Ð°": 7309,
      "ĠÐ³Ð°ÑĢÐ¼Ð¾": 7310,
      "ĠÑĤÐ¾Ð¼": 7311,
      "ĠÐ¿Ð¾ÑģÐ»ÑĸÐ´Ð¾Ð²": 7312,
      "uk": 7313,
      "ĠÐ´ÑĸÐ°Ð»": 7314,
      "ĠÐ²Ð¸ÐºÐ»Ð¸ÐºÐ°ÑĶ": 7315,
      "ĠÐµÐºÐ¾Ð½Ð¾Ð¼ÑĸÑĩÐ½Ð¾Ð³Ð¾": 7316,
      "ĠÐ¢ÑĥÑĢÐµÑĩ": 7317,
      "ĠÑĢÐµÐ³": 7318,
      "ĠÑģÐ¿ÑĢÐ°Ð²Ð°Ñħ": 7319,
      "ĠÐ¿Ð»Ð°ÑĤÐµ": 7320,
      "ĠÐ¾ÑĢÐ´ÐµÐ½": 7321,
      "ĠÐ¿ÑĸÐ´Ð¿Ð¾ÑĢÑıÐ´": 7322,
      "ÑĥÐ²Ð°Ð½Ð½Ñİ": 7323,
      "Ð²Ð°Ð»ÑĸÑģÑĤÑĮ": 7324,
      "ĠÐ·Ð°ÑĢÐ¾Ð±": 7325,
      "Ð³ÑĢÐµÐ´ÑĸÑĶÐ½": 7326,
      "ĠÑĤÐµÑĢÐ°Ð¿": 7327,
      "Ð´ÑĸÐ±": 7328,
      "ĠÑĩÐ¸ÑģÐ»Ð°": 7329,
      "ĠÐ¼ÑĸÑģÑĤÑıÑĤÑĮ": 7330,
      "ĠÑģÐ¾ÑĢ": 7331,
      "ĠÐ¿Ð¾Ð´Ð¾Ð»": 7332,
      "ÑĥÑĶÑĤÐµ": 7333,
      "Ð¾ÑĤÐ¾Ñİ": 7334,
      "ÑĢÐ¾Ð»": 7335,
      "\"Ðļ": 7336,
      "ĠÐ¾Ð·Ð´": 7337,
      "ĠÐ½Ð°Ð´Ñĸ": 7338,
      "ĠÐ·Ð°ÑģÑĸÐ´Ð°Ð½Ð½Ñĸ": 7339,
      "ĠÐ·Ð´Ð¾Ð±Ñĥ": 7340,
      "ĠÑĢÐ¾Ð·Ð¼ÑĸÑĢÑĥ": 7341,
      "ĠÐºÐ»Ð°ÑģÑĸÐ²": 7342,
      "ĠÐ·Ð°ÑĤÐ¸": 7343,
      "ĠÐºÐ¾Ð¼Ð¿Ð»ÐµÐºÑģÑĥ": 7344,
      "ÑĤÐ¾ÑĢÐ¸Ð½": 7345,
      "ÑĤÐ¾ÑĢÐ¾Ð¼": 7346,
      "Ð°Ð½ÑĤÐ¸": 7347,
      "ĠÐ°Ð·": 7348,
      "ÐµÑĢÐµÐ¼Ð¾": 7349,
      "ĠÑħÐ°ÑĢÐ°ÐºÑĤÐµÑĢÐ¸ÑģÑĤÐ¸": 7350,
      "ĠÐ´Ð¾ÑĪÐº": 7351,
      "Ð¾ÑĢÐ¸ÑĤ": 7352,
      "ĠÐ±Ð°Ð¶Ð°Ñİ": 7353,
      "ĠÐ»Ð°ÑģÐºÐ°": 7354,
      "ÐµÐ¾": 7355,
      "ĠÐ°Ð³ÑĢÐ°": 7356,
      "ĠÑģÐ²ÑĸÐ´ÑĩÐ¸ÑĤÑĮ": 7357,
      "Ð¾Ð¿Ð¸": 7358,
      "ĠÑĢÐµÐ¼Ð¾Ð½ÑĤÑĥ": 7359,
      "ĠÐ²Ð¸Ð½Ð¸ÐºÐ°ÑİÑĤÑĮ": 7360,
      "ÑĤÐ°ÑĢÐ¸": 7361,
      "ÑīÐ¸Ð½Ñĥ": 7362,
      "ĠÐ±Ð°ÑĤÑĮÐºÐ¾": 7363,
      "ĠÐĿÐ°Ð²ÑĸÑĤÑĮ": 7364,
      "ĠÐ°Ð»ÐµÑĢÐ³": 7365,
      "ÐºÑĸÐ¿": 7366,
      "ĠÐ¼ÐµÐ¼": 7367,
      "ĠÑĪÐ°ÑĢ": 7368,
      "ĠÐ²Ð·ÑıÐ²": 7369,
      "ign": 7370,
      "ĠÐļÐ°ÑĤÐµÑĢÐ¸": 7371,
      "ÐµÑĢÐµÐ´Ñĥ": 7372,
      "ĠÑģÑĸÐ¼'Ñı": 7373,
      "ĠÑĩÐ¸Ð¼Ð°Ð»Ð¾": 7374,
      "ĠÐľÐ°Ð»": 7375,
      "ĠÐ²Ð¸Ð·Ð½Ð°ÑĩÐ°ÑĶ": 7376,
      "ĠÐ¿ÑĥÐ½ÐºÑĤÑĸÐ²": 7377,
      "ĠÐĳÐ¾ÑĢ": 7378,
      "ĠÑģÐµÑĢÐ²ÑĸÑģ": 7379,
      "ĠÑģÑĥÐ¿ÑĥÑĤ": 7380,
      "ĠÐ½Ð°Ð·Ð²Ð¸": 7381,
      "pe": 7382,
      "ÑĥÑĪ": 7383,
      "ys": 7384,
      "ĠÐ¼ÑĸÐ½ÑĸÑģÑĤÑĢÐ°": 7385,
      "-Ñĩ": 7386,
      ".Ðŀ": 7387,
      "Ð¾ÑģÑĸÐ±": 7388,
      "Ð»ÐµÐ½Ñĥ": 7389,
      "Ð»Ð°Ð½Ð°": 7390,
      "ÑģÑĤÑĢÐ¾Ð²": 7391,
      "ĠÑĤÐ²Ð¾ÑĢÑĸÐ²": 7392,
      "ĠÐ±Ð°ÑĤÐ°Ð»ÑĮÐ¹": 7393,
      "ĠÐ¼Ð°Ð¹Ð±ÑĥÑĤÐ½ÑĮÐ¾Ð¼Ñĥ": 7394,
      "ĠÐ·Ð°Ð´Ð°": 7395,
      "ĠÐ²Ð¸ÑģÐ¾ÐºÐ¸Ð¹": 7396,
      "ĠÐ¯Ð¿Ð¾Ð½ÑĸÑĹ": 7397,
      "ÑĤÑĥÐ»": 7398,
      "ĠÑĥÑĩÐ½Ñĸ": 7399,
      "ÐŁÑĢÐ°": 7400,
      "ĠÐ¿ÐµÑĢÐµÑħ": 7401,
      "Ð¼Ð°ÑĶÑĤÑĮÑģÑı": 7402,
      "ica": 7403,
      "ĠÐ½Ð°Ð·Ð¸Ð²Ð°ÑĶÑĤÑĮÑģÑı": 7404,
      "ĠÐ¿ÑĢÐ¾Ð²ÐµÐ»Ð¸": 7405,
      "ÑĢÐ¾Ð¼ÑĸÐ½": 7406,
      "ĠÐºÐµÑĢÑĥ": 7407,
      "ĠÑĤÐ¸Ð¶Ð½Ñĸ": 7408,
      "Ġpro": 7409,
      "Ð¾Ð¿ÑĥÐ»ÑıÑĢ": 7410,
      "ĠÑĸÐ½Ð´Ñĥ": 7411,
      "ĠÐ¿Ð¾ÑĤÑĢÑĸÐ±Ð½Ð°": 7412,
      "Ð»ÑıÐ»Ð¾ÑģÑı": 7413,
      "ĠÐ·Ð°Ð¿Ð»Ð°Ð½": 7414,
      "ĠÐ¿ÑĸÐ´ÑħÐ¾Ð´Ð¸ÑĤÑĮ": 7415,
      "\"ÐĶ": 7416,
      "ĠÑĢÐµÐ´Ð°": 7417,
      "ĠÐ·'ÑĹ": 7418,
      "ĠÐ¡ÐµÐ¼": 7419,
      "ium": 7420,
      "ÐµÑĢÐµÐ´Ð¾Ð´Ð½Ñĸ": 7421,
      "ĠÑģÑĤÐ°Ð»Ð¾ÑģÑı": 7422,
      "ĠÐľÐ¾Ð¶Ð½Ð°": 7423,
      "ÐºÑĤÐ¾ÑĢÐ¾Ð¼": 7424,
      "ĠÐ´Ð¾Ð´Ð°ÑĤÐºÐ¾Ð²Ñĸ": 7425,
      "ĠÐ¿ÑĢÐ¾Ð´Ð°Ð²": 7426,
      "ĠÐ¿Ð¾ÑĪÑĥÐºÑĥ": 7427,
      "Ð¸Ð½Ð°": 7428,
      "ĠÐ´ÑĸÑıÑĩ": 7429,
      "ÐµÐºÐ¾Ð¼": 7430,
      "ÑĢÐ¾Ð·Ð¸": 7431,
      "Ð°Ð½ÑģÑĥ": 7432,
      "ĠÐ³ÑĢÐ°Ð´Ñĥ": 7433,
      "ĠÑĢÐµÐºÐ¾Ð½ÑģÑĤÑĢÑĥ": 7434,
      "ĠÐ¼Ð°Ð½Ñĸ": 7435,
      "ĠÑĤÑĢÐ¸Ð²": 7436,
      "ÐĲÐł": 7437,
      "ĠÑīÐ¾ÑĢÑĸÑĩ": 7438,
      "ĠÑĹÑħÐ½ÑĸÑħ": 7439,
      "ÑĤÐµÐ¼": 7440,
      "-ÐµÐºÐ¾Ð½Ð¾Ð¼ÑĸÑĩ": 7441,
      "ĠÐĲÐ·": 7442,
      "ĠÑĦÑĥÑĤÐ±Ð¾Ð»ÑĮ": 7443,
      "ĠÐĨÑĤÐ°Ð»ÑĸÑĹ": 7444,
      "ĠÐ¿ÑĢÐ¸ÑĩÐ¸Ð½Ð¾Ñİ": 7445,
      "Ð¢ÐŁ": 7446,
      "Ð°Ð±ÑĸÐ»Ñĸ": 7447,
      "Ð¾ÑĢÐ¾Ð½Ð°": 7448,
      "ĠÐºÑĸÐ»Ð¾Ð¼ÐµÑĤ": 7449,
      "ĠÐ¿Ð¾Ð»ÐµÐ³": 7450,
      "Â«ÐĨ": 7451,
      "ĠÐ·Ð°Ð½Ð°Ð´ÑĤÐ¾": 7452,
      "Ð¾Ð²Ð°Ð½Ð¾ÑģÑĤÑĸ": 7453,
      "ĠÑģÐ¿ÑĢÐ°Ð²Ð´Ñĸ": 7454,
      "ĠÑĥÐ½ÑĸÐ²ÐµÑĢÑģ": 7455,
      "ĠÐ¿ÐµÑĢÑĪÐµ": 7456,
      "Ð¶Ð¸Ð½": 7457,
      "ĠÑģÐ¿ÑĢÐ¾": 7458,
      "ĠÐ¢Ñĸ": 7459,
      "Ð²ÑĸÑĤÑĮÑģÑı": 7460,
      "ĠÑĦÑĸÐ½Ð°Ð½ÑģÐ¾Ð²Ð¸Ñħ": 7461,
      "Ð½ÐµÑĤÑĮÑģÑı": 7462,
      "ÐµÑģÐ½Ñĸ": 7463,
      "Ð°ÑĢÐ²": 7464,
      "ĠÐ¿Ð¾Ð·Ð°": 7465,
      "ĠÑģÐ¿Ð¾ÑģÐ¾Ð±Ð¾Ð¼": 7466,
      "Ð°Ð½Ð½Ð°": 7467,
      "ĠÐ±ÑĢÐ°ÑĤ": 7468,
      "Ð¼ÑĸÑĤ": 7469,
      "ĠÑĥÐ¿Ð¾Ð²": 7470,
      "ĠÑģÐ²ÑĸÑĤÐ»Ð°": 7471,
      "ĠÐ¼Ð¾Ð»Ð¾Ñĩ": 7472,
      "ÑĨÐ¸ÐºÐ»Ð¾Ð¿": 7473,
      "ÐķÐļ": 7474,
      "ÑĬ": 7475,
      "Ð»ÑİÑģ": 7476,
      "ĠÐ¿Ð¾ÐºÐ°ÑĢÐ°Ð½Ð½Ñı": 7477,
      "ĠÐ¾Ð³Ð¾Ð»Ð¾ÑĪ": 7478,
      "ĠÑģÐ¿Ð»Ð°ÑĤÐ¸": 7479,
      "(A": 7480,
      "ĠÐŀÑĤÐ¶Ðµ": 7481,
      "ĠÐ¾Ð¿ÑĢÐ¸Ð»ÑİÐ´": 7482,
      "ĠÐ²Ð¸ÑħÐ¾Ð´Ñĥ": 7483,
      "ĠÐ¾ÑģÐ²ÑĸÑĤÐ°": 7484,
      "iss": 7485,
      "ĠÐ¼ÑĥÐ½ÑĸÑĨÐ¸Ð¿Ð°Ð»ÑĮÐ½Ð¾Ð³Ð¾": 7486,
      "ĠÐ¢ÑĸÐ»ÑĮÐºÐ¸": 7487,
      "ĠÐ¾Ð³Ð»ÑıÐ´": 7488,
      "Ð»ÑĸÐ½Ð°": 7489,
      "ĠÐ³Ð¾Ð»Ð¾Ð²Ð½Ðµ": 7490,
      "ÑĤÑĥÑĢÐ¸": 7491,
      "ĠÐ¿Ð¾ÑĤÐµÑĢ": 7492,
      "ĠÑĦÐ°Ð½ÑĤÐ°": 7493,
      "ĠÐµÐºÑģÐ¿ÐµÑĢÑĤ": 7494,
      "Ð¾Ð±ÑħÑĸÐ´": 7495,
      "Ð½Ð¾Ð³": 7496,
      "ĠÐºÐ¾Ð½ÑĤÐµÐº": 7497,
      "ĠÐ²Ð¸ÑıÐ²Ð¸Ð»Ð¸": 7498,
      "ÐºÐ¾Ð²Ð°Ð½Ð¾": 7499,
      "(Ð¿ÑĢÐ¸": 7500,
      "ĠÐŁÐ°ÑĢÐ¸": 7501,
      "Ð±ÑĸÐ²": 7502,
      ".).": 7503,
      "ÑģÑģ": 7504,
      "ĠÐ½ÐµÐ¹Ð¼Ð¾Ð²ÑĸÑĢ": 7505,
      "ĠÐ²Ð¸Ð³Ð»ÑıÐ´Ð°ÑĶ": 7506,
      "ĠÐĳÐ¾Ð³Ð°": 7507,
      "ÐºÑĥÐ»ÑĮÑĤÑĥ": 7508,
      "ĠÐ·Ð°ÑģÐ½Ñĥ": 7509,
      "ĠÐ·Ð´ÑĸÐ¹ÑģÐ½ÑİÐ²Ð°ÑĤÐ¸": 7510,
      "ĠÐ·Ð°Ð³Ð°Ð»ÑĮ": 7511,
      "ĠÐ¾ÐºÑĢÐµÐ¼Ñĸ": 7512,
      "ice": 7513,
      "te": 7514,
      "ug": 7515,
      "ĠÐ·Ð»Ð°": 7516,
      "ĠÐ°Ð½Ðµ": 7517,
      "ĠÐ£ÐŁ": 7518,
      "ĠÐĹÐ½Ð°": 7519,
      "ĠÐ¿ÐµÑĢÐµÐ¿": 7520,
      "ĠÐŁÐµÑĤÑĢÐ°": 7521,
      "Ð½i": 7522,
      "ĠÐ±Ð¾Ñİ": 7523,
      "ĠÐ¼Ð°Ð¹Ð±ÑĥÑĤÐ½ÑĮÐ¾Ð³Ð¾": 7524,
      "Ð¾Ð±ÑĥÑĤ": 7525,
      "ÐŀÑĤÐ¶Ðµ": 7526,
      "ĠÑĥÑĩÐ°ÑģÐ½Ð¸Ðº": 7527,
      "Ð°ÑĤÐ¾ÑĢÑĸÐ²": 7528,
      "ĠÐłÐ°Ð´Ñĸ": 7529,
      "ÑĸÐ¹ÑģÑĮÐº": 7530,
      "ĠÑģÑĤÐ°ÑİÑĤÑĮ": 7531,
      "ĠÐ²ÑĢÑı": 7532,
      "Ð½ÑıÑĶÑĤÑĮÑģÑı": 7533,
      "ĠÐĽÐµÐ¾Ð½": 7534,
      "Ð¾Ð´ÑĸÑı": 7535,
      "ĠÑĢÐ¾Ð·Ð¼ÑĸÑīÐµÐ½Ð½Ñı": 7536,
      "ĠÐ¼ÑĸÑģÑĤÐ°Ñħ": 7537,
      "ĠÑĢÐ°ÑĨÑĸÐ¾Ð½": 7538,
      "Ð»ÐµÐ½Ð½Ñİ": 7539,
      "ĠÐ¿ÐµÑĢÐµÐ±ÑĥÐ²Ð°ÑİÑĤÑĮ": 7540,
      "ĠÐ´ÐµÐ½": 7541,
      "Ã¼": 7542,
      "ĠÐ¼ÐµÐ´Ð¸ÑĩÐ½Ð¸Ñħ": 7543,
      "ÐµÐ¼Ð¾Ð½": 7544,
      "Ð¾Ð¼Ð±": 7545,
      "ire": 7546,
      "ĠÐ²ÑĸÐ´ÑģÑĥÑĤÐ½Ð¾ÑģÑĤÑĸ": 7547,
      "ĠÑģÐ¾Ð»Ð´Ð°ÑĤ": 7548,
      "ĠÐ·Ð´Ð°ÑĤÐ½ÑĸÑģÑĤÑĮ": 7549,
      "ĠÐ¿ÐµÑĢÐµÐ²Ð°Ð³Ð¸": 7550,
      "Ð½Ð¸Ð»Ð°": 7551,
      "ĠÑĩÐ°ÑĢÑĸÐ²": 7552,
      "ÐµÑĢÑĸÑĹ": 7553,
      "ĠÐ¿Ð¾ÑĪÑĥÐº": 7554,
      "ĠÐ¾Ð¿Ñĸ": 7555,
      "ĠÑĤÑĢÑĥÐ´Ð½Ð¾": 7556,
      "ĠÐºÐ°ÑĢÐ°Ð½": 7557,
      "Ð¾Ð¿Ð¾Ð»Ñĸ": 7558,
      "ĠÐºÐ¾Ð½ÐºÑĢÐµÑĤ": 7559,
      "ĠÐ²Ð»Ð°ÑģÐ½Ð¸Ñħ": 7560,
      "ĠÑıÐ´ÐµÑĢ": 7561,
      "ĠÑĪÐ¼Ð°ÑĤ": 7562,
      "ĠÑĸÐ³ÑĢÐ°": 7563,
      "ĠÐ¿Ð¾Ð²Ð¸Ð½Ð½Ð¾": 7564,
      "ĠÐ¿ÑĢÐ¸Ð·Ð½Ð°ÑĩÐµÐ½Ð¸Ð¹": 7565,
      "ĠÑĸÐ½ÑĪÐ¾Ð¼Ñĥ": 7566,
      "ÑģÑĤÐ¸Ð²": 7567,
      "Ð³ÑĢÐ°ÑĨÑĸÑĹ": 7568,
      "-ÐĻ": 7569,
      "ĠÑĪÑĸÑģÑĤÑĮ": 7570,
      "ÑĨÑĸÐ¹Ð½Ð¸Ð¼": 7571,
      "ĠÐµÑĦÐµÐºÑĤÐ¸Ð²Ð½Ð¾ÑģÑĤÑĸ": 7572,
      "ĠÐ¼Ð¸ÑģÑĤÐµÑĨÑĤÐ²": 7573,
      "ĠÐµÐ»ÐµÐºÑĤÑĢÐ¾ÐµÐ½ÐµÑĢÐ³": 7574,
      "ĠÐ¾Ð±'ÑĶÐºÑĤÐ¸Ð²": 7575,
      "-ÑıÐºÐ¾ÑĹ": 7576,
      "ĠÐ´ÑĢÑĥÐ¶Ð¸Ð½Ð°": 7577,
      "ĠÑĨÑĸÐºÐ°Ð²Ñĸ": 7578,
      "ĠÑģÐµÑĢÐ²Ñĸ": 7579,
      "ĠÐŀÐ»Ðµ": 7580,
      "ĠÐ½Ð°ÑĩÐ°Ð»ÑĮÐ½Ð¸ÐºÐ°": 7581,
      "ĠÑĤÐµÐºÑģÑĤÑĥ": 7582,
      "ĠÐºÐ°Ð¶Ñĥ": 7583,
      "ĠÐ¿ÑĢÐµÐ¼'ÑĶÑĢ": 7584,
      "ĠÐµÐºÐ¾Ð½Ð¾Ð¼ÑĸÑĩÐ½Ð¸Ñħ": 7585,
      "ĠÐ¨Ð¸": 7586,
      "Ð¾Ð¿Ð¾Ð´ÑĸÐ±": 7587,
      "ĠÐ°ÑĤÐ¼Ð¾ÑģÑĦ": 7588,
      "-Ð½ÐµÐ±ÑĥÐ´ÑĮ": 7589,
      "ĠÐºÐ¾Ð½ÑĦÐµÑĢÐµÐ½ÑĨÑĸÑĹ": 7590,
      "ĠÐ´ÐµÐ±Ñİ": 7591,
      "ĠÐ»ÐµÐ¹": 7592,
      "ĠÐ´Ð¾ÐºÐ°Ð·": 7593,
      "ĠÐ³ÐµÑĤÑĮ": 7594,
      "ĠÑģÐ¾ÑĨ": 7595,
      "Ð°ÑĢÑĤÐ°Ð¼ÐµÐ½ÑĤÑĥ": 7596,
      "ĠÐĹÐµÐ¼Ð»Ñĸ": 7597,
      "ÑĥÑģÐºÐ°": 7598,
      "Ð·Ð°Ð½": 7599,
      "ÑģÐ¿Ðµ": 7600,
      "ĠÐ¾ÑĤÑĢÐ¸Ð¼ÑĥÑĶ": 7601,
      "ÑĸÑĩÐ½Ð¾": 7602,
      "Ð°Ð»Ð°ÑģÑĮ": 7603,
      "ĠÑģÐ¼Ð°ÑĢÑĤ": 7604,
      "ĠÑĩÐ¸Ð½Ð¾Ð²": 7605,
      "ĠÐĵÐµÐ½ÐµÑĢÐ°": 7606,
      "ĠÐ´ÑĸÐ·Ð½Ð°ÑĤÐ¸ÑģÑı": 7607,
      "ÑĩÑĸÐ¹": 7608,
      "ĠÐ¢Ð¸Ð¼Ð¾": 7609,
      "ÑĤÐ¸Ð»Ð¸": 7610,
      "Ð»ÐµÐ½Ð¸Ð¼": 7611,
      "ÑĢÐµÑģÑĸÑĹ": 7612,
      "ĠÐ¼Ð°Ð½Ð´": 7613,
      "ÑĢÐ¸Ñħ": 7614,
      ".ÐĲ": 7615,
      "ĠÐ·Ð±Ð¸": 7616,
      "ĠÐ¼Ð¾Ð»Ð¸ÑĤ": 7617,
      "ĠÐ³Ð¾ÑģÑĤÐµÐ¹": 7618,
      "ĠÐ¿Ð¾Ð»ÑĸÑĤÐ¸ÑĩÐ½Ð¾ÑĹ": 7619,
      "ÐµÑĢÑĤÑĸÐ²": 7620,
      "Ð»Ð¸Ð±": 7621,
      "ĠÐĨÑģÐ¿Ð°Ð½": 7622,
      "ĠÐ¿Ð°ÑģÐ°Ð¶Ð¸": 7623,
      "ĠÑģÐµÑĢÑĤÐ¸ÑĦÑĸÐºÐ°": 7624,
      "ĠÐ¿ÑĢÐ¾Ð¿Ð°Ð³": 7625,
      "Ð¶ÑĥÑİÑĤÑĮÑģÑı": 7626,
      "ĠÐĴÐ°Ð¶": 7627,
      "ÑģÑıÑĤÑĮÑģÑı": 7628,
      "Ð¾ÑĢÑĸÐ¶": 7629,
      "ĠÑĤÑĢÐ°Ð²Ð½Ñĸ": 7630,
      "ĠÐ½Ð°ÑĪÐµ": 7631,
      "ĠÑģÑĤÐ¸Ð»ÑĮ": 7632,
      "ĠÑĩÐµÐ¼Ð¿ÑĸÐ¾Ð½Ð°ÑĤÑĥ": 7633,
      "ÐĶÑĢÑĥ": 7634,
      "ĠÑĤÐ²Ð¾": 7635,
      "(Ð²Ð¸": 7636,
      "ĠÐ¿Ð¾Ð²'ÑıÐ·Ð°Ð½Ð¸Ñħ": 7637,
      "ĠÐĹÐ°Ð¿Ð¾ÑĢÑĸÐ·ÑĮ": 7638,
      "ÑĩÐ¸Ð²ÑģÑı": 7639,
      "ÐľÐ°ÑĤ": 7640,
      "ĠÐ¿ÑĸÑĢ": 7641,
      "Ð¶Ð½Ð¾Ð³Ð¾": 7642,
      "ĠÐ°Ð½Ð°Ð»Ñĸ": 7643,
      "ĠÐ¿ÑĢÐ¾Ð²ÐµÐ´ÐµÐ½Ð¾": 7644,
      "ĠÐ²Ð¸ÑĢÐ¾Ð±ÑĸÐ²": 7645,
      "ĠÐ´Ð¸Ð²Ð¸": 7646,
      "ĠÐ·Ð´ÑĸÐ±": 7647,
      "ĠÐ¼Ð¾Ð´Ñĥ": 7648,
      "ĠÐ½ÐµÐ¿ÑĢÐ¸ÑĶÐ¼": 7649,
      "ĠÐ¹ÑĤÐ¸": 7650,
      "Ð°Ð¿Ð°Ð·": 7651,
      "ĠÐ¿ÑĢÐ¾ÑĦÐµÑģÑĸÐ¾Ð½": 7652,
      "ĠÐ¾Ð±Ð³Ð¾Ð²Ð¾ÑĢÐµÐ½Ð½Ñı": 7653,
      "ĠÐ²ÑĤÐ¾ÑĢÐ³": 7654,
      "ĠÑģÐ¿ÐµÑĨÑĸÐ°Ð»ÑĮÐ½Ð¸Ñħ": 7655,
      "age": 7656,
      "ĠÐ°Ð½Ð°Ð»Ð¾Ð³ÑĸÑĩ": 7657,
      "Ð¾Ð´ÑĮ": 7658,
      "VID": 7659,
      "ĠÐ²Ð¸Ð±Ð¾ÑĢÐ¸": 7660,
      "ĠÐ£ÐºÑĢÐ°ÑĹÐ½Ð¾Ñİ": 7661,
      "ÐºÐ¾Ð²Ð¸Ð¼Ð¸": 7662,
      "ÐĶÐ¶ÐµÑĢÐµÐ»Ð¾": 7663,
      "ĠÑĢÐµÐ°ÐºÑĨÑĸÑĹ": 7664,
      "ÑĸÐ·Ð½ÑĸÑĪÐµ": 7665,
      "ĠÐĽÑĮÐ²ÑĸÐ²ÑģÑĮÐºÐ¾ÑĹ": 7666,
      "ĠÑĪÐºÑĸÑĢÑĥ": 7667,
      "Ð°Ð±ÑĢÐ¸": 7668,
      "ĠÑĥÑģÑĤÐ°Ð½Ð¾Ð²Ð¸": 7669,
      "ĠÑģÑĤÐ¾ÑĹÑĤÑĮ": 7670,
      "ĠÐ¾Ð±ÑģÑĤÐµ": 7671,
      "ide": 7672,
      "ĠÑĢÑĥÐ¹Ð½Ñĥ": 7673,
      "ĠÐĶÐµÑıÐºÑĸ": 7674,
      "ĠÐ¿ÐµÑĢÐµÑĪÐºÐ¾Ð´": 7675,
      "ĠÐ²ÐµÐ´ÐµÐ½Ð½Ñı": 7676,
      "Â«ÐľÐ¸": 7677,
      "ĠÑĨÑĸÐ»ÑĮ": 7678,
      "Ð¾Ð¿Ð¾Ð¼": 7679,
      "ĠÐ¿ÑĢÐ¸Ð¹Ð½ÑıÑĤÐ¾": 7680,
      "Ð²ÑĸÐ²": 7681,
      "ĠÑģÐ²Ð¸": 7682,
      "ĠÐ¿Ð¾ÑıÐ²Ð¸": 7683,
      "ĠÐ±Ð°ÑĤÑĮÐºÐ°": 7684,
      "ĠÐ¿ÐµÑĢÐµÑħÑĸÐ´": 7685,
      "ĠÑĥÐ²Ð°Ð¶": 7686,
      "ĠÐ½ÑĸÐ±Ð¸": 7687,
      "ĠÑģÑĤÑĥÐ¿ÑĸÐ½ÑĮ": 7688,
      "ĠÐ¿ÑĢÐ¾ÑģÑĤÑĸÑĢ": 7689,
      "ĠÐ·Ð»Ð¾Ð²": 7690,
      "Ð¤Ð¾ÑĢ": 7691,
      "ĠÑĢÐ¾Ð·Ð¿Ð¾Ð²ÑģÑİ": 7692,
      "ÐĴÐļ": 7693,
      "ĠÐ¿Ð¾Ð»Ðµ": 7694,
      "ĠÑĦÑĥÐ½ÐºÑĨÑĸÐ¾Ð½ÑĥÐ²Ð°Ð½Ð½Ñı": 7695,
      "Ð²Ð°ÑĶÐ¼Ð¾": 7696,
      "ĠÑģÑĸÑĩÐ½Ñĸ": 7697,
      "Ð¾Ð²Ð¸ÐºÐ¸": 7698,
      "Ð´Ð¾Ð²Ð¶": 7699,
      "ĠÐ°ÑģÑĤ": 7700,
      "-Ð·Ð°": 7701,
      "ĠÐ¾ÑĩÐ¾Ð»Ñİ": 7702,
      "ĠÐ¼Ð¾Ð»Ð¾Ð´Ð¸Ñħ": 7703,
      "ÑĦÑĸÑĢ": 7704,
      "(;": 7705,
      "ÐĿÐ°ÑĢ": 7706,
      "ĠÐ´ÑĢÑĥÐ¶": 7707,
      "ĠÐ¿Ð¾Ð²ÑĸÐ´Ð¾Ð¼Ð»ÐµÐ½Ð½Ñĸ": 7708,
      "ÐĳÐµÐ·": 7709,
      "Ð²Ð°Ð»Ð°ÑģÑı": 7710,
      "ĠÐ·ÑĸÐ³": 7711,
      "ĠÐ¼ÑĸÐ½ÑĸÑģÑĤÑĢ": 7712,
      "(ÐĶ": 7713,
      "ĠÐ¾ÑĤÑĢÐ¸Ð¼ÑĥÑİÑĤÑĮ": 7714,
      "ÑĥÐ½Ð´Ð°Ð¼": 7715,
      "Ð¾ÑģÑĤÐ°Ð²": 7716,
      "ĠÐ»ÑİÐ´Ð¸Ð½Ð¾Ñİ": 7717,
      "ĠÑĨÐ¸Ð±Ñĥ": 7718,
      "ÑĢÐµÐ½Ð°": 7719,
      "ĠÐ²ÐµÐ»Ð¸ÐºÐ¸Ð¼": 7720,
      "ĠÑīÐ¾Ð´Ð½Ñı": 7721,
      "ĠÐºÐ¾Ð½ÑģÑĤÐ¸ÑĤÑĥ": 7722,
      "ĠÑģÐ¸ÑģÑĤÐµÐ¼Ð¾Ñİ": 7723,
      "ÐĽÐĨ": 7724,
      "ĠÐ¿ÑĢÐ¸Ð¼Ñĥ": 7725,
      "ĠÐ¿Ð¸ÑĪ": 7726,
      "ĠÐĶÐ¶Ð¾Ð½": 7727,
      "ĠÑĪÐºÑĸÑĢ": 7728,
      "ĠÐ´Ð¾Ð»Ñĥ": 7729,
      "ÑĶÑĢ": 7730,
      "ĠÐ¿ÑĢÐ¾Ð´Ð¾Ð²Ð¶ÑĥÑĶ": 7731,
      "ĠÐ·Ð°Ð·Ð´": 7732,
      "ĠÐ±ÑĥÑħÐ³Ð°Ð»ÑĤÐµÑĢ": 7733,
      "ĠÐ§Ð¾Ð¼Ñĥ": 7734,
      "ĠÑĤÑĢÐ°Ð¿": 7735,
      "-Ð¼Ð°Ð³": 7736,
      "mer": 7737,
      "ĠÐ·Ð°ÑĦÑĸÐºÑģ": 7738,
      "ĠÐ·Ð²ÐµÑĢÐ½ÑĥÑĤÐ¸ÑģÑı": 7739,
      "ĠÐ¿ÑĢÐ¸Ñħ": 7740,
      "ĠÐ´ÑĸÐ°Ð¼ÐµÑĤ": 7741,
      "ĠÑĥÐ½ÑĸÐ²ÐµÑĢÑģÐ¸ÑĤÐµÑĤÑĸ": 7742,
      "Ð·Ð¸Ð²": 7743,
      "ĠÑĤÐµÐ»ÐµÐ²ÑĸÐ·": 7744,
      "ĠÐĶÐµÐ¿": 7745,
      "ĠÐ¡ÑĤÐµÐ¿Ð°Ð½": 7746,
      "Ð»Ð¸ÑĨÑı": 7747,
      "ĠÐ¿ÑĢÐ¸ÐºÐ¾ÑĢÐ´Ð¾Ð½": 7748,
      "ÑģÑĤÐ¾ÑĹ": 7749,
      "ĠÑĦÐ°ÐºÑĤÐ¾ÑĢÑĸÐ²": 7750,
      "Ð°Ð»ÑĮÐ½ÑĸÑģÑĤÑİ": 7751,
      "ĠÐ½Ð°Ð³Ð¾Ð»Ð¾ÑģÐ¸Ð²": 7752,
      "ĠÐ´ÑĢÑĥÐ³Ð¾Ð¼Ñĥ": 7753,
      "ĠÐ½Ð°Ð¹Ð¿": 7754,
      "ĠÐºÐ²Ð°Ð´": 7755,
      "ĠÐľÐ¸ÐºÐ¾Ð»Ð°Ð¹": 7756,
      "ĠÐ²Ð¸Ð´Ð½Ð¾": 7757,
      "Â«Ñģ": 7758,
      "ĠÐ¿ÑĢÐ¸Ð¼ÑĸÑīÐµÐ½Ð½Ñĸ": 7759,
      "ĠÐ²Ð»Ð°ÑģÐ½Ð¾Ð³Ð¾": 7760,
      "ĠÐ½Ð°ÑĢÐ°Ð·Ñĸ": 7761,
      "ĠÐ²Ð¾ÑĹ": 7762,
      "ĠÑĦÑĸÑĢÐ¼Ð¸": 7763,
      "ĠÐ´Ð¾Ð½ÑĮ": 7764,
      "ĠÑĪÐºÑĸÐ»": 7765,
      "Ð½ÐµÐ²": 7766,
      "\"ÐŁÑĢÐ¾": 7767,
      "ĠÐ´ÐµÐºÐ¾ÑĢÐ°": 7768,
      "ĠÑħÐ¾ÑĩÐµÑĤÑĮÑģÑı": 7769,
      "ĠÑĤÐ²Ð¾ÑĢÑĩÑĸ": 7770,
      "ĠÐ±ÐµÑĢÑĥÑĤÑĮ": 7771,
      "ĠÐ¿ÑĢÐ¾Ð²Ð¾Ð´ÑıÑĤÑĮ": 7772,
      "ĠÐ³Ð¾Ð»Ð¾ÑģÑĥÐ²Ð°Ð½Ð½Ñı": 7773,
      "ĠÐ²Ð¸Ð±ÑĥÑħ": 7774,
      "ĠÐ²ÑĢÐµ": 7775,
      "ÑĤÐ¸Ð½Ð°": 7776,
      "ĠÐ¡ÑĥÐ´": 7777,
      "ĠÐºÐ¾Ð½ÑĤÑĢÐ°ÐºÑĤ": 7778,
      "ĠÑĩÐ°ÑģÑĤÐºÐ¾Ð²Ð¾": 7779,
      "ĠÑĤÑĥÐ´Ð¸": 7780,
      "ĠÐ²Ð¸Ð¿Ð°Ð´ÐºÐ¸": 7781,
      "ÐµÑĦÐµÐºÑĤÐ¸Ð²": 7782,
      "Ð°Ð´Ð¾Ð²": 7783,
      "ĠÐĹÐ°ÐºÐ¾Ð½": 7784,
      "ÑĥÐºÐ°": 7785,
      "Ð¿Ð¸ÑģÐ¾Ðº": 7786,
      "ĠÑģÑĤÐ²Ð¾ÑĢÑİÑĶ": 7787,
      "ÐºÐ»Ð°Ð´Ð¸": 7788,
      "ĠÐ¿Ð¾Ð²Ð½Ð¾ÑĨÑĸÐ½": 7789,
      "ÐµÑĢÐ°Ð¼Ð¸": 7790,
      "ÑĢÐ¾Ð²ÑĸÐ´": 7791,
      "ĠÐ¿Ð¾ÐºÐ°Ð·Ð½Ð¸ÐºÐ¸": 7792,
      "ĠÐ¿Ð¾Ð·Ð°Ð¿Ð°ÑĢÑĤ": 7793,
      "ĠÐ¿Ð¾Ð²ÑĸÐ´Ð¾Ð¼Ð¸Ð»Ð°": 7794,
      "ĠÐ²Ð¾Ð»Ð¾Ð½": 7795,
      "ĠÐºÐ»Ð°Ð´": 7796,
      "ĠÐŀÐ¡": 7797,
      "ĠÐ²ÑĸÐ¹ÑģÑĮÐºÐ¾Ð²Ñĸ": 7798,
      "ÑģÐ½ÑĸÑĤÑĮ": 7799,
      "ĠÑģÑħÐ¾Ð´Ñĸ": 7800,
      "ĠÐ²ÑĸÐ¹Ð½Ñĥ": 7801,
      "ĠÐ±ÐµÑĢÐµÐ·Ð½Ñĸ": 7802,
      "ĠÐ·ÑĥÑģÐ¸Ð»Ð»Ñı": 7803,
      "(ÑıÐº": 7804,
      "ĠÑģÑĥÐ¼Ð°": 7805,
      "ĠÐ½Ð°Ð¿ÑĢÑı": 7806,
      ".)Ċ": 7807,
      "ĠÐ½Ð°ÑĦÑĤ": 7808,
      "Ð¾Ð²ÑĸÑĤ": 7809,
      "Ð¾Ð±ÑĥÑģ": 7810,
      "ĠÑıÐ±Ð»Ñĥ": 7811,
      "ĠÑģÐµÐ»ÑıÐ½": 7812,
      "ĠÑĤÐµÐ»ÐµÐºÐ°Ð½": 7813,
      "ĠÑħÐ¾ÑĤÑĸÐ²": 7814,
      "ĠÐŁÑĢÐ¾Ð³ÑĢÐ°": 7815,
      "Ã³": 7816,
      "ĠÐ¿ÑĸÐ´Ð¾Ð·ÑĢÑİ": 7817,
      "ĠÑĸÑģÐ½ÑĥÑİÑĤÑĮ": 7818,
      "ĠÐ¾ÑĦÑĸÑĨÑĸÐ¹Ð½Ð¾": 7819,
      "ĠÐ¾ÑĢÐ¸Ð³ÑĸÐ½Ð°Ð»ÑĮÐ½Ð¾Ð¼Ñĥ": 7820,
      "ĠÐĿÐ¾ÑĢ": 7821,
      "ĠÐºÐ»ÑĸÐ½ÑĸÑĩ": 7822,
      "ÐłÐ°Ð½ÑĸÑĪÐµ": 7823,
      "ĠÑİÐ²Ñĸ": 7824,
      "ĠÐ³Ð¾Ð²Ð¾ÑĢ": 7825,
      "ĠÐŁÐĶ": 7826,
      "ĠÑģÐµÐºÑĥ": 7827,
      "ĠÑĢÐ¾ÐºÐ¾Ð¼": 7828,
      "ĠÐĴÐ¸ÐºÐ¾ÑĢÐ¸ÑģÑĤ": 7829,
      "-ÐĽ": 7830,
      "ĠÑĢÐ¾Ð·Ñģ": 7831,
      "ĠÐ¿ÑĢÐµÐ·ÐµÐ½": 7832,
      "Ð³Ð¾ÑģÐ¿": 7833,
      "ĠÑĪÐºÐ¾Ð»Ñĥ": 7834,
      "ÅĤ": 7835,
      "ĠÑĢÑĥÐºÐ°Ð¼Ð¸": 7836,
      "ĠÐĹÐ°Ð²": 7837,
      "ÑĥÐ²Ð°ÑĩÑĸÐ²": 7838,
      "ĠÐ¾ÐºÑĢÑĥÐ³Ñĥ": 7839,
      "Ð»ÑĮÐ½Ñĥ": 7840,
      "Ð½ÐµÑİ": 7841,
      "ĠÐĨÑģÑĥ": 7842,
      "ÑģÑĤÐ°Ð½Ñĥ": 7843,
      "Ð»Ð¸Ð²Ð¾Ñİ": 7844,
      "-ÐĻÐ¾ÑĢ": 7845,
      "ĠÐĳÐ¾Ð»": 7846,
      "ĠÐ¼Ð¾Ð³Ð»Ð°": 7847,
      "ĠÐºÐ¾Ð½ÐºÑĥÑĢÐµÐ½": 7848,
      "ĠÐ´Ð¾Ð¿Ð¾Ð¼Ð¾Ð¶ÑĥÑĤÑĮ": 7849,
      "ĠÐ´ÐµÐ²'Ñı": 7850,
      "ĠÑģÐµÑĢÐµÐ´Ð½ÑĮÐ¾ÑĹ": 7851,
      "ĠÐ¾Ð±ÒĳÑĢÑĥÐ½": 7852,
      "ĠÐ½ÐµÐ³Ð°Ð¹": 7853,
      "ĠÑĶÐ´": 7854,
      "ĠÐ¿ÑĸÐ»ÑĮ": 7855,
      "Ð´Ð¾ÑĢ": 7856,
      "ÑģÐ»Ð°Ð²": 7857,
      "ÑĢÐºÑĥ": 7858,
      "ĠÐ¾Ð·Ð½Ð°ÐºÐ¸": 7859,
      "ÑĸÐ»ÑĮÐ½Ñĸ": 7860,
      "ĠÐ³Ð¾Ð»Ð¾Ð²Ð½Ð¸Ñħ": 7861,
      "ĠÐ¼ÑĥÐ·ÐµÑİ": 7862,
      "\"Ð£": 7863,
      "ĠÐ·Ð²Ð°Ð½": 7864,
      "ĠÑģÑĸÐ»ÑĮÑģÑĮÐºÐµ": 7865,
      "Ð¶Ð¾Ðº": 7866,
      "ĠÑĸÐ½Ð°ÐºÑĪÐµ": 7867,
      "ĠÐ¿Ð¾Ð³ÑĸÑĢ": 7868,
      "ÐĴÐ°ÑĢ": 7869,
[...]
